#version: 0.2
Ġ t
h e
Ġ a
o n
i n
Ġ o
Ġt he
r e
i t
Ġo f
i s
e n
a t
Ġ c
e r
Ġ w
i on
Ġ s
Ġ p
Ġ in
a l
i c
n d
Ġ b
e s
Ġt h
o r
Ġt o
Ġ m
c e
c t
Ġ f
in g
a n
e d
Ġ n
Ġ e
s e
o u
Ġ is
l y
Ġ re
l e
Ġa nd
Ġ it
Ġ Ġ
Ġc on
Ġ d
Ġb e
s t
o m
en t
Ġw h
o t
a r
ic h
a s
u t
e ct
Ġ h
Ġa s
Ġp r
l l
Ġwh ich
t he
Ġth at
Ġ u
i v
it ion
i m
at ion
o s
it y
Ġe x
Ġa n
Ġ on
Ġn ot
ic al
Ġ l
p t
ĠĠ ĠĠ
j ect
Ġth is
es s
o w
Ġw e
Ġf or
it h
b ject
i d
ce pt
en ce
Ġs u
i b
t er
i r
u re
l d
Ġ g
Ġw ith
t h
Ġ I
u r
c i
o g
q u
v er
cept ion
re s
is t
Ġo r
iv e
a y
e re
Ġc an
as on
g h
a in
â Ģ
a nd
i f
Ġb y
e c
se l
p er
s ib
Ġa ll
r om
Ġpr o
e m
u l
Ġo bject
p p
Ġ T
Ġa re
at e
Ġre ason
v e
c on
c h
Ġf rom
Ġin t
he n
u st
en d
o re
Ġd e
the r
i l
Ġb ut
p le
Ġa l
os sib
u s
Ġcon ception
Ġit s
a ct
Ġh a
nd er
d ition
Ġon ly
âĢ Ķ
a m
Ġu n
i ll
p l
ou gh
a b
ou ld
sel f
a w
d e
an s
Ġc a
Ġa t
o l
Ġ (
i g
u m
in ci
t ain
Ġthe re
Ġo ur
ĠĠĠĠ ĠĠĠĠ
i es
m in
ter min
Ġm ust
Ġs p
res ent
Ġc om
n ot
t r
Ġl aw
c c
o f
Ġp ossib
al ity
ou s
Ġe m
ec ess
es t
Ġ r
Ġpr inci
Ġex ist
Ġu nder
Ġs o
i ence
Ġp ure
Ġo ther
he r
Ġm e
Ġw or
id e
per ience
st and
Ġha ve
im e
Ġs en
og n
om en
Ġde termin
Ġt r
Ġd o
Ġm ere
hen omen
Ġcon dition
f ore
ct ion
ĠT he
Ġ B
u se
stand ing
Ġ v
Ġit self
ver y
ar y
Ġn ecess
or i
o d
g e
Ġp er
Ġan y
Ġthe m
a k
Ġfor m
u ition
Ġw ill
Ġm ay
Ġn o
ou nd
al l
Ġ im
Ġth ing
p ir
Ġt ime
Ġa b
p r
Ġthe y
ar d
Ġn at
Ġs y
Ġ he
a d
p os
Ġex perience
am e
pir ical
s u
i ori
Ġre g
il ity
e ver
ab le
a ce
Ġu s
o se
in d
an t
end ent
Ġ k
ation s
Ġc ogn
Ġp henomen
Ġ F
ar t
p resent
Ġcan not
Ġ if
Ġs h
f f
ou t
e x
Ġre l
Ġint uition
Ġ qu
om e
Ġs e
Ġthe se
ĠB ut
Ġbe ing
Ġpossib le
Ġh as
v es
u d
Ġon e
Ġs t
p h
Ġg iv
or d
Ġpr iori
Ġcon s
Ġe v
Ġ ide
w h
an ce
Ġem pirical
act ical
Ġ j
Ġ A
gh t
Ã ł
Ġm an
ans c
Ġa cc
ou r
n ow
a c
i re
th ing
ul t
Ġunder standing
Ġnat ure
at ive
Ġthere fore
on e
Ġconception s
ansc endent
Ġa pp
n the
Ġm or
pl es
em ent
Ġw ould
se qu
Ġthe ir
Ġsu ch
Ġcogn ition
Ġexist ence
it e
Ġ Ãł
Ġgiv en
c a
ĠF or
p on
Ġsu bject
sel ves
pos ition
u n
Ġreg ard
Ġobject s
ut e
anscendent al
f or
ent ly
Ġa d
al ly
t o
Ġprinci ple
Ġd is
Ġ P
) ,
Ġre present
er s
Ġmere ly
Ġphenomen a
Ġpr actical
s o
wh ich
Ġwor ld
Ġp re
on g
t ical
Ġp art
e t
f ere
Ġk now
ĠT h
he re
Ġwith out
en er
i ght
Ġc h
Ġ y
Ġsy nthe
t e
fere n
ter n
st r
m ent
ion s
ic t
Ġthing s
Ġs ame
Ġs ome
s is
er tain
ough t
Ġme ans
Ġ le
c l
g ement
sequ ently
Ġe very
c es
Ġprinci ples
h ing
Ġa r
Ġun ity
ak e
s p
at ter
Ġ S
at ed
ord ing
is e
tern al
Ġh ow
res s
s ol
Ġwh at
ĠĠĠĠĠĠĠĠ ĠĠĠĠĠĠĠĠ
Ġm y
Ġnecess ary
i e
Ġmor al
ud gement
ay s
Ġsu b
Ġwh o
Ġp h
Ġev en
pp os
l ed
en s
Ġca se
ca use
Ġs er
f in
n ess
Ġ N
th at
ener al
Ġ O
e l
Ġrel ation
th ough
o y
Ġth an
im it
ph y
in t
p ossib
Ġh is
a g
Ġm ore
m at
Ġcon tain
p re
con dition
sol ute
o p
ce d
Ġlaw s
Ġn e
Ġtr anscendental
Ġide a
n ect
re e
Ġbe cause
Ġd if
ĠI n
Ġcondition s
Ġf ar
Ġp resent
Ġdo es
Ġal so
w ays
d u
Ġu pon
Ġnot hing
Ġcom ple
i z
Ġc ertain
Ġa ction
ec ul
Ġp l
Ġm a
led ge
b e
Ġcon t
Ġca us
Ġj udgement
o ll
Ġpossib ility
il os
Ġbe l
oll ow
ĠI t
ult y
ci ous
b er
og ical
Ġpro position
he ther
on d
Ġacc ording
Ġint o
Ġsp ace
Ġ W
Ġsen se
Ġca use
g or
ate gor
Ġn ever
or t
ff ect
Ġw hen
Ġu se
Ġg eneral
re at
Ġm o
u e
Ġcon sequently
Ġthe n
pl oy
Ġth ought
Ġ C
Ġcon tr
ir st
Ġg r
T he
Ġab solute
Ġal one
u ch
Ġ end
Ġl imit
Ġser ies
Ġ G
con ception
ation al
o ld
r it
Ġpro per
Ġthem selves
Ġal ways
ig n
Ġcon nect
it her
at es
i al
is m
Ġf ound
a st
Ġf ac
Ġre qu
s er
Ġs ay
st em
Ġf ollow
Ġp os
for m
Ġo b
possib le
a re
Ġg o
Ġd ist
iv ers
Ġc ould
Ġo w
m e
Ġcom m
Ġh im
ar i
Ġknow ledge
âĢ ľ
âĢ Ŀ
Ġsh ould
Ġal though
Ġow n
Ġem ploy
Ġqu est
Ġd es
c om
Ġc all
pr o
Ġf irst
f ect
Ġph ilos
Ġdif feren
Ġobject ive
Ġw as
ot her
Ġbe en
Ġcons id
Ġre m
in k
is h
sp ect
a ch
ĠN ow
Ġsynthe sis
Ġcomple te
ic i
w ith
Ġdis c
Ġre spect
re ed
Ġex am
ere d
Ġin de
in e
Ġc ategor
Ġp ur
reed om
Ġw hether
Ġex t
i ed
Ġth us
Ġfac ulty
Ġr ational
su ous
Ġbel ong
Ġ âĢľ
d er
Ġp o
ĠTh is
Ġ H
r o
w e
Ġre ality
Ġform er
Ġsy stem
ut h
d ic
Ġa ct
u nder
in ation
Ġsome thing
s ess
Ġ very
Ġha pp
Ġv al
Ġor der
cious ness
Ġs ci
Ġpl ace
Ġl atter
Ġm ake
Ġf e
Ġwe re
Ġhow ever
ecul ative
Ġgr ound
l ess
Ġa g
m it
o ver
m ed
um an
Ġwho le
st it
b y
Ġth ose
Ġcaus ality
Ġe ffect
Ġ en
Ġnecess ity
p ar
Ġf ind
p ose
x im
in ess
Ġth ink
ad ict
Ġun ivers
o bject
Ġ R
w o
Ġquest ion
al y
Ġp res
ex ist
e ll
ic s
r ough
Ġf reedom
ig in
Ġ E
Ġy ou
h a
Ġre al
Ġo ut
Ġsen sib
s y
Ġpos sess
Ġgo od
Ġrepresent ation
Ġsub st
Ġapp l
Ġex p
Ġt er
Ġa m
Ġpro du
k e
e ar
t y
u al
i le
Ġh uman
Ġman if
o phy
Ġsynthe tical
Ġm ind
Ġj ust
og it
ari ly
re ason
Ġsen suous
ĠI f
Ġper fect
m an
Ġs im
Ġdetermin ed
Ġas s
Ġc rit
o ve
Ġdifferen t
Ġp ow
Ġd ut
pre me
a v
th is
Ġt wo
Ġat t
Ġin ternal
Ġm at
ed u
Ġper ception
s en
ce ed
Ġy et
ic ation
Ġma xim
Ġsp here
ib le
phy s
Ġn ame
Ġth rough
id ent
ur al
Ġ D
u le
or y
Ġval id
he mat
ou n
Ġg reat
Ġf act
) .
Ġsp eculative
Ġide as
condition ed
b le
i ke
an g
ol ogical
under standing
Ġs ec
le ct
l f
is he
Ġsci ence
iv ed
Ġor igin
Ġb as
ut en
c ogn
Ġsh all
ie w
de termin
Ġdetermin ation
con s
Ġ ent
ff ici
ber g
Ġcall ed
uten berg
Ġ _
as s
Ġwor d
o k
in ce
Ġim p
ere st
ar act
Ġse lf
y ond
ut ion
aract er
Ġc or
fin ite
an ge
the re
ul ar
Ġphenomen on
ĠW e
Ġdut y
Ġcon stit
pr inci
Ġexam ple
Ġmo de
us ion
Ġr ule
Ġcons ciousness
Ġex ternal
Ġwor k
Ġin v
Ġsubject ive
o ok
Ġv iew
Ġin cl
T h
Ġe ach
ĠP ro
Ġc ogit
Ġqu ant
Ġabsolute ly
Ġh ig
Ġphilos ophy
ar k
Ġmanif old
ot h
Ġpo int
Ġpur pose
r ib
n ecess
ic e
f ul
v ed
Ġim possible
Ġnat ural
Ġhe re
Ġst ill
Ġsen s
y p
Ġan other
og y
i ate
Ġnecess arily
ent s
Ġfe el
c an
n er
Ġconnect ion
Ġcategor ies
Ġsh ow
Ġbe t
Ġwh ile
s ion
t ed
Ġdetermin e
Ġex pl
ex perience
Ġbe yond
Ġin f
cc ess
er n
Ġqu ite
Ġad mit
act ion
e ci
a phys
Ġcontain s
Ġa p
p henomen
w ise
at ing
Ġn or
Ġle ast
Ġunivers al
Ġl ike
Ġpow er
an ces
Ġint ell
Ġst ate
ĠR e
Ġintell ig
Ġg ive
Ġw ay
Ġrequ ire
Ġhim self
i res
Ġ est
Ġe ither
Ġrepresent ations
Ġwe ll
Ġour selves
ire ct
Ġk ind
Ġh and
g in
Ġan aly
Ġlimit s
Ġconsid er
Ġd em
Ġch aracter
Ġinde ed
Ġpro ceed
Ġint erest
Ġapp ear
u ght
Ġcon c
Ġaction s
ab l
Ġname ly
Ġ M
Ġw here
ĠPro ject
ing u
Ġd iv
a ge
at is
it s
Ġre st
Ġfollow s
Ġs tr
Ġdetermin ing
iz e
m uch
ppos ition
conception s
Ġter m
Ġcontr ary
B ut
t ic
Ġre f
Ġd edu
Ġm atter
y s
Ġcon cl
em pt
Ġcontr adict
exist ence
ĠG utenberg
Ġpart s
a pp
ĠTh us
Ġsensib ility
Ġpro of
Ġhapp iness
Ġcomm on
Ġsubst ance
ishe d
ffici ent
Ġtr uth
atis f
re g
en ces
Ġrem ain
Ġsec ond
Ġin d
Ġad v
Ġb oth
ot he
g um
feren ce
Ġcom p
Ġse e
ol ogy
Ġbe gin
ak es
med iate
Ġl ogical
. ,
Ġass um
Ġnot ion
Ġsu m
con tr
Ġtr ue
Ġd ec
Ġ L
int uition
yp othe
p endent
Ġme t
Ġmor ality
Ġto t
as much
Ġman ner
Ġf ree
Ġpres u
f rom
f ter
Ġo ught
Ġt ake
re present
Ġdist in
ĠRe ason
ab ly
e v
Ġpre dic
l u
ic ular
Ġregard s
r ing
Ġcont ent
Ġquant ity
ce ive
Ġha d
i ous
r a
we en
t en
os m
Ġcons ist
Ġexp ress
str u
ic ism
Ġre s
le ar
Ġun conditioned
Ġmo st
f ic
Ġ 1
Ġsu preme
Ġfound ation
Ġ U
sib le
Ġ ill
ir m
Ġfeel ing
it ed
Ġm ight
Ġbe fore
Ġcon f
Ġcondition ed
Ġma de
Ġjudgement s
ĠC on
Ġm uch
Ġregard ed
Ġa ff
Ġconsid ered
u nd
og ic
a id
Ġmat hemat
o st
o id
on str
Ġs ince
Ġdisc over
b ut
Ġat tain
is ion
ce ived
Ġsu pp
Ġsu ccess
Ġexist s
em pirical
pon d
E R
Ġn ow
Ġa im
est ig
ĠA nd
res pond
Ġbeing s
un ction
I n
v ing
iv es
ppos ed
Ġph ys
ĠO f
Ġ [
Ġreg ress
p end
he st
re l
Ġd irect
Ġab ove
ĠO n
Ġbet ween
Ġsim ple
Ġm ot
m a
le ment
Ġpro ble
per ception
Ġproposition s
a cc
Ġar gum
, âĢĿ
Ġde g
Ġc l
ul es
Ġst and
Ġab le
Ġh ypothe
c ise
w ard
Ġother s
k now
Ġth ough
Ġcon form
iz ed
en e
Ġch ange
ou b
Ġcognition s
ĠP ure
ial ect
Ġc lear
p able
n ing
on ly
ser t
cogn ition
su b
Ġar r
i qu
Ġu p
the m
ak en
Ġse t
at ic
Ġs atisf
princi ple
Ġcon cept
Ġs our
Ġin asmuch
Ġim ag
n at
at h
Ġo cc
Ġin finite
Ġman y
Ġext end
phenomen a
t m
as ure
the less
Ġcomplete ly
s w
s on
Ġan sw
E N
O O
w or
Ġr ules
Ġest abl
ut es
mat ical
Ġemploy ed
Ġbas ed
re ad
Ġde fin
Ġag ain
Ġpresent ed
Ġcaus es
Ġdist ingu
om y
ign if
Ġn um
be ing
c rib
Ġr ight
Ġconc ern
Ġd er
Ġmy self
c ertain
Ġhig hest
d is
iqu e
th od
od u
Ġany thing
ect ion
Ġso le
Ġa fter
Ġcon sequ
there fore
Ġwor th
op her
Ġent ire
Ġmet aphys
T I
Ġob ser
re d
Ġbelong s
Ġp le
Ġpart icular
Ġm od
Ġe l
Ġim mediate
O N
Ġex er
ore tical
Ġconnect ed
oun t
u de
ent al
pr actical
Ġintuition s
Ġse em
Ġdes ire
at her
Ġemploy ment
av our
c he
Ġappl ication
necess ary
I t
m ust
if e
Ġcont ing
Ġtot ality
ra ph
t le
ent ion
Ġrequ ires
Ġvalid ity
Ġin dic
ag raph
Ġres ult
p s
Ġevery thing
Ġne ed
Ġre ally
Ġl ogic
Ġacc ord
l aw
Ġim per
Ġle g
Ġg u
tr ib
m on
Ġa c
Ġw ant
m ere
Ġf ur
lu ence
Ġb od
ĠG od
Ġatt empt
Ġcontain ed
Ġground s
our se
Ġf in
Ġne g
hen ce
condition s
Ġinv estig
ou l
Ġcor respond
er r
con t
c y
tr anscendental
possib ility
id es
Ġper son
su bject
ir t
Ġrem ark
Ġl ife
ĠĠĠĠĠĠĠĠĠĠĠĠĠĠĠĠ ĠĠĠĠĠĠĠĠ
Ġintellig ible
Ġrel ations
Ġper man
Ġe lement
Ġas sert
Ġmaxim s
contr adict
it self
Ġme an
with out
Ġdeg ree
h ow
m um
Ġm ain
un ity
Ġne w
an e
c ome
Ġan t
ĠT H
Th is
Ġsens es
Ġr ather
p art
Ġthere by
OO K
ct r
sy nthe
m is
on um
Ġn on
Ġe as
Ġsystem atic
Ġs ide
oub t
Ġc o
og ress
Ġend s
Ġword s
) ;
r aw
Ġre ad
Ġdem onstr
a im
ĠTh at
a se
Ġme thod
Ġab str
ens ion
Ġimp ort
Ġphilos opher
I f
l ig
Ġansw er
W e
d o
Ġs ignif
Ġother wise
B OOK
Ġd og
Ġform al
Ġremain s
read y
e p
p ect
ak ing
Â §
du ct
b ec
Ġc op
Ġthink ing
Ġperfect ly
g o
Ġl ong
Ġne ither
Ġentire ly
Ġm em
Ġbel ie
A L
er ial
r anscendental
Ġs oul
Ġphys ical
i ly
Ġs ol
Ġ err
Ġnum ber
ar r
Ġ hence
Ġv irt
Ġcont in
it ies
is es
Ġl ess
osm ological
Ġ "
Ġe qu
hen sion
Ġide al
Ġinde pendent
an ation
Ġproble m
id ed
ĠH ence
' s
is l
Ġbas is
Ġaccord ance
i ar
Ġo ver
ate ver
Ġat trib
A P
al though
Ġex cept
Ġgiv es
Ġcomm and
Ġb onum
Ġh old
pr iori
Ġcogit ated
Ġm en
com ple
b it
Ġapp re
Ġs aid
ĠThe re
Ġproper ly
C H
m en
Ġsp eci
en cy
m all
Ġb ound
ĠI I
Ġpre ced
Ġdif fic
Ġpo st
nat ure
a use
u ally
Ġin qu
Ġbegin ning
Ġbe come
ĠP r
Ġexpl ain
Ġpre v
o v
Ġinf luence
Ġe ver
Ġal ready
Ġform s
Ġ her
Ġsu fficient
ecul iar
Ġdistin ction
Ġ ident
Ġto o
Ġd ialect
Ġt aken
ĠS u
ĠO F
Ġdedu ction
t ime
re ct
Ġp ass
lect ual
T ER
Ġre nder
as es
Ġacc ount
par agraph
Ġexer cise
Ġdetermin es
Ġapp ly
Ġcon duct
p ure
an y
uth or
object s
con sequently
ĠA s
ced ure
Ġthe oretical
Ġpr ogress
Ġlimit ed
. âĢĿ
m or
Ġ ^
Ġ {
Ġd oubt
Ġsum mum
c k
cons ciousness
Ġpredic ate
Ġin st
Ġcogn ize
Ġch ang
a il
Ġd en
ĠB e
Ġcon stru
Ġa ffect
d om
Ġpro ve
Ġmat erial
Ġel se
N ow
Ġconsist s
AP TER
Ġc ourse
Ġl ies
Ġsensib le
Ġprodu ce
Ġvirt ue
o b
u p
Ġ ess
Ġh ar
Ġnever theless
w ill
ult ies
Ġexp ect
Ġimag ination
Ġappl ied
can not
o de
Ġl ook
Ġpro v
Ġp eculiar
Ġm is
Ġh op
ppos ite
bec ause
Ġerr or
_ ,
Ġf all
ĠĠ Ġ
the se
Ġcons cious
Ġ 2
Ġab out
it ive
Ġg ener
Ġdiv ision
Ġple asure
ctr ine
Ġob lig
Ġm akes
reg ard
CH APTER
ut ed
ir c
Ġquest ions
sy ch
Ġargum ent
ĠTH E
d ist
the y
Ġv ari
Ġsole ly
Ġall ow
Ġde pend
Ġexist ing
Ġ ut
in ations
ab ility
Ġhig her
mere ly
F or
Ġaff irm
g r
t ies
Ġdifferen ce
ant age
Ġo p
og ism
pp ose
Ġca pable
ha ve
Ġhapp ens
princi ples
Ġd raw
ound ation
B ook
Ġf al
Ġcon j
Ġassum e
Ġunder stand
Ġfollow ing
ov ered
Ġwh ose
de qu
ex t
Ġshow n
Ġa w
con nect
Ġexpl anation
Ġcontradict ion
Ġa id
che ma
Ġmain tain
sen sible
ab solute
ĠA n
on t
Ġpr om
Ġpure ly
Ġad dition
Ġrepresent ed
ie ld
Ġcategor y
ten ess
Ġill usion
ou men
Ġsu per
Ġre ference
Ġwith in
Ġsp e
Ġev ident
Ġanaly tical
Ġperman ent
Ġwh atever
ĠĠĠĠĠĠĠĠĠĠĠĠĠĠĠĠ ĠĠĠĠĠĠĠĠĠĠĠĠĠĠĠĠĠĠĠĠĠĠĠĠ
i o
w ould
in te
Ġint el
Ġeffect s
Ġp ath
Ġpro cedure
Ġcertain ly
d if
s ome
in ed
im ate
ward s
ĠBe ing
Ġs mall
the ir
Ġcogit ate
w hether
Ġad d
object ive
Ġsubst ances
Ġimper ative
Ġleg isl
Ġcop y
Ġter med
a ve
ĠT ranscendental
Ġsens ation
g iv
s im
Ġend e
Ġfal se
b l
dequ ate
Ġ es
Ġc irc
Ġd id
Ġrel ate
rel ation
Ġhar mon
Ġperception s
represent ations
acc ording
Ġconting ent
Ġ i
on ic
re qu
Ġsour ce
n e
Ġw ish
Ġu nd
e very
i a
ul ative
Ġempirical ly
h ib
Ġb r
Ġy our
Ġincl inations
Ġhypothe sis
u ll
Ġintel lectual
* *
Ġf unction
pos ed
ĠSu preme
Ġo pposite
wh at
ha ps
Ġimmediate ly
or ough
Ġdetermin ations
ĠT o
ĠThe y
str ict
Ġext ension
Ġconcl usion
Ġa v
Ġs chema
us ions
pro position
Ġdem and
c ategor
Ġagain st
c ing
n i
y n
Ġs ing
ac k
Ġneg ative
Ġappre hension
s ist
Ġt reat
im es
ppos es
Ġap perception
om ent
pos es
determin ation
c or
Ġd one
Ġdefin ition
Ġhop e
am ental
rit ique
und amental
Ġ Â§
ent ial
Ġrel ates
sen suous
Ġsee k
comple te
l ar
t ing
Ġcertain ty
Ġmathemat ics
Ġconsequ ence
Ġfur ther
Ġinqu ir
Ġj ud
Ġwork s
them selves
j udgement
Ġthere of
thing s
Ġth ree
et aphys
Ġjust if
ph ilos
Ġbod y
Ġchang es
Ġo per
Ġe Book
Ġint r
Ġint u
ĠA ll
Ġincl ination
ĠCon sequently
Ġconform ity
Ġende avour
R E
re ement
id ence
Ġseem s
it tle
er se
Ġam ong
l es
Ġev ent
Ġproper ties
ign or
dis c
Ġ Y
on omy
ur n
Ġcrit er
Ġcl aim
Ġb ring
ir d
cons id
Ġdistin ct
Ġmathemat ical
know ledge
. [
l imit
r ight
Ġf ut
le ction
og ene
Ġab s
Ġaccording ly
Ġproper ty
ha pp
Ġpossess es
lect r
Ġadv antage
Ġeas ily
i x
Ġl ie
ow n
Ġcor rect
Ġrest s
Ġv ol
h at
Ġc e
Ġth orough
Ġcon v
Ġdisc overed
yn am
s es
pt ion
c all
Ġan al
su ch
Ġpre t
Ġser ve
ev en
Ġsuccess ion
A ll
e ad
p ly
ac he
Ġob tain
Ġext ent
Ġperfect ion
sub st
mor al
is ed
Ġbelong ing
e ther
g an
i or
n o
t og
Ġd ynam
Ġval ue
tog ether
n t
o ph
ll ig
Ġan te
Ġcrit icism
Ġin fin
Ġdo ctrine
are d
ishe s
Ġcontin u
giv en
in de
Ġn oumen
im al
Ġt e
Ġm oment
iv id
Ġsp ring
Ġinvestig ation
A N
o od
Ġdetermin ate
Ġinv ol
a p
f er
al ways
ud ed
Ġexpress ion
Ġmem ber
Ġc ases
Ġcom par
ens ive
pro c
h il
ll ogism
Ġdynam ical
Ġ ignor
es ides
as ion
Ġl ittle
Ġact ual
Ġinf er
Ġcon ceive
ĠThe se
Ġch o
ĠH e
Ġcrit ical
Ġpro ved
ac es
Ġfut ure
b r
Ġha ving
Ġdis position
Ġpow ers
Ġder ived
Ġdiffic ulty
Ġm ed
Ġsp ont
Ġknow n
Ġle ad
Ġsuccess ive
Ġdistingu ish
bit r
Ġspont ane
0 0
E C
Ġn ay
ex am
Ġelement s
he nd
Ġag reement
m ay
w here
Ġp ar
ord in
Ġas k
iv erse
ĠI de
Ġconstit utes
Ġanaly sis
Ġstr ict
wor ld
Ġmetaphys ics
do es
Ġsol ution
Ġa uthor
feren t
Ġrequ is
Ġdist rib
ĠE x
Ġterm s
lectr onic
at ement
Ġcorrespond ing
inte llig
Ġante ced
Ġcogn ized
Ġap art
ĠU n
p eci
Ġcomple teness
ĠĠĠĠĠĠĠĠĠĠĠĠĠĠĠĠĠĠĠĠĠĠĠĠĠĠĠĠĠĠĠĠĠĠĠĠĠĠĠĠ Ġ
p res
s h
in omy
Ġsu pposed
end ed
Ġar ises
Ġestabl ished
Ġprev ious
represent ation
n it
p ens
Ġs ch
Ġex hib
il ar
Ġsour ces
I S
ow er
ĠF oundation
how ever
ec h
Ġargum ents
Ġestabl ish
Ġpreced ing
Ġto ge
Ġf ield
su fficient
synthe tical
Ġtoge ther
Ġcom b
Ġreg ulative
Ġdog matical
Ġsing le
n ever
Ġc osmological
Ġpro f
Ġpresent s
Ġcategor ical
Ġrequire d
Ġsupp ort
Ġmean ing
ivid ual
d es
j ust
ĠC ritique
Ġdisc us
g eneral
Ġcon ceived
Ġex cl
qu est
Ġtr ans
Ġaim s
Ġocc up
Ġdialect ical
A R
Ġf ul
as k
Ġv ain
et y
ĠĠĠĠĠĠĠĠĠĠĠĠĠĠĠĠ ĠĠĠĠ
Ġunivers ality
b el
it um
Ġcom pre
ĠS uch
Ġre cogn
le g
Ġper haps
Th us
Ġabstr act
Ġth ird
Ġo pposition
Ġe t
Ġfac ulties
TI ON
r ational
not hing
Ġlike wise
Ġbe com
Ġv oid
sp ace
Ġen ough
S ection
p ur
Ġin s
iv ity
Ġsu pposition
Ġprodu ced
Ġconstru ct
sych ology
ogene ous
f ollow
re m
Ġf r
iv ing
ist ic
wh o
ca us
ell ed
Ġobser v
f e
is ing
ar n
Ġhe l
Ġregard ing
Ġrequis ite
r ow
in ion
Ġon ce
Ġar ise
pro per
app l
app ear
Ġmot ive
Ġconj unction
m ost
Ġt akes
Ġp ain
Ġsu r
Ġconstit ution
I I
f t
Ġ 3
th ought
ĠS p
Ġdes ign
sen se
Ġappear ance
Ġdirect ly
ni hil
oph ical
Ġcom e
Ġcrit ique
Ġaffect ed
Ġintr odu
Ġb l
Ġal together
ab our
Ġst ates
ĠS ection
ecul ation
Ġmanif est
Ġintellig ence
Ġpredic ates
Ġread er
ct ive
Ġap ode
Ġabstr action
b ers
res pect
Ġgreat est
Ġsupp ose
call ed
n ame
ic able
if ic
cc ording
ens ions
Ġbet ter
ĠCon ception
some thing
in es
Ġf ore
Ġl ine
ative ly
me ans
Ġdes tr
Ġref er
Ġimport ance
Ġcriter ion
at t
determin ed
phenomen on
ĠPr inci
d em
o c
qu ant
Ġor gan
Ġmore over
Ġsatisf action
Ġs ort
Ġe y
Ġre strict
Ġex act
ci proc
Ġde l
ome tr
ĠA r
Ġpur su
Ġappear s
Ġadv ance
contradict ion
Ġsignif ic
Ġharmon y
Ġof ten
ut ing
Ġev il
ca pable
com m
know n
at um
se par
Ġun less
sy stem
Ġaw ay
Ġsuper sensible
h as
s um
Ġr a
ict ic
Ġorigin al
Ġconstit ute
Ġadmit ted
Ġbound s
i gh
Ġ V
is on
ing dom
Ġl ast
pt y
Ġso on
Ġk e
Ġapp ro
Ġhuman ity
Ġdec l
synthe sis
Ġf ull
sib ility
Ġtr anscendent
pr odu
Ġgreat er
Ġfin ite
Ġess ential
Ġ J
in cl
en se
al one
im p
ori z
Ġar bitr
Ġcirc um
l atter
Ġa dequate
ical ly
Ġd on
pt er
Ġr o
Ġobjective ly
Ġattrib ute
Ġident ical
dist ingu
he tic
em ploy
ud ing
Ġle t
ici p
categor ies
consid er
re to
ve l
ĠB y
Ġplace d
cons ist
necess ity
peci ally
u bl
Ġ 5
Ġf undamental
Ġas crib
EN T
law s
Ġut ter
i um
Ġt ask
Ġe lectronic
pl ace
Ġse par
Ġle ave
Ġconsider ation
Ġpresu ppose
Ġfur n
Ġav oid
Ġhel p
re ality
it le
Ġw it
id ance
ur d
con tain
Ġun iverse
ict ion
mat hemat
form ation
name ly
R AN
Ġt est
con stit
Ġca re
Ġper ceive
un ivers
Ġpre cept
ment s
Ġdedu ced
Ġpost ul
I N
ci ence
Ġact ually
Ġspe ak
p e
in v
Ġk ingdom
Ġev ents
ag es
Ġsim ply
Ġbelie f
Ġet c
E S
Ġpos itive
Ġag ree
Ġpresu pposes
Ġindic ates
Ġimport ant
Ġphilosopher s
E very
T here
m etaphys
Ġ K
Ġc he
per fect
Ġind ividual
Ġbr ought
o ol
y ing
ce de
ot e
the n
nder standing
pos ite
Ġsci ences
Ġdistingu ished
Ġbod ies
? âĢĿ
Ġ *
Ġe ar
ut ive
ul a
ph ist
Ġdes er
osm ical
Ġstand s
Ġclear ly
d iv
e termin
Ġun able
ous ly
Ġle ft
Ġant inomy
Ġvol ition
u pon
Ġin ev
ch ange
Ġst atement
ser ies
com p
aly tic
Ġatt ention
Ġmot ion
Ġinev it
f ac
Ġdetermin able
ech an
Ġc arr
ut onomy
Ġem pty
pos sess
un conditioned
Ġconcept s
Ġac cept
ib er
Ġuse ful
Ġfound ed
Ġpos ition
Ġcomm unity
mit ted
Ġconsequ ences
Ġvari ous
gr ound
it er
Ġof f
Ġg e
our selves
Ġexam ination
ĠR E
Ġresult s
Ġclaim s
f reedom
Ġsy llogism
Ġle arn
sp eculative
R O
c ogit
l ove
at a
Ġsu ffici
ol ly
Ġlimit ation
connect ion
Ġbecom es
T H
m y
p o
Ġs cept
ur s
ig ure
Ġdis p
Ġsignific ance
is hing
Ġc reat
al id
Ġf a
Ġsp eculation
ff ort
Ġproble matical
Ġhypothe tical
Ġac qu
Ġey es
st ood
th ink
end ing
Ġen able
Ġpossess ion
wor th
l ict
Ġ 4
in ction
re n
Ġphenomen al
Ġinterest s
Ġconc reto
Ġmot ives
Ġindic ate
t ot
Ġs c
Ġsu re
Ġdirect ed
Ġattempt s
Ġoblig ed
Ġjud ge
ubl ic
Ġm ental
Ġg en
end s
av oid
Ġwhere by
Ġref lection
Ġconcern s
Ġdraw n
absolute ly
quest ion
Ġapode ictic
o pt
Ġ Ã
con f
Ġad opt
EN D
contradict ory
Ġdog mat
Ġcircum st
in s
Ġw is
ar ch
Ġg ain
Ġexam ples
Ġmod es
Ġinst ead
happ iness
Ġsch ool
Ġarbitr ary
m ore
Ġo pposed
Ġwh om
Ġl ight
Ġgu idance
pres u
C E
p ic
Ġc re
Ġp ut
Ġf avour
Ġpr ior
Ġfor ce
Ġact ing
Ġdepend s
Ġge ometr
h im
u g
v en
Ġexist ed
Ġacc om
Ġbelie ve
Ġes pecially
Ġins ight
x i
ĠS t
Ġsim ilar
Ġocc asion
Ġextend ed
Ġassert ions
Ġcopy right
Ġfunction s
Ġjustif ied
philos ophy
i p
in to
Ġwh olly
Ġmoral s
ĠW hen
are nt
subst ance
W hen
c re
e ither
s ens
Ġt imes
Ġo pp
Ġthe ology
re es
us ed
su ccess
Ġrespect ing
Ġhapp en
Ġpres crib
edu ction
sen sibility
Ġconting ency
Ġident ity
Ġlegisl ation
ache d
Ġinfin ity
fac ulty
Ġc osmical
an aly
Ġcon ver
um e
pre dic
pend ence
Ġarr ive
Ġeas y
h is
s ame
Ġ ed
Ġre ach
ure d
em ark
Ġsub ordin
ort ion
Ġder ive
intellig ible
etermin ed
Ġ ens
Ġs ought
or igin
im ent
im possible
Ġpro p
Ġconcl usions
Ġind is
mis sion
who le
Ġdestr oy
Ġutter ly
s atisf
Ġt able
in ternal
Ġan nihil
ate ly
con form
Ġde finite
Ġthere in
iz ing
Ġdes ires
bel ong
ENT AL
Ġin ter
Ġwh y
Ġex per
Ġl ay
Ġphilos ophical
Ġindependent ly
dif ferent
Ġcompar ison
f ree
l t
t un
Ġc ol
Ġfor th
th an
ud es
sp eci
Ġmem bers
ĠY ou
T o
k ind
m s
Ġb esides
ain t
ch aracter
Ġcom posite
Ġreg ion
ca se
str atum
Ġsec ure
Ġfin ally
S C
a ight
s c
Ġthe ory
an gement
om ogeneous
Ġse qu
Ġunivers ally
Ġcomp elled
Ġgener ally
Ġinquir y
Ġcho ice
g reg
at ives
Ġm aking
Ġf ill
Ġh igh
us ory
Ġper ceived
ex ternal
Ġsub tle
int erest
cont ent
Ġconstru ction
Ġpr imal
ĠĠĠĠ ĠĠĠ
ant ed
ĠA N
ppos ing
Ġpur poses
Ġcontradict ory
Ġcommand s
ĠII I
Ġop inion
sh ould
caus ality
Ġwis dom
g ed
al so
ci pl
Ġfind s
Ġprodu ces
Ġsubjective ly
pur pose
cipl ine
c ould
re al
Ġe ffort
Ġre ciproc
Ġd ire
ib ility
ĠW ith
ither to
exist ent
Ġstr aight
Ġconf lict
ĠConception s
Ġdire ction
Ġt a
Ġm ag
as ing
th ose
ab str
Ġpoint s
contr ary
go od
Ġspontane ity
Ġful ly
Ġinevit ably
iter ary
I C
c ess
s cience
Ġw ise
Ġin capable
ive ly
hen sible
ful ly
ene tr
Ġdialect ic
ĠAn alytic
limit ed
lt imate
f ar
j ud
m atter
Ġo ld
er iori
Ġm echan
ar ge
Ġex position
Ġl abour
id ing
Ġma j
Ġprodu ct
necess arily
Ġassum ed
Ġtot al
i ang
n on
Ġc oun
Ġcon ce
im in
Ġtr ansc
Ġequ al
Ġsuffici ently
is ible
Ġp sychology
ic ense
Ġm ark
Ġd own
st hetic
ar s
Ġl os
Ġde pendent
Ġr ise
Ġme et
ĠW hat
ĠU nderstanding
dem onstr
G utenberg
H ow
l ike
r op
Ġp e
Ġf igure
Ġre du
Ġcan on
ch ive
be en
ĠH ow
stru ction
ĠSp ace
Ġs ake
ing s
Ġd om
Ġhe ter
Ġacc ident
Ġkind s
Ġattain ed
Ġcl ass
cor respond
Ġcompre hend
Ġke ep
g u
m ort
o ly
it able
Ġb or
Ġf our
im mediate
ant e
Ġev idence
ac y
form er
man ent
oun ce
sub sist
Ġoper ations
ĠPrinci ples
P ro
o in
Ġs ever
Ġnot ions
Ġun condition
Ġun ited
ide a
ĠA ccording
Ġsub stratum
ang er
Th at
Ġpresu pposed
Ġarr angement
Ġsignif ication
Ġden y
Ġignor ance
Ġche ck
W hat
Ġa utonomy
as h
ist s
Ġde f
ex pl
Ġpractical ly
feren ces
Ġevery one
Ġar t
Ġmetaphys ic
Ġspeci al
disc over
Ġnoumen on
c ceed
f irst
w hen
er it
Ġto wards
Ġf an
ly ing
Ġh on
ur ally
ol ution
pir icism
ĠG eneral
ck on
Ġintu ited
Ġpret ensions
xi om
I T
e ib
p ath
t imes
Ġex ception
if ication
Ġpro b
us iness
Ġso phist
Ġim pl
Ġcont em
Ġanal og
nit z
univers al
Ġcarr y
eib nitz
l ight
al ent
Ġn one
act ions
el f
Ġdut ies
Ġund etermined
Ġce ase
Ġnoumen a
pens able
inv estig
po int
avoid able
it ude
Ġd ivers
ie f
Ġpl ain
ha pter
Ġmetaphys ical
Ġassert ion
Ġdemonstr ate
ĠThere fore
Ġanal ogy
Ġdon ations
iang le
Pro ject
Ġsever al
) âĢĶ
R e
c rit
g reat
h ig
r u
v alid
Ġ =
Ġt itle
Ġun known
Ġcom position
Ġst ep
Ġgiv ing
com pre
Ġstand ard
Ġop en
proposition s
Ġprevious ly
U T
e ffect
Ġcon fin
con ce
ĠF rom
Ġcontain ing
âĢĿ ;
pro v
certain ty
Ġlong er
Ġprev ent
Ġabs urd
quant ity
i an
w w
re t
it es
Ġp ast
if ice
ĠA t
Ġad m
so ci
Ġpart ly
ĠS y
ress ion
determin ing
Ġobser ve
ix ed
iber ty
Ġschool s
A S
Ġb ack
Ġas c
Ġacc ess
Ġmor ally
Ġpres ence
Ġproceed s
ĠL iterary
Ġperman ence
ĠPr actical
h and
v ious
Ġs he
Ġm ention
Ġre c
Ġh itherto
Ġpr iv
ad v
Ġpur ity
man if
Ġwhere as
rel ate
Ġprov ided
Ġoblig ation
Ġmaj or
p ower
le v
Ġpro cess
Ġreason ing
sp here
Ġpl an
Ġfe ar
Ġaff ord
RAN SC
END ENTAL
Ġcircumst ances
RANSC ENDENTAL
i ally
s ide
it ing
at er
Ġp ublic
Ġf ail
Ġas soci
Ġpr ud
Ġwe ight
Ġsu cceed
ure s
ĠI m
ĠO ur
Ġen lar
Ġjust ice
Ġquant ities
mis sible
d en
Ġs ight
Ġre ceived
ir med
th rough
ore tic
Ġde fect
Ġhe ld
Ġqu ality
with standing
Ġass ign
stru ct
Ġattrib utes
ĠeBook s
Ġthorough ly
ĠAr chive
O R
o cc
Ġ 9
at tain
Ġs k
Ġre ce
op ular
uth oriz
Ġdec ide
Ġant it
ob ser
mort ality
s ince
Ġ ir
Ġs a
Ġin du
Ġpr act
Ġu ltimate
cept ivity
Ġform ula
Ġch ain
Ġob sc
Ġmind s
ang u
part icular
exam ple
Ġanteced ent
Ġfurn ish
at or
Ġd ata
Ġde t
Ġv ent
Ġnat urally
Ġprodu ction
Ġimper atives
Ġdemonstr ation
Ġexact ly
e em
Ġin formation
or g
Ġl ove
am ed
ound ed
ĠC osmological
pro ceed
Ġfeeling s
nat ural
cont in
Ġproblem s
connect ed
Ġdemand s
Ġdiscus s
Ġobserv ation
distingu ish
ren g
Ġbor row
a pt
a dequate
i ld
l at
u it
u ous
con c
ust r
tr uth
Ġunder stood
Ġsub sum
iz es
iz ation
Ġind if
TI C
Ġhold s
Ġspeci es
sych ological
every thing
Ġdiscus sion
Ġopp on
a ir
it led
Ġb usiness
ut y
Ġim age
Ġrel atively
cl aim
Ġcontr ib
Ġorigin ate
Ġdefin ed
Ġlegisl ative
S u
m ot
s ay
Ġa xiom
Ġf irm
as ant
ĠS o
Ġob st
Ġpresu pposition
Ġsatisf ied
Ġrender s
Ġden ied
Ġvari ety
Ġpar agraph
W h
_ .
l ook
Ġt urn
Ġw rit
Ġh um
ire d
ign ity
Ġadmit s
ache s
vel op
O U
Ġpossib ly
Ġus ed
Ġapp arent
ĠO R
we ll
Ġpres er
Ġappl ies
Ġadmit ting
Ġconcl ude
Ġsecond ly
Ġill usory
Ġworth y
Ġabs ence
Ġignor ant
O n
P r
in f
en ess
at io
Ġin separ
Ġe lev
ent ific
Ġsci entific
Ġanaly tic
ialect ic
Ġdemonstr ated
Ġsmall est
Ġadd ed
Ġscept icism
manif old
n ex
re st
Ġm ist
le ast
the oretical
ur ity
sel ess
Ġafter wards
Ġprov ide
Ġspe aking
Ġfore ign
B y
a fter
g est
k s
p ost
al s
Ġl ost
ur ing
if ied
act ory
min d
ad emark
Ġst ud
ĠN ay
ag ed
be fore
Ġdisc ern
Ġconcern ed
complete ly
Ġinquir ies
Ġauthor ity
ĠUn ited
T ranscendental
Ġb ene
Ġd est
Ġd anger
Ġnecess it
Ġrepresent s
imit ive
Ġag greg
Ġen g
reg ress
Ġco existence
att empt
mathemat ics
ĠÃ ¦
o ple
t urn
Ġre p
ĠT ime
ĠĠĠĠĠĠĠĠ Ġ
Ġext ensive
Ġappl icable
ĠD e
Ġconstit utive
Ġdiv ided
Ġwant s
Ġinst ance
Ġexpect ed
** *
Ġendeavour s
Ġexhib it
Ġlearn ed
Ġlos s
subsist ent
N D
g l
j oy
is sim
Ġin ference
st ant
ut ation
Ġfor ces
Ġtr iangle
Ġdis appear
Ġrem o
Ġexam ine
Ġdeg rees
go ing
Ġspring s
ĠIde as
Ġear th
Ġdom ain
Ġdivers ity
. )
d raw
j un
l ies
in asmuch
Ġs ent
Ġp un
an other
Ġan ci
Ġqu al
ĠP h
Ġdedu ce
acc ord
cont ing
Ġpreced es
Ġeffort s
er t
Ġre ceive
con sequ
ind ic
tern ally
are r
ici ans
ĠH ere
Ġimp ul
app re
Ġbegin s
oub ted
Ġneg ation
Ġinvestig ations
Ġequ ally
a ff
o ined
v ere
Ġan g
Ġl ower
th rop
Ġpro ves
pl ay
ig ion
Ġper form
Ġim mortality
Ġse en
cise ly
Ġco existent
Ġpost eriori
Ġ2 00
ne g
Ġinvol ves
Ġra ised
A s
Ġa uthoriz
Ġe th
Ġre ckon
Ġint ention
Ġca p
ex p
ma xim
subject ive
Ġprof ess
issim um
o very
Ġd ignity
Ġu su
Ġg l
ci es
ol iness
Ġsubject s
ĠP U
ag ain
phys ical
determin e
Ġind irect
Ġexpress ions
being s
Ġremark s
Ġcontin ue
Ġallow ed
Ġconv iction
inde pendent
worth y
g gest
Ġh omogeneous
th us
Ġtr y
Ġsh ort
Ġst reng
ress ions
ĠĠĠĠĠĠĠĠĠĠĠĠĠĠĠĠ ĠĠ
fin itum
ĠN o
Ġpl aces
Ġthink s
Ġref lect
Ġes ca
Ġinfin itum
Ġinfer red
nit ude
Ġpostul ate
Ġsc hemat
angu age
H ence
p or
Ġb est
ed ience
ir it
Ġsp irit
ex pect
one y
ĠE m
Ġent er
Ġest im
Ġcontinu ous
Ġascrib e
Ġaccom p
E D
g es
t ake
he sis
Ġc r
Ġp ay
ic o
Ġm ult
ent ially
Ġl iberty
âĢ Ļ
um er
Ġem piricism
wh ile
Ġfollow ed
pro of
Ġent itled
ĠL eibnitz
Ġexpress es
Ġobser ved
Ġideal ism
rem ain
Ġantit hesis
S T
a res
t wo
Ġm erit
Ġf it
as ed
Ġobject ions
Ġde velop
Ġha bit
pl ic
Ġpre cede
ĠS olution
Ġcaus al
Ġproceed ing
Ġcommon ly
Ġinqu ire
regard s
Ġlead s
tot ality
Ġindis pensable
a e
v ice
Ġp opular
se ly
Ġcom es
ĠP RO
Ġsub l
Ġact ivity
Ġrequire ment
Ġhypothe ses
cognition s
Ġerror s
Ġav ail
Ġmed iate
employ ment
Ġgeometr y
him self
Ġsophist ical
C on
o per
in finite
Ġm oney
ou ble
Ġex tr
ist ance
and on
ul ate
ori ous
Ġform ing
nthe tical
Ġdifferen ces
Ġfe w
ĠD iv
Ġproof s
Ġgu ard
Ġinvol ved
Ġconstruct ed
Ġstatement s
Ġprop ortion
Re ason
J EC
g utenberg
it imate
Ġin cre
Ġre ceptivity
ar gum
Ġnot withstanding
Ġun avoidable
not ion
ide as
pr i
Ġser ves
cons cious
Ġshow s
Ġconsist ent
Ġbl ind
Ġsepar ate
cogit ate
Ġpe ople
, "
F rom
P R
b id
h uman
y ou
Ġs ign
Ġex ec
Ġan imal
em ber
con d
Ġhe av
Ġatt end
determin es
Ġconstit uted
Ġincl uded
Ġassum ption
Ġsatisf y
Ġocc ur
Ġut ility
fe el
ĠSt ates
Ġexper iment
Ġpriv ate
ĠÃ¦ sthetic
plic ity
a ves
Ġw ays
Ġw ishes
im ag
Ġex c
Ġon es
if y
Ġform ed
su per
Ġse arch
exist s
ĠD eduction
ang ed
Ġconsider ations
Ġfall s
subst ances
never theless
metaphys ics
Ġsyllogism s
Ġsa fe
B e
B ER
Ġt w
re f
Ġb old
Ġre turn
Ġreason s
Ġde v
ever theless
sol ution
Ġpl ay
Ġdisc overy
ĠH ume
Ġappear ances
Ġgu ide
Ġprom ise
Ġintrodu ce
BER G
f oundation
t ion
Ġ 7
Ġo m
al ogism
as sert
Ġany one
ord er
Ġrespect s
Ġreal issimum
ĠD o
fic ial
Ġimag ine
Ġcorrespond s
judgement s
leg isl
follow s
consist ent
Ġgen u
investig ation
conc ern
jun ctive
h ypothe
i k
w ere
Ġthe oretic
an k
Ġre n
Ġcon stant
Ġh oliness
de pend
ĠĠĠĠĠĠĠĠ ĠĠĠĠ
Ġim manent
ex er
Ġacc ur
Ġsub sist
ĠC h
Ġend less
Ġstr ong
Ġaff irmed
ĠY OU
Ġoccup ied
Ġful f
urs ive
correspond ing
inf luence
I R
f ound
l ogical
t il
t ological
Ġb u
Ġbe h
Ġpr os
Ġsu ggest
ust om
Ġper su
ach ing
Ġconcl uded
Ġassum ing
Ġill ustr
OO F
regard ed
Ġanteced es
appl ication
Ġrec ourse
PR OOF
O G
s ignif
t t
Ġ 6
Ġc al
Ġs ays
Ġb ad
le br
Ġv iz
Ġper mit
Ġper mission
Ġim possibility
ad s
present ed
Ġdis play
Ġle aves
Ġcomple x
Ġgo es
ici an
Ġsubst ant
determin ations
abl es
Ġder iv
Ġremark able
part s
dif fic
Ġadvance d
incl ination
Ġmag nitude
Ġoppon ent
Ġaxiom s
lebr ated
l ine
in ct
in ary
it ect
nd ered
le ase
Ġh ist
Ġpr im
Ġl ines
ow ed
Ġdis cipline
Ġknow s
Ġar ising
pre t
Ġgr ad
Ġlimit ations
ĠG UT
Ġsay ing
Ġob edience
pro ble
ish ment
Ġact s
Ġen joy
ĠD I
EN BERG
Ġperson s
mor ality
Ġcho ose
Ġcomb ination
Ġprecept s
div ision
Ġcreat ure
Ġsubordin ate
immediate ly
Ġuncondition al
conce it
conting ent
Ġang les
JEC T
ĠGUT ENBERG
. "
O f
d og
l lectual
v ol
it as
Ġw ond
Ġm in
se cond
ou red
Ġas ide
im er
il st
ad dition
Ġrel igion
Ġapp e
for tun
et ent
ĠN ot
ĠIn t
be yond
The se
Ġfe e
ĠE pic
Ġref und
Ġconf ess
Ġant icip
Ġcop ies
ob lig
Ġess entially
Ġprom ot
inte llectual
Ġconv in
Ġassoci ated
Ġeng aged
appre hension
i ent
p ass
s cept
t al
Ġpro posed
con ci
Ġun limited
de fin
ĠN at
ĠE very
Ġatt ached
Ġcommon est
Ġattain ment
Ġdefin e
Ġdiffic ult
Ġaffirm ative
Ġcirc le
Ġmed ium
Ġreciproc al
Ġmechan ism
accord ance
S E
Ġc ost
Ġin ferences
or s
Ġpr imitive
Ġl ist
Ġl anguage
Ġdo ctr
ĠP henomen
Ġpart y
str aint
ĠM or
consid ered
AR T
Ġorgan ized
Ġascrib ed
Ġsequ ence
IT Y
Ġvent ure
P L
f act
n or
r ule
in qu
Ġc ult
al t
Ġf requ
Ġfor ward
ain ed
ple asure
de g
Ġsp aces
Ġv an
Ġsome times
pre ced
ĠE go
Ġcharacter istic
ĠL icense
Ġwant ing
Ġobtain ed
ĠIde a
appl ied
abstr action
Ġhon est
Ġimpl ies
hig hest
ĠSy nthetical
lat o
e qu
f ind
r ong
v ation
Ġt al
in ions
Ġw ide
Ġp aid
le ological
Ġwh ilst
ar ies
Ġh oly
ĠI V
est abl
un te
ĠW h
ĠW hether
ĠD is
Ġfin al
Ġspeci f
Ġmaterial s
dist inction
Ġaw are
Ġprof ound
ĠJ udgement
Ġcare fully
Ġta x
Ġcontem pl
AS ON
Ġstud y
A ccording
T R
d edu
o pposition
y et
re am
ing ly
st ep
Ġreason able
Ġun til
tr odu
pos itive
Ġad apt
ĠIt s
ser ted
Ġatt ack
Ġdec lar
intuition s
Ġconf used
Ġphys ics
Ġequ iv
Ġexplain ed
requ ires
philos opher
inde ed
Ġtrans g
Every thing
analy tical
Ġsubordin ated
compre hensible
Ġinsepar ably
Ġschemat a
i ol
i ences
m ode
s how
v iew
Ġt re
in ter
Ġon tological
Ġwe ak
ĠT O
ol og
Ġme asure
ĠB esides
su pp
ac ity
so ever
ĠS EC
be gin
Ġhapp y
Ġsec ret
Ġinvestig ate
requ ire
Ġjustif y
Ġoccup ies
follow ing
proper ly
system atic
Ġdecl ared
Ġconver sely
satisf action
Ġpract ice
Ġaggreg ate
A nd
E M
a en
ce asing
st ead
ent ire
con cept
Ġper i
Ġim it
Ġab andon
Ġus ing
Ġrel ated
Ġch a
Ġch arge
ment ion
ĠN O
Ġemploy ing
Ġdes c
ĠE ven
cogn ize
Ġsens ations
Ġcontradict ions
Ġconf irm
Ġdiscover ing
Ġdesire d
Ġher self
Ġaffirm ation
Ġprom ote
Ġsch ol
ĠK ant
change able
success ion
ĠWith out
aen omen
f all
f undamental
g ive
i ating
l abour
Ġt ill
is ibility
Ġp sychological
Ġin sufficient
Ġf ive
Ġh ind
Ġfor tun
ur ality
ur ious
ve y
con v
Ġcom pl
Ġtr ademark
ant s
Ġad du
Ġgr anted
Ġgo ver
Ġcomm ence
Ġest eem
Ġmod ality
Ġattrib uted
Ġ2 0
Ġconj oined
Ġsmall er
Ġoper ation
Ġce lebrated
Ġdistrib ution
Ġrefer red
ĠPrinci ple
Ġra ise
Ġro ot
Ġdeser ves
Ġprescrib es
Ġsequ el
Ġgenu ine
Ġmin or
a ps
b od
e ach
Ġ 0
it ious
Ġfor bid
am ong
Ġim poses
ex cept
Ġmor tal
ĠĠĠĠĠĠĠĠĠĠĠĠĠĠĠĠ ĠĠĠ
ĠO bject
Ġthen ce
ĠC ON
ĠD ialectic
Ġ1 5
rel ations
Ġmod er
Ġfall a
Ġpath ological
Ġcriter ia
exam ination
ĠRE ASON
Ġcre ation
Ġdefect ive
e lement
g ing
p ot
s ing
re ally
en ed
er y
Ġs ound
Ġs ac
Ġin j
or ical
Ġis ol
Ġex posed
Ġsu itable
ver s
Ġrel ating
Ġev id
Ġdis junctive
Ġpre p
Ġpre mis
Ġpre jud
Ġwhen ce
Ġob vious
Ġgo al
Ġcomm un
com mon
exist ing
Ġconf idence
Ġac ute
sim ple
Ġdefinition s
Ġfore going
perfect ly
tot al
conform ity
Ġsk ill
Ġsign s
d uty
m o
m ain
in ity
re strict
ou se
Ġpr ot
Ġat tr
um ber
Ġhe art
Ġst art
ac ing
Ġpart ies
oy al
Ġconnect s
Ġinde pendence
ĠH is
ĠOn ly
Ġdiffic ulties
Ġdoubt s
Ġaddition al
Ġfr uit
imp ort
oriz on
contain ed
think ing
Ġborrow ed
Ġdest ination
Ġesca pe
ĠPRO JECT
Ġperi od
b ig
Ġo be
is able
Ġw ar
Ġw rong
Ġs ides
ic k
Ġre ject
st ate
Ġl ose
ec ond
ĠT RANSCENDENTAL
ch itect
Ġal ter
Ġal ong
Ġpre cisely
Ġpresent ing
ĠC om
ĠC hapter
other wise
Ġincl uding
Ġexpress ed
ma de
Ġcl ose
ialect ical
wor k
crib e
ane ously
Ġsignif ies
Ġgener a
Ġbl ame
sens ation
predic ate
abstr act
Ġredu ce
expl anation
Ġanalog ies
ru pt
adv antage
Ġprud ence
unte ers
ĠJudgement s
A n
A TION
A CE
b oth
d ec
d oubt
u ct
u el
Ġthe sis
at trib
Ġin struction
Ġre ndered
Ġd ur
im ents
Ġg et
qu ite
Ġpro pose
Ġtr ouble
su ffici
ant ages
ĠP R
ĠP lato
Ġch imer
Ġrem ove
Ġimp art
Ġincl ude
ĠM etaphys
Ġdiv ine
Ġcomp are
Ġsatisf actory
Ġconcern ing
ane ous
comple teness
Ġappre hend
Ġtreat s
ĠIde al
Ġcomb ined
AR K
Ġgen us
ug ment
Ġaccom pl
Ġannihil ated
ante ced
ĠAccording ly
Ġconfin e
Ġimpul ses
I M
P RE
d irect
re me
Ġs ection
Ġs light
Ġp at
Ġd im
Ġsu ff
Ġsp ect
tr ue
Ġr id
Ġr ank
Ġunder t
Ġtr ib
pos ing
Ġse at
un al
sp ic
Ġser vice
ĠC ategor
Ġrequire ments
ĠL ogic
Ġset t
Ġextend ing
certain ly
Ġleg itimate
consider ation
contain s
ĠRE M
predic ates
Ġpreser ve
exer cise
Ġequiv alent
I L
L et
W ith
m ake
Ġt ast
it io
Ġe fficient
st atement
Ġh yp
Ġas serted
Ġl ed
Ġobject ion
con cl
Ġun ceasing
ab ove
um ption
Ġper mitted
Ġim posed
pr ogress
Ġsy m
Ġhe ad
Ġst e
Ġst ated
Ġwhat soever
oun ces
ev ident
objective ly
sim ilar
Ġund oubted
ix t
Ġspontane ous
Ġdel usion
mathemat ical
Ġed ifice
speci es
valid ity
Ġadm ir
Ġom ni
/ /
: //
C hapter
d ialectical
e e
i able
o x
Ġ lying
at us
Ġc ur
Ġp enetr
al og
Ġb re
or m
Ġf ict
the ology
im per
ĠI N
Ġor d
if t
if orm
Ġde ep
ill usion
tr ans
Ġme ant
ac her
Ġad missible
ĠN e
ĠN evertheless
ast ic
Ġpossess ed
Ġam big
ĠM y
ĠM at
Ġ1 0
empirical ly
Ġnum er
Ġright ly
Ġbring ing
Ġte leological
Ġexhib its
Ġrecogn ize
ĠSp eculative
Ġappro xim
ground s
Ġannihil ate
Ġcoun ter
Ġheter onomy
Ġobst ac
aff irm
ĠPU RE
Ġones elf
Ġcha pter
Ġgover n
main tain
c ul
f ace
g ain
l ing
Ġa ir
it ate
ic tical
se t
Ġd r
Ġd ict
ut ions
su pposition
Ġsubject ed
Ġgr ant
man ner
av oured
Ġdistingu ishing
ail ed
Ġharmon ize
cor rect
Ġseek ing
Ġexcl uded
ĠĠĠĠĠĠĠĠĠĠĠĠĠĠĠĠĠĠĠĠ ĠĠĠ
Ġro om
occ up
ĠPhenomen a
deg ree
aenomen on
Ġdur ation
E x
d eduction
g er
m ight
n ce
re ciproc
Ġc le
Ġb ook
an ations
ition s
Ġl oc
Ġl arge
Ġab ility
Ġsh ap
Ġst op
Ġide ality
ĠP er
Ġcomple tion
Ġthought s
ser ve
Ġen ables
Ġsynthetical ly
Ġorigin ated
Ġcor relate
Ġadv antages
Ġcomp ared
Ġbefore hand
Ġpass es
Ġut most
Ġmaintain ed
Ġcorrect ness
Ġstrict ly
Ġorgan on
Ġpursu e
distingu ished
Ġadopt ed
Ġtransc end
Ġheter ogeneous
Ġmention ed
Ġrece iving
Ġstreng th
hypothe sis
According ly
a uthor
c o
c lear
f it
p sychology
s our
u ity
Ġd ream
ect ed
Ġh y
Ġh ard
Ġsu spic
per son
ple asant
of old
Ġpre fer
tern ity
Ġconsid ers
Ġen cl
Ġcogit ating
Ġill usions
Ġclear ness
Ġset s
Ġansw ered
Ġattempt ed
Ġprogress ion
ext ension
dif ference
limit s
Ġmoment a
ĠJ ust
presu pposes
belong ing
Ġindif ference
Ġdisappear s
again st
depend s
Ġbeh ind
Ġdoctr ines
Ġcult iv
Ġtast e
ixt ure
Ġsuspic ion
A M
H ere
c osmological
i ance
m ember
n ay
n umber
o ot
Ġt ell
Ġt yp
Ġt aking
at ur
Ġin ward
Ġre sol
Ġbe ar
st ill
Ġh id
the ological
Ġl aid
con struction
il is
us ive
Ġun ion
ans w
ori ly
so le
ĠS ince
Ġne arer
Ġout ward
Ġout side
Ġgood ness
Ġpeculiar ity
Ġdepend ence
Ġte ach
Ġpar alogism
Ġdistrib ute
Ġdistrib uting
ĠĠĠĠĠĠĠĠĠĠĠĠĠĠĠĠĠĠĠĠ Ġ
Ġrecogn ized
sum mum
Ġdogmat ic
sens es
Ġcol our
Ġprob ably
Ġobsc urity
Ġremo ved
Ġfulf il
tt p
inqu ir
Ġtre ated
A C
i us
Ġa ugment
er able
Ġm on
Ġre comm
Ġd imin
ut able
Ġint ended
Ġde pr
ab s
Ġthere to
ĠB oth
Ġany where
ph ism
Ġj oin
Ġar chitect
op e
com par
Ġprodu cing
man uel
Ġdec ided
Ġexer c
Ġerr one
Ġpreced ed
any thing
ob tain
Ġop inions
Ġdraw ing
Ġprom ises
Ġte aches
Ġask ed
ĠEx perience
Ġcompre hensible
my self
ash ion
ĠIm manuel
draw n
Ġeth ics
Ġindirect ly
Ġadapt ed
G od
T RANSCENDENTAL
c ol
m od
o pposite
re nder
re ference
en lar
Ġre ached
iv able
Ġl ink
ib ly
ĠT ot
con ceived
Ġal leg
Ġun worthy
Ġr ange
ĠF reedom
ĠA pp
un condition
un less
ress es
ĠO r
el s
Ġdisc ursive
under stood
ĠPro ble
Ġest imate
Ġdiv isible
app ro
Ġdec om
ĠL et
Ġregress ive
Ġchange able
Ġel aps
Ġexpect ation
regard ing
Ġanalytical ly
ne ither
ogene ity
ap perception
ordin ated
ĠEx position
ĠV II
Ġdecl ares
incl uding
constit ute
ĠÃ Ĩ
success ive
Ġdirection s
Ġhon our
Ġcontem por
Ġindif ferent
expect ed
Ġaccomp an
ĠDiv ision
Ġbu ild
Ġslight est
Ġelaps ed
8 0
a f
i er
w as
Ġt end
Ġin here
Ġin adequate
Ġm und
an throp
ot t
ir ing
and ed
Ġpro ving
ĠT r
Ġint ensive
ore over
Ġde part
Ġun certain
Ġexist ences
Ġwill s
ad missible
ĠA uthor
Ġch ance
ĠS to
ĠS elf
ress ed
ĠO N
Ġpl urality
Ġact ive
Ġen ounce
ĠE BOOK
Ġincl udes
Ġquant um
ĠU se
Ġexer t
Ġdoubt ful
Ġallow able
ĠUn ity
constit utive
ins ic
neg ative
Ġavail able
imag ination
ĠĠĠĠĠĠĠĠĠĠĠĠ Ġ
Ġhist ory
ĠInt uition
import ant
Ġtrib unal
Ġhy per
Q u
V E
i ality
l ong
l ied
w ord
Ġc ent
Ġw ater
Ġe ternity
se c
Ġre place
Ġcon straint
ar ante
os ed
Ġde ath
il i
tr anscendent
Ġdo ll
Ġform at
pr ight
ad ing
ant icip
ĠF irst
Ġdis claim
Ġsome what
el se
Ġemploy s
pro cedure
Ġrem ote
Ġcomp ly
Ġconf usion
Ġattain ing
Ġple asant
Ġperson al
Ġhold ing
pure ly
ĠAn t
Ġsing ular
disc overed
Ġestablish ment
AR RAN
Ġdestr u
cogit ated
Ġscept ical
Ġredu ced
Ġaccident s
Ġaccident al
Ġuncondition ally
Ġfirm ly
Ġusu al
Ġmult itude
Ġgrad ually
ĠNat ure
mention ed
bod y
O M
f ers
g ener
h omogeneous
n oumen
Ġt alent
in c
is ions
Ġm ut
Ġf l
Ġf ashion
Ġre ve
ent ia
ar bitr
Ġan n
Ġfor ced
ter m
ur ther
ur us
ist ics
Ġal most
Ġsp ite
Ġem br
Ġr atio
pr op
now ledge
et ween
Ġview ed
Ġadv isable
Ġarr anged
Ġextend s
crib ed
Ġread y
do ctrine
Ġcontinu ed
Ġte acher
quest ions
ĠĠĠĠĠĠĠĠĠĠĠĠĠĠĠĠĠĠĠĠ ĠĠ
caus es
ĠK nowledge
Ġdeser ve
crit ical
Ġanci ents
ert itude
IR ST
Ġwond er
Ġisol ated
F ACE
f lu
i ology
r i
r ist
s mall
in ally
en g
Ġin stit
se e
Ġre pro
Ġre pe
Ġex pose
Ġpro pri
Ġun necessary
Ġun iform
Ġhe ar
Ġar che
me thod
com b
Ġinde termin
Ġext reme
Ġass ured
Ġorigin ally
cogn ized
Ġent ered
Ġremain ing
und red
Ġright s
Ġindic ating
Ġread ily
Ġchang ed
Ġseek s
Ġintu itive
limit ation
synthetical ly
Ġgain ed
speci al
Ġhigh ly
Ġmag n
Ġproduct s
ĠHow ever
hig her
Ġheav en
Ġappe al
defin ition
entire ly
Ġfortun e
Ġwar ning
PRE FACE
ĠREM ARK
Ġarche ty
7 8
; _
Q U
j unction
p rom
w ay
Ġ ver
he d
at icism
Ġin struct
al f
al th
Ġn ull
Ġpr a
Ġu seless
ci ation
con struct
il ities
âĢĶ âĢľ
ill ed
Ġ( Â§
est y
Ġrel ative
pro ved
Ġinde finite
under stand
Ġprodu ctive
ĠPro of
Ġpower ful
Ġconsider ing
ĠM e
Ġwhere in
Ġmatter s
perception s
ĠTH IS
Ġover step
Ġfall acy
gr ad
ne ed
categor ical
happ ens
inde pendence
Ġexhib ited
metaphys ic
Ġdisp ute
Ġfa ith
Ġgeometr ical
demonstr ation
obser vation
Su preme
Ġobst in
Ġanci ent
argum ents
legisl ation
proble matical
ĠDis cipline
econd ly
Ġsett led
ĠTot ality
Ġcontempor aneously
A G
C I
O ur
c ases
e lectronic
n ed
p ore
Ġ -
Ġthe ological
Ġin c
Ġb ase
an im
Ġcon ject
Ġd am
Ġd ays
Ġd atur
as is
Ġh orizon
Ġwe lf
Ġg ift
res ult
ist inction
Ġun b
ab led
Ġr ation
ad istinction
Ġqu ar
ĠA l
ĠP ossib
ĠH im
Ġsystem s
Ġen abled
man ence
Ġexpl anations
Ġdec ision
lu ences
Ġset ting
Ġseem ed
che d
Ġgu arante
irt ue
Ġvirt uous
Ġcommand ed
Ġbound aries
Ġconduct ed
dist rib
Ġtreat ise
Ġobserv ations
Ġdisp utes
Ġcre ated
Ġhappen ed
ĠAN Y
Ġreciproc ally
Ġcheck s
ĠSy stem
nex ion
consequ ences
Ġcap acity
ĠEm pirical
Ġtw ofold
Ġenjoy ment
Ġvan ity
imper ative
Ġshap e
Ġdoll ars
pore al
Ġwelf are
, [
D U
a ffect
c oun
o le
p et
at iv
Ġw id
Ġth reat
ce ll
Ġf iction
Ġf oot
Ġe rect
Ġh ouse
im ental
Ġsu scept
ain ted
con duct
Ġim prov
Ġsub mit
mat erial
Ġcomple ted
ort unity
Ġmo v
Ġground ed
sy llogism
ang es
Ġimp ressions
Ġmode l
Ġshow ing
Ġsee ing
Ġple ase
peci al
Ġexcl ude
Ġbecom ing
Ġsur face
Ġdesign ate
Ġsort s
Ġacqu ainted
Ġcol lection
Ġmechan ical
Ġpe ace
point s
Ġafford s
Ġassign ed
vere ign
Con sequently
ĠEpic urus
Ġpremis ses
A T
a u
b arr
o ice
v ari
Ġa ge
Ġin ner
se arch
Ġd ay
om p
Ġh undred
ain s
Ġde al
ĠĠĠĠĠĠĠĠ ĠĠĠ
Ġr ad
ind ividual
so phist
ag ree
Ġend owed
Ġpos ited
form al
Ġexam ined
Ġag ent
Ġen umer
lect ive
determin ate
Ġcogit able
Ġproceed ed
Ġpresu pposing
Ġ1 2
Ġsupp ly
ON D
Ġimper fect
Ġperson ality
Ġmis understanding
Ġsuper ior
ne w
Ġbring s
ĠEx ist
intellig ence
rem ark
appl icable
Ġadvance ment
Ġpostul ates
enetr ability
Ġasc ending
ĠPh ilos
ĠPh ys
Ġsubl ime
ustom ed
oblig ation
suffici ency
barr ass
A B
S I
Ġc red
Ġw a
Ġf ix
Ġre conci
Ġd ue
ot le
Ġpr ide
Ġan throp
ur y
Ġun changeable
ab or
Ġr ash
Ġprinci p
Ġv iol
ad d
ad mit
ind is
ement s
et ch
Ġy ear
Ġsynthe tic
sol u
Ġyou th
Ġam ount
Ġsim plicity
av ing
Ġmaxim um
ost at
Ġconform s
Ġarr ange
contradict ions
Ġover look
Ġexplain ing
Ġapply ing
Ġess ence
Ġlook ed
Ġfalse ly
ap ode
Ġtrans ition
possess es
Ġdogmat ism
Ġconflict ing
Ġconce al
Ġanalog ous
effect s
Ġprud ent
Ġir re
Ġdevelop ment
Ġexec ution
feel ing
Ġconvin ced
Ġcommence ment
Ġsac r
Ġhyp ostat
Ġbre ak
Ġerrone ous
flu ous
" ;
? "
S IS
U nderstanding
b ased
c id
c op
l imin
o ast
p perception
v iz
it ative
Ġth y
or ies
Ġf ile
se m
om or
ar mon
Ġu r
Ġu pright
og icians
ver se
per haps
Ġpro pens
end e
ig ur
Ġthere with
ĠĠĠĠĠĠĠĠ ĠĠĠĠĠĠĠ
est eem
su preme
ĠF OR
Ġph aenomenon
Ġgr and
are st
Ġinde finitum
Ġext inction
Ġinf all
Ġcomp ens
Ġaff inity
Ġsupp lied
Ġregress us
Ġarr iving
Ġocc urs
Ġansw ers
TI TH
AL EC
Ġlook ing
ĠTHE SIS
Ġconj oin
philos ophical
Ġvol unteers
Ġobtain ing
Ġmoment um
Ġdistrib uted
Ġapode ictical
produ ce
Ġ5 0
IN CI
ES IS
Ġoff ice
Ġfa ult
ĠAN AL
path ological
Ġconfin ed
ww w
Ġobsc ure
Ġsubsum ption
Ġelev ated
Ġpun ishment
Ġusu ally
independent ly
remain s
Ġmediate ly
super sensible
Ġpros pect
Ġsubstant ial
diffic ulties
ĠDI ALEC
Ġcompl iance
anteced ent
Ġadmir ation
Ġdecom position
ĠÃĨ sthetic
TITH ESIS
ĠDIALEC TIC
U L
W hether
b asis
o res
o pp
v irtue
Ġm id
Ġbe a
os en
Ġan nex
ple x
Ġso phism
pr of
Ġcogn izing
fere d
Ġch osen
ĠĠĠĠĠĠĠĠĠĠĠĠĠĠĠĠ Ġ
int u
Ġmo on
âĢĿ âĢĶ
Ġformer ly
ĠE ither
Ġpossess ing
Ġatt ended
Ġent itle
there by
phenomen al
ĠM an
Ġdiv isibility
Ġstr ug
Ġdirect s
Ġconform ably
Ġparticular ly
Ġprov ince
categor y
Ġintu ite
Ġspontane ously
appear ance
Ġrestrict ed
Ġpursu it
produ ced
Ġaccept ed
Ġcircumst ance
Ġlabour s
Ġfour th
Wh ile
Ġaccur ately
OG Y
signif ication
begin ning
Ġschol astic
Ġfalla cious
Ġevid ently
Ġspect ator
ĠCategor ies
Ġhid den
Ġquar ter
T Y
c our
g ives
w ish
Ġt ech
Ġa f
in om
is en
Ġf latter
Ġsu pposing
if ies
ul g
tain ing
Ġso vereign
Ġv is
Ġwill ing
Ġsh are
Ġch ar
ag greg
Ġfar ther
Ġgr ow
Ġground less
ĠE X
lect ed
Ġorigin ating
Ġcogit ates
Ġfeel s
acc ount
Ġcl os
Ġimag inary
che s
Ġindic ation
ĠĠĠĠĠĠĠĠĠĠĠĠĠĠĠĠĠĠĠĠĠĠĠĠ ĠĠĠĠ
Ġelement ary
Ġant inom
Ġden om
Ġgener ated
Ġtreat ing
Ġpret ended
univers ality
IN G
Ġpositive ly
conf idence
ĠSt ill
analy sis
Ġexper iences
contin u
mot ion
mot ive
Ġdanger ous
Ġeth ical
Ġpersu asion
dedu ced
philosopher s
vey ed
Ġundoubted ly
Ġfl ow
eng th
Ġrepro ach
Ġtech n
I TI
N o
f urn
h ood
i hil
v al
Ġ z
in al
in separ
it les
er ci
Ġs ite
Ġin consistent
Ġb ott
es pect
an cing
om ogeneity
Ġon line
ir th
em pl
tr y
Ġr oyal
Ġform ation
Ġsh ar
ex per
Ġsubject ing
Ġworld s
sp eculation
ĠĠĠĠĠĠĠĠĠĠĠĠĠĠĠĠ ĠĠĠĠĠĠĠĠĠĠĠĠĠĠĠĠ
ie ve
Ġbel ow
Ġcontr ast
ĠG ree
Ġdes p
Ġent ertain
Ġimp ly
ĠM oreover
Ġdiv ide
app ly
reg ulative
Ġcomp etent
ev ol
Ġpredic ated
Ġmod ern
Ġel abor
Ġindic ated
Ġbelie ves
Ġsol id
Ġpass ing
Ġmaintain s
Ġcontinu ity
Ġdisposition s
00 0
Ġcomb at
des ire
just ice
Ġrecogn izes
employ ed
Ġwit ness
perfect ion
satisf actory
Ġmark ed
Ġkeep ing
Ġfan aticism
Ġassoci ation
Ġrece ives
post eriori
Ġmult i
Ġincre ase
Ġconstant ly
Ġaccur ate
Ġprim ary
dog mat
Ġfrequ ent
Ġtal ents
ĠNe w
Ġindetermin ate
Ġheaven ly
solu ble
Ġbott om
6 8
C L
a el
b ound
c irc
s us
Ġ 8
ic ated
ich ael
ut ter
Ġas certain
Ġpr int
im ity
Ġl ur
ow ers
Ġsu n
ter s
em onstr
ul ation
ul ates
Ġal tern
us ively
Ġour s
Ġr un
ide al
Ġno ble
pr act
ca p
un avoidable
Ġad mission
Ġma ch
Ġcont act
Ġcont empt
ĠW ARRAN
Ġrequ iring
form s
form ed
other s
with in
ĠH art
Ġfe es
Ġpres umption
man y
Ġself ish
Ġcomp ut
Ġfree ly
Ġphys ico
Ġarr ived
wor ks
Ġmethod s
bec ome
Ġsol ve
arr ow
Ġequ ip
Ġpost ed
Ġtheoretical ly
Ġaddition s
Ġoper ating
Ġconv en
Ġcompar ative
br ought
Ġexcl usively
Ġ3 0
Ġpursu es
Ġke y
Ġsepar ated
Ġpostul ated
Ġmark s
IT ED
path y
Ġenlar gement
Ġformula e
Ġdiscuss ions
indic ate
Ġauthoriz e
Ġaccomp any
Ġsubl imity
argum ent
Be ing
ĠCh rist
ĠNot hing
preced ing
Ġconfirm ation
element s
Ġprejud ic
IM ITED
IL ITY
Ġomni pot
ĠMat hemat
AM AG
sole ly
Ġration is
c ritique
m ong
r ust
u ly
re pt
it ation
Ġin complete
Ġin comp
ic ability
Ġb oast
Ġto pic
Ġm ixed
Ġn amed
Ġex cell
Ġnot ice
Ġl iving
Ġl ater
th ics
th row
em br
Ġun f
ol f
ig ination
tain s
Ġtr ied
Ġv ac
Ġv ice
ult aneous
ĠP art
Ġevery where
Ġmo ving
Ġlimit ing
form ula
me ll
com position
Ġen ounces
av id
ass um
there of
Ġinv alid
Ġinf luences
acc ident
Ġnum bers
Ġresult ing
Ġco inc
Ġread ers
up il
Ġhar m
ext ent
Ġmaintain ing
Ġpath s
Ġadd s
Ġtreat ment
Ġjud ging
Ġintu iting
Ġcorrect ly
Ġsupport ed
appear s
Ġavoid ed
Ġdogmat ist
Ġopp ortunity
great er
Ġenlar ge
attain able
distinguish able
Ġsubsum ed
Ġqual itative
assert ions
concern ed
olog ia
Ġinj urious
sour ce
Ġwonder ful
limin ary
Ġapodeictical ly
O L
m ist
m echan
p ublic
p sychological
r ather
he res
re nt
Ġc our
Ġs il
Ġto uch
Ġn ext
Ġe ternal
Ġe go
se en
le x
ot ed
os es
Ġex empt
Ġex ternally
Ġsu it
res ist
per manent
ĠT ake
Ġde tr
am ent
not ions
ecess ity
her ing
ge t
su ppose
ex ception
Ġqu a
Ġman kind
Ġar isen
ĠS ome
ens es
fin ally
Ġlimit ative
Ġeffect ed
Ġjust ly
edu c
Ġconstit uting
ful ness
ĠCon cl
Ġattain s
Ġinfinite ly
Ġneed s
Ġspeci fic
Ġelse where
Ġjud ged
Ġcompar ing
des er
Ġexcl udes
Ġro ad
presu pposed
origin al
belong s
Ġta ught
Ġdef end
crit icism
rest s
Ġnecessit ated
Ġauthoriz ed
Ġreckon ed
exp ression
Ġspirit ual
ĠSEC TION
Ġencl osed
ativ um
Ġrad ical
ĠPhilos ophy
C TION
L I
L eibnitz
O D
O RE
S uch
T RO
] ,
a ult
l o
r og
r ance
s ed
w ant
Ã ¦
on ically
in fin
re ction
it ates
at ory
Ġw ww
Ġp ortion
Ġin ternally
Ġre action
st on
Ġl ic
Ġl ength
Ġg ave
if ferent
end er
act ing
ad ed
ex position
Ġacc ustomed
un t
Ġsub stit
ĠN or
Ġdist ance
less ness
aly tical
Ġreal ization
Ġass ent
Ġass ure
Ġass istance
abl eness
ys s
osm ology
Ġ1 9
Ġconform ed
dis position
Ġanteced ently
Ġabstract ed
produ ction
consist ency
metaphys ical
Ġear ly
Ġinevit able
Ġacqu ired
Ġclass es
correspond s
Ġasc end
Ġwrit ing
ĠDo ctrine
ik es
Ġcal cul
Ġforbid s
Ġmoder ate
Ġprep are
ATION S
Ġlink s
DU CTION
Ġmov ements
Ġsacr ifice
TRO DUCTION
E AS
P er
S EC
a per
a pon
a seless
c ame
d on
h ope
l ogic
p gl
p owers
r ules
s chema
y right
Ġt itles
Ġof ficial
Ġp aper
Ġin ability
Ġin soluble
Ġb irth
an ing
an cy
Ġcon nexion
Ġd ate
Ġbe ars
Ġbe came
ut ic
ut ility
Ġh alf
Ġpr ime
Ġex posing
if ying
us es
ab out
Ġhe s
ĠF IRST
Ġse es
wh ose
pre vious
Ġdif fer
ĠIn formation
Ġpresent ly
Ġconnect ing
me aning
Ġown er
ĠH uman
Ġass ist
phys ico
Ġgreat ly
ĠWe b
Ġadv ancing
ra se
acc omp
Ġmod ific
Ġsol ic
Ġhold er
Ġpass ed
Ġrender ing
Ġinst inct
Ġchang ing
requ ired
Ġintr insic
Ġamong st
Ġmed iating
comm and
ĠV I
incl inations
Ġfa ir
presu pposition
IC T
Ġfigure s
Ġexception s
Ġimpl ied
Ġ9 0
Ġsk etch
Ġcontrib utes
Ġimpul se
maxim s
ĠDiv ine
Ġderiv ative
Ġcost s
ĠMor ality
PL ES
Ġfrequ ently
establ ished
show n
ĠSEC OND
Ġloc ated
Ġtyp e
Ġalleg ed
Ġbuild ing
Ġreplace ment
ĠExist ence
INCI PLES
ĠGree k
utter ly
Ġequip ment
ĠChrist ian
apon s
pgl af
Ġmodific ations
M etaphys
S p
S econdly
c ent
f igure
i i
m akes
s oul
u ality
Ġo mit
Ġo ppose
Ġs alt
Ġp upil
Ġin admissible
Ġb and
an nihil
Ġn arrow
le ads
Ġbe tr
st one
im possibility
ess ential
ĠI s
ist otle
Ġpro poses
em per
de v
Ġthere from
ad ly
ad mitted
ad ox
ex cl
Ġpre liminary
Ġknow ing
cl ass
ort ions
Ġgo ing
pro ve
Ġrational is
Ġfe ll
Ġthink er
ĠD avid
Ġimp ed
Ġshow ed
Ġconform able
Ġset tle
Ġdistingu ishes
crib es
Ġdemonstr ations
exam ples
bel ief
pur su
Ġfr ame
Ġintrodu ction
Ġintrodu cing
ĠAr istotle
comm un
inv ol
interest s
non y
Ġcomprehend s
Ġfan cy
Ġprob ability
compre hend
obser ved
Ġinsepar able
pret ensions
dog matical
fortun ately
conv in
Ġrid ic
Ġste ps
sec ure
apode ictic
armon y
ores aid
Ġbetr ay
. .
4 1
P ure
T r
a de
f urther
g le
r y
t reat
v olution
y llogism
he s
on y
in st
in stead
re ceive
Ġof fer
Ġin ex
ct ory
Ġf igur
om ents
Ġl ot
ter med
ure an
th ree
ur a
qu al
con junction
Ġcom pr
Ġtr ust
Ġtr ying
Ġab ide
Ġhe ight
Ġse ven
ĠA b
ĠA pperception
pon ent
un iverse
Ġdis se
Ġdis similar
Ġrepresent ing
Ġmy st
Ġser ved
ĠIn trodu
com posite
ine v
Ġthink ers
ha ust
Ġsensuous ly
Ġview s
ĠL ogical
ĠL OG
Ġdirect ing
Ġestabl ishes
ĠĠĠĠĠĠĠĠĠĠĠĠĠĠĠĠĠĠĠĠĠĠĠĠ ĠĠĠĠĠĠĠ
Ġideal s
Ġess ay
ext ensive
Ġaw aken
proc ess
Ġinfer ring
Ġstrict est
proper ty
Ġey e
Ġrestrict ions
Ġpursu ed
Ġdecl are
consider ations
Ġfurn ished
Ġsuffici ency
Ġfill ing
Ġtransc ends
power ful
Ġir resist
Ġindu bit
Ġcontrib ute
Wh atever
Ġbene fit
Ġdevelop ed
Ġexec uted
Ġheav y
Be fore
ik ing
ĠObject s
Ġattr action
Ġpat ient
Ġdim ensions
Ġapproxim ate
Ġobstac le
Ġdream s
Ġarchitect onic
Ġmund us
Ġdestru ction
ri ption
Ġpropri ety
Ġconject ure
Ġgift s
Ġsophism s
ĠLOG IC
G r
S t
c ision
g ulative
l ife
m oment
p ute
s pon
Ġ ve
Ġ ***
Ġ Qu
Ġt en
Ġb ind
es pecially
or gan
Ġf at
Ġf ixed
Ġn ihil
Ġl ab
ci l
if ference
Ġde ce
Ġun it
aw ay
de fect
Ġsp urious
tr oy
Ġdetermin ative
Ġtr ack
Ġv oice
Ġper plex
Ġim pose
su al
present ation
Ġst ead
un able
op inion
Ġcontr over
ĠG r
ĠG er
Ġphilos oph
Ġag rees
ĠR emark
Ġinv isible
ĠRe gulative
Ġintellig ent
Ġintellig ences
Ġstr ike
Ġdedu cing
Ġcomp ass
Ġres ide
Ġphys iology
ĠĠĠĠĠĠĠĠĠĠĠĠĠĠĠĠĠĠĠĠĠĠĠĠ ĠĠ
ane ity
Ġsol ved
ĠAn alytical
Ġlegisl ating
sim ply
Ġinquir ing
des troy
Ġrestrict ion
produ ctive
Ġdeser ving
Ġfavour able
Ġprescrib ed
free ly
Ġsecure ly
Ġfill ed
Ġoppon ents
Ġparagraph s
Ġwrit ten
Ġqual ities
Ġpay ing
Ġren ounce
Ġsubsist s
Ġderiv ation
Ġanticip ate
preced es
Ġtransg ression
Ġaddu ced
Ġclose ly
Ġsuff er
Ġundert aking
Ġfict ions
Ġambig uity
Ġcultiv ation
ĠSto ics
Ġembr ace
Ġrepe ated
Ġimprov ement
Ġclos er
Ġantinom ies
Ġdenom in
Ġtechn ical
Ġmulti plicity
infin ity
spon t
! "
C T
P lease
P ART
U ND
c ult
d id
i ability
l iberty
m ic
o int
p eculiar
in finitum
en evol
Ġc at
er o
al e
al ready
Ġm ine
Ġe lectr
se em
le t
Ġh ttp
Ġh omogeneity
the oretic
os ing
Ġl icense
Ġwe al
ĠI ll
ci ated
Ġde ceived
us h
us ing
de finite
de utic
tr ademark
Ġv ict
ary ing
ge ometr
Ġst atus
ĠA fter
un known
Ġpart icip
here nce
Ġch ild
Ġar ose
sp e
ie ce
Ġsub ter
op ing
Ġma st
Ġreal ized
Ġatt ach
ĠD IS
ĠD AMAG
oun ced
Ġconsider able
Ġcharacter istics
ĠM OR
ĠM ichael
Ġstr ange
Ġcomp els
ev il
Ġcontent ment
Ġres istance
Ġdiscover able
Ġobser ving
Ġleg al
Ġread able
Ġequ ality
AP H
Ġprov iding
Ġ2 5
Ġende avoured
bl es
sh all
Ġoccup ation
Ġfr amed
Ġobserv ance
att ention
oc ke
Ġdel iber
separ ate
imp enetrability
comp elled
Ġoff ers
CE P
Ġed ition
Ġcoun try
How ever
like wise
Ġdef ici
expl ain
Ġfan cies
Ġadm ixture
Ġsucceed ed
Ġhum ili
Ġmist akes
ĠDe ity
Ġ200 2
ref lection
Ġdisplay ing
Ġobe y
ick ed
dec lar
Ġsym pathy
occup ied
answ er
abs urd
ĠAnt inomy
indis pensable
Ġyear s
Ġur ged
Ġpropens ity
aggreg ate
exper iences
Ã¦ deutic
Ġelectr onically
ĠDAMAG ES
ĠMOR AL
Ġhumili ation
1 6
H e
N ot
S o
c ourse
e ed
n a
s aid
u ge
Ġt ext
in trodu
er ity
Ġs ize
Ġin comprehensible
nd eed
Ġto ok
Ġd ark
st e
Ġsu st
Ġsu pposes
Ġare na
act ual
Ġcom posed
Ġem barrass
Ġr ound
Ġso ever
Ġcondition ally
Ġper ce
Ġsy nony
pos it
Ġse vere
un ciation
Ġy ield
Ġle aving
pre v
ĠW here
rit ical
ser ves
Ġdist ant
ari um
ici ous
ĠD es
Ġcor poreal
Ġanaly sing
Ġdiv erse
Ġstr ives
Ġcontradict s
Ġremain ed
Ġadv ances
Ġlogical ly
lu cid
Ġ1 78
Ġarr og
EN CE
Ġseem ingly
Ġac knowledge
Ġattempt ing
cont empl
bec om
Ġcontin ually
Ġpass ive
Ġinst ances
Ġden ies
Ġaffect s
Ġexpect ations
Ġsuper fluous
Ġes pecial
Ġyour self
Ġthorough ness
Ġobtain s
Ġinvol ving
Ġabstract o
Ġconstruct ing
consist s
constit ution
There fore
ground ed
TH E
Ġproblematical ly
Ġacqu ire
Ġprescrib e
Ġconce ivable
Ġmeet s
great est
Ġasc ent
ĠIm possibility
attain ed
Ġdet ailed
Pr odu
consequ ence
Ġestim ated
Ġconvin cing
Ġtal k
Ġwide ly
establ ish
supp ort
EM ENT
Ġfruit ful
Ġalter ation
rupt ed
ĠPR INCIPLES
With out
statement s
Ġfict itious
trans ition
Ġgovern ment
author ity
Ġaccompan ied
Ġexert ions
ĠAl though
Ġsuscept ible
ende avour
insepar ably
Ġincomp etent
Ġexcell ent
accomp an
1 5
U D
b al
d ialectic
h ab
i ans
m ixed
t on
Ġ id
he ter
Ġthe ories
re ckon
Ġw ished
Ġin sist
Ġin cor
al ed
Ġf ate
Ġe ase
Ġre tain
Ġre str
Ġre view
Ġbe gan
ar ise
iv il
Ġex ag
Ġl ate
per ceive
um b
tr ansc
Ġr u
Ġv ag
ex c
ex hib
wh atever
for th
Ġdis pens
el t
Ġne ar
Ġpl acing
Ġgr at
Ġdes cribe
Ġcall ing
pro b
Ġen cour
ĠE nd
ass ign
Ġquant a
Ġref use
Ġdec ides
Ġaccord s
Ġneg lect
aim s
Ġbelie ved
Ġspeci ally
according ly
Ġbr an
disc us
Ġconv ince
Ġinvol ve
fer red
des ign
just ified
Ġfr i
Ġsur pr
oc ation
Ġorgan ization
Ġappro ach
Ġdecl ine
Ġadequate ly
ins ight
Ġprob able
Ġindu ce
Ġwrit ings
Ġmist aken
Ġesca p
oper ation
Ġdev oted
diffic ulty
supp ly
Ġhind er
An alytic
Ġimpart ial
Ġaccompl ished
Ġservice able
Ġdeep ly
Ġobstac les
inquir y
inquir ies
Ġdepr ive
uncondition ally
ĠMe thod
Ġthreat en
Ġaf oresaid
embr acing
Metaphys ic
Ġirresist ible
Ġexag ger
A r
F L
G eneral
I B
I ON
R ITI
V IS
Y ou
_ âĢĶ
a ccess
b ol
d ay
d ated
m erit
n umer
o ad
t ext
u ary
v oid
in cre
re ceptivity
it ful
ic ate
Ġb urd
an ci
Ġre d
Ġre volution
os s
Ġan im
Ġl est
Ġl ogicians
ject ed
Ġwe b
ib oly
th orough
ĠI D
ur ies
Ġor igination
per manence
em piricism
ch ain
act ive
Ġun its
Ġun avoid
Ġun expected
Ġca st
of t
Ġr ace
Ġtr ace
Ġdo ing
Ġv it
Ġper pet
Ġab yss
pr imitive
ad m
ant ly
Ġqu oad
ph iboly
pon ed
Ġdis gu
), âĢĿ
Ġpre cision
Ġch ief
Ġar ound
ĠS cience
ag reement
ĠC RITI
ĠG ood
ivers al
Ġcall s
ĠR ational
Ġreal ize
Ġsim ultaneous
Ġcrit ic
Ġent ity
Ġconcl uding
Ġconsist ency
acc ur
Ġsatisf ies
Ġmod i
Ġmod est
subject ively
mis understanding
arr ant
comple ted
Ġprogress us
Ġallow s
Ġjustif ies
AN TITHESIS
Ġdistinguish able
pens ably
II I
Ġmanifest ations
oc r
div isibility
Ġoff ender
Ġacqu aint
more over
Ġdefinite ly
real ization
Ġconce iving
gu ard
Ġdef ence
adv ance
Ġfail ed
Ġultimate ly
ator s
proceed s
Su ppose
Pr inci
Ġperform s
Ġestim ating
Ġdisplay ed
ĠDI VIS
fortun e
Ġcontempl ation
Ġimit ated
Ġhind rance
attrib ute
ĠMetaphys ic
Ġaccompl ish
prop ortion
QU E
Ġpra ise
ĠPossib ility
au sible
Ġprincip al
erci um
mechan ism
rog ative
Ġfat al
Ġunavoid ably
ĠCRITI QUE
ĠDIVIS ION
A D
D e
E TH
G RE
I de
M ETH
S ince
S ee
a x
a utonomy
b its
b onum
d one
e Book
e ffort
h on
h ttp
i pp
l ast
p opular
s ight
t ent
u ent
v arying
ĉ ĉ
Ġa str
Ġa ston
on ations
en cies
Ġc ertitude
Ġin consistency
al le
Ġb on
Ġth ou
Ġf il
Ġe lective
le mic
ent ity
Ġpr ag
ib ilis
th ird
ci ent
qu e
ist rib
ain ing
ul er
ĠT hen
con ceive
ch anges
am es
ill ion
de t
Ġem ail
Ġr uler
Ġcondition al
Ġhe at
Ġhe alth
Ġreg ular
Ġus er
ant inomy
ĠF undamental
art es
ĠA SC
ĠA gain
ĠA GRE
Ġpre par
et s
et ary
ĠS at
Ġph rase
ĠW ill
ĠC ogn
Ġcontr adistinction
Ġrequ est
Ġdist ress
Ġpo lemic
ĠR el
Ġsensib ly
Ġsim pl
ang ing
Ġanaly se
ĠM on
ĠM is
Ġref ers
Ġcomp lying
ĠL aw
ĠL IMITED
know s
Ġestabl ishing
Ġworth iness
TI ES
practical ly
Ġremark ed
ĠPr int
Ġmis sion
Ġaffirm ations
gr anted
Ġcopy ing
giv ing
Ġfalse hood
** ***
Ġdemand ing
Ġpret end
Ġrequis ites
Ġrecogn ise
pur poses
Ġhel ps
Ġintrodu ced
Ġdel usive
imp ressions
Ġdon ate
Ġlet ter
Ġfurn ishes
constit utes
div ided
Ġcreat or
Ġcreat ing
Ġcreat ures
Ġed itions
speci f
Ġfill s
Ġcoun sel
demonstr ated
gu idance
discover able
investig ations
Ġdet ected
TIC AL
Ġdiscern ed
Ġbene ficial
Ġsent iment
Ġsent iments
Ġpun ct
Ġ200 1
Ġstreng then
Ġpay ments
Ġmerit orious
Ġfit ness
assert ion
Ġfulf illed
Ġhist orical
Ġprim arily
proble ms
Ġpromot ion
Ġpromot ing
Ġspecif ied
Ġattack s
Ġweak ness
concept s
ĠNO T
Ġesteem ed
ĠObject ive
Ġfalla cies
Ġobe ying
ĠPR AC
Ġchimer a
Ġpenetr ate
alog ue
reciproc al
Ġdimin ished
Ġexerc ises
obtain ed
uncondition al
Ġtend ency
gener ally
noumen a
Ġmut ually
Ġwid est
sophist ical
AB ILITY
Ġrash ly
omor ph
Ġupright ness
Ġannex ed
Ġz ero
ĠĠĠĠĠĠĠĠĠĠĠĠĠĠĠĠĠĠĠĠĠĠĠĠĠĠĠĠĠĠĠĠ ĠĠĠĠĠĠĠĠĠĠĠĠĠĠĠĠĠĠ
ĠWARRAN TY
Ġcomput er
OL OGY
OD OLOGY
Ġcontrover sy
enevol ence
METH ODOLOGY
ĠASC II
ĠPRAC TICAL
A t
S ome
U n
b ar
c in
c ertitude
e go
f ield
f uge
h ad
k en
l ittle
n g
r am
s ch
Ġthe ore
it iz
is k
en cing
Ġw icked
an c
Ġre ply
Ġre serve
Ġcon cede
Ġd atum
pt ions
ld om
og ram
res h
if ul
per mitted
Ġpro long
Ġun ite
Ġun certainty
Ġun attainable
de l
de pendent
ans ition
min is
tr iangle
Ġdetermin ability
pir ic
present s
Ġse lect
Ġse ldom
Ġst age
te aches
ĠS e
Ġsub division
ĠN either
ag on
ĠIn stead
Ġgr oping
ish ments
ro ken
Ġfe et
ĠE ach
Ġyou ng
Ġreal ities
av ity
av ag
Ġthrough out
ĠD etermin
Ġorigin ates
there in
Ġstr uct
Ġtot ally
ev idence
ten ance
Ġ1 3
und etermined
Ġmathemat icians
Ġnow here
ma j
Ġconting ently
Ġcorrespond ence
cont est
part y
Ġdemonstr ating
Ġsignif y
ĠSu bject
Ġconduct s
Ġmis understood
Ġfall en
Ġgener ation
ext end
bl ing
Ġdemand ed
ird ly
Ġabs ent
Ġce asing
Ġlead ing
leg itimate
Ġintrodu ces
Ġmanifest s
ific es
dem anded
quant ities
Ġlast ly
Ġsoon er
Ġdisp ense
ren ce
conf irm
presu ppose
Ġta ut
conce ivable
Ġdiscuss ing
Wh y
Ġremo ving
indic ates
feel ings
Ġsafe ly
IR D
ĠNat ural
Ġdeclar ing
Ġdesc ending
Ġaddu ce
Ġexerc ised
Ġaccompan ies
noumen on
Ġratio cin
Ġarchety p
Ġarchety pe
Ġreconci led
add ed
Ġoverlook ed
sem ble
prof ess
Ġsalt us
convin ced
Ġsubter fuge
2 2
5 0
? âĢĶ
B oth
I ES
N evertheless
a cious
b ed
b etween
j oined
l able
o ose
o ved
r ies
s ur
s ort
t est
u um
x is
y our
Ġa xis
in tr
in sufficient
is ive
en able
Ġs l
Ġs aw
Ġp ol
Ġp ubl
Ġp arent
Ġm ar
Ġm ass
Ġf elt
ou d
as ions
Ġl ime
Ġwe aken
ĠI ndeed
ul ous
ul ated
ul sion
act orily
am ples
Ġun success
Ġsp ecul
est im
Ġr are
Ġtr uly
all ow
pr iate
ĠA mong
Ġapp ell
so on
Ġpre cise
Ġpart ial
et ic
Ġar ms
ĠS T
ĠC an
der ived
Ġval u
ell ing
Ġreal izing
reason s
av ed
phys ics
Ġsec urity
Ġinv ent
app e
Ġcomp ares
Ġdec iding
Ġdec isive
ĠU ltimate
ĠU SE
Ġsuccess ful
rel atively
Ġcl ue
Ġarr ives
Ġimag in
Ġder ives
err or
Ġsoul s
Ġexplain s
Ġhop es
disc ursive
Ġthorough going
Ġoccup y
Ġappro pri
produ ces
comp ared
pic ion
Ġprescrib ing
satisf ied
Ġconflict s
Ġlos ing
Ġprevent ed
Ġenlar ged
occ ur
occ asion
Ġantit hetic
obser v
proceed ing
conc reto
claim s
post ulates
Ġcr ude
Ġincre ased
hypothe tical
oblig ed
ĠMor al
equ iv
Ġdeclar ation
Ġdeclar ations
Ġmoder ation
Ġprejud ice
Ġobvious ly
Ġcur rent
Ġpenetr ation
Ġdimin ish
ĠVII I
Ġdepart ment
Ġreve als
Ġextreme ly
affect ed
Ġinfall ibly
Ġstrug gle
sus picion
emonstr able
Ġprejudic ial
Ġsynony m
prev ent
becom es
Ġdispens ed
discus sion
Ġunsuccess ful
E m
O P
P O
P h
R espect
b ring
c r
d le
f avour
f ounded
h armony
m ag
m aking
n et
Ġ educ
re cogn
it ory
en ough
er ms
Ġw arn
Ġs w
Ġs ave
Ġp ress
al together
Ġas pect
Ġl ow
ir able
Ġwith draw
ver sion
Ġpro hib
pp ing
Ġde ad
am p
Ġun fortunately
Ġr ic
Ġunder take
Ġv ision
Ġv isible
pr ud
Ġrel uct
Ġcons ult
Ġdis satisfaction
Ġpre rogative
Ġle vel
ĠS U
fin ed
pre cept
pre cisely
Ġpresent ation
ĠW olf
Ġpos it
object ions
Ġimp ression
Ġhere after
Ġstr ikes
Ġres pon
Ġmathemat ician
Ġsupp lies
Ġsatisf ying
Ġdefin es
Ġconsequ ent
Ġmod ification
Ġseem ing
Ġpost poned
Ġmis conception
Ġdepend ing
Ġharmon ious
Ġnegative ly
Ġjud ges
Ġjustif ication
happ y
Ġpret ension
Ġte aching
Ġcho oses
Ġpar adox
Ġstrict ness
des ires
Ġtrans itory
Ġobserv able
proper ties
dem and
Ġrestrict ing
Ġrestrict ive
Ġexact ness
Ġlast ing
Ġarbitr arily
Ġche m
Ġaccept ing
Ġfa cil
Ġput ting
Ġsimilar ity
Ġconce it
Ġdom inion
Ġir rational
Ġdet ach
Ġcontrib utions
theoretical ly
attempt s
Ġprofess ed
Ġgl adly
Ġgrad ual
ĠEpic urean
pass ing
Ġtransg ress
require ments
conv iction
Ġforbid den
Ġsac red
Ġprep ared
Ġfruit less
Ġunceasing ly
Ġnumer ous
Ġrecomm end
Ġhyper physical
Ġcent uries
arbitr ary
Ġteacher s
method s
comb ination
comb ined
Ġunb ounded
coun ter
Ġbea uty
ulg ence
ORE M
haust ed
Ġbind ing
Ġburd en
. âĢĶ
7 1
A CH
B S
B esides
C a
E T
I V
N OM
O F
O BS
P RO
S mall
S IC
T ime
V ATIONS
Y TIC
Y SIC
a ught
a ordin
b st
b ation
c est
c reat
c ern
d ut
e es
f old
f und
i atus
l ain
l ication
l ines
n is
o e
o il
r ain
r own
s pr
s ciousness
s mell
s let
u x
w it
w are
y ield
Ġa ut
in ently
it hetic
en joy
Ġc ens
Ġs mo
Ġin sp
Ġb all
Ġb enevolence
Ġto l
Ġm al
Ġm oments
ct ible
Ġf ire
an ill
an while
Ġe p
Ġis su
Ġre vel
Ġre ferences
Ġre lease
Ġre distrib
Ġd as
Ġd uring
ar m
as us
Ġan xi
Ġan cest
Ġl ays
Ġl iability
Ġwe apons
Ġg ot
ĠI F
ĠI ND
ur is
ception s
ist ered
ch anged
hen s
ple teness
us ality
act ually
am ents
Ġun pleasant
Ġun varying
pl ain
de pendence
Ġcom pos
Ġcom ponent
Ġr ig
ĠB E
ĠB RE
su asion
Ġreg istered
Ġcogn itive
ĠF inally
Ġqu id
Ġst ake
ac ities
Ġsubject ion
ĠP sychology
Ġpart e
ĠTh ought
te llig
ĠS en
el ve
ag ogic
mat ic
du c
reat or
Ġmo ck
ĠC a
Ġcontr ol
Ġown s
fect s
med i
Ġfind ing
ĠR oyal
ĠE ND
sy m
Ġexp ense
Ġexp enses
Ġam phiboly
ke ep
ear ance
ile ge
ĠD ifference
ĠD onations
Ġsec uring
Ġview ing
Ġinf ring
Ġap agogic
ĠM ET
Ġcontradict orily
Ġtruth s
contr adistinction
ER VATIONS
ma il
ene al
sub ordinated
Ġimag es
TI NOM
Ġple ases
Ġleg ality
Ġfin ality
Ġassert or
Ġassert orical
Ġpass ages
Ġmaterial ism
Ġmis conceptions
Ġoblig e
ĠĠĠĠĠĠĠĠĠĠĠĠĠĠĠĠĠĠĠĠĠĠĠĠĠĠĠĠĠĠĠĠĠĠĠĠĠĠĠĠ ĠĠ
giv er
RE CT
subst ant
Ġante cede
where as
Ġauthor s
ĠUn iversal
Ġprof it
Ġcategorical ly
Ġcompre hension
Ġsupposition s
appear ances
Ġ3 5
Ġdesign ation
att ack
Ġpursu ing
Ġdeser t
TH ER
Ġ4 5
ins ically
ip se
sens ations
conform ably
interest ed
ĠAN TINOM
Ġdown lo
ounce ment
subsist ing
Ġarrangement s
prov ided
Ġaccess ion
Ġsucceed ing
Ġindu ction
contin uous
Ġdiscuss ed
mot ives
Ġhum bles
On ly
Pr actical
Ġelev ation
Ġbene fic
Ġnecessit ation
Ġearth s
Ġsent ence
Ġperform ing
Ġcap acities
Ġschemat ism
ĠEm pty
Ġenter ing
Ġestim ation
Ġcr ime
Ġextr aordin
Ġexc ite
Ġtw elve
Ġom nis
legisl ative
Ġsubsist ence
Ġ6 0
vol ition
Ġanticip ation
Ġpromot ive
Ġspecif ication
Ġspecif ically
Ġcontempl ated
TR IB
Ġconfirm s
ĠCON FL
Ġprot ected
ĠCom pleteness
ĠMetaphys ical
ĠIdeal ism
Ġnumer ical
reciproc ally
co existence
ĠApp lication
ĠApp earance
ĠProble m
ĠProble ms
ĠSto ic
word s
Ġdam ages
Ġguarante ed
syllogism s
Ġenumer ation
Ġcred it
Ġwa ver
Ġconjoin ing
ĠANAL YTIC
ĠĠĠĠĠĠĠĠĠĠĠĠĠĠĠĠĠĠĠĠĠĠĠĠĠĠĠĠ ĠĠ
Ġprint ed
Ġmach ine
Ġomnipot ent
ĠConcl usions
Ġ19 9
don ate
Ġsolic it
Ġfigur ative
ĠIntrodu ctory
St ates
Ġdenomin ate
Ġcat alogue
ĠIll usory
Ġchild ren
APH YSIC
CEP TION
ĠMORAL S
ĠID EAS
Ġacquaint ance
Princi ple
alle l
ĠMon ad
omorph ic
OBS ERVATIONS
dut ies
anill a
Ġancest ors
Ġcompos itum
ĠBRE ACH
tellig ence
ĠMET APHYSIC
ĠANTINOM Y
Ġextraordin ary
ĠCONFL ICT
4 2
A l
C ritique
I TION
N ecessity
P END
U M
f ill
f unction
f ety
k ing
t ou
u b
v an
he tical
Ġp ot
Ġp air
Ġp ortions
Ġp iece
Ġin hering
Ġb es
Ġb aseless
Ġm er
Ġre ception
Ġre vol
Ġd i
Ġd rop
Ġbe g
ot ion
Ġh ollow
ll og
iv er
Ġl ar
og mat
ver ted
Ġun inter
Ġun answ
Ġun anim
Ġun observed
ill usions
Ġ( _
Ġr ising
Ġr isk
Ġunder min
Ġso ci
stand s
Ġper sist
pos ited
ind u
ant om
art ic
Ġst opp
our th
Ġad here
Ġsub mitted
ppos ites
possib ly
Ġdif fers
Ġnothing ness
Ġfirst ly
Ġout set
Ġatt aching
ĠD O
ĠD ogmat
Ġintellig ibilis
Ġref utation
represent ed
ev ent
Ġcontent ed
Ġconcept us
Ġgu iding
Ġneg ativum
Ġinvestig ated
subject ed
ĠĠĠĠĠĠĠĠĠĠĠĠĠĠĠĠĠĠĠĠĠĠĠĠ Ġ
Ġassert ing
Ġant iqu
part ly
mis s
Ġco al
comple tion
Ġdeduction s
ail ing
Ġfall ing
Ġvari ance
Ġspe cious
Ġmathematical ly
Ġadvantage ous
Ġconv ict
Ġcontinu es
inde finitum
Ġcompar atively
where by
Ġtrans formed
comm unity
contain ing
Ġtest s
IN TRODUCTION
fac ulties
think s
conf ess
Ġdestroy ed
Ġannihil ates
character istic
character istics
Ġfan ci
prov ince
Ġsa fety
particular ly
after wards
Ġnecessit ate
Ġaggreg ation
proof s
Ġsubsist ing
influence d
Ġillustr ation
pret ation
Ġcompl aint
Ġundert aken
Ġord inary
Ġdr y
Ġgrant ing
Ġcle arer
Ġbook s
Ġparalogism s
compar ison
Ġinhere nt
anticip ation
Ġmut ual
Ġinstit ute
Ġhear ing
Ġobstin ately
Ġunb roken
ĠPossib le
Ġguarante e
intu ite
circ le
ĠMathemat ical
Ġfair ly
ĠGr ound
spont aneity
Ġvict ory
declar ing
Ide al
ĠRel ation
Ġstruct ure
llog istic
ĠDogmat ism
1 3
1 7
1 8
4 0
A gain
F inally
I G
M at
S y
a uthoriz
b or
b et
b ered
d anger
e y
f al
f its
f ixed
i ant
l p
l osing
m em
s ation
t a
t ow
v ention
w rit
he lp
Ġa ught
on ce
in ferences
re te
it im
is ition
at eness
Ġc ut
Ġc ivil
Ġs ine
Ġs edu
Ġs aved
Ġp ages
Ġin cap
Ġin contest
ic a
Ġm il
an alog
se tt
Ġre ver
Ġd well
Ġd oubted
ut iful
Ġl ib
Ġl oose
Ġfor get
ter ior
ter ms
ir ae
ci ences
qu ality
ch ief
Ġint end
Ġde ceive
il ty
us ual
act ed
Ġun iting
ill iant
um bling
not withstanding
Ġr ises
Ġr ob
ĠB OOK
all en
Ġim pract
ad ow
Ġreg ulate
ind ifferent
Ġsh adow
Ġst ability
un ited
Ġad vers
to o
Ġdis regard
ĠP ers
Ġpart iality
Ġle ap
Ġar tic
ĠS c
pre cede
Ġtranscendental ly
iz able
Ġpl ane
ĠC ertain
ĠC ritical
Ġow ing
com ing
Ġrem ed
Ġbelong ed
over t
Ġpres um
Ġam id
Ġmat ured
ass ume
Ġhere by
Ġconc rete
app oint
Ġassum ptions
ĠL ocke
Ġconsist ing
Ġconf ound
und ity
rel ates
Ġmot ions
lement s
Ġstand ing
Ġsatisf actorily
Ġneed ed
ĠTH IRD
Ġattrib uting
Ġdistinction s
ĠSu ppose
ob sc
Ġmis led
Ġfal s
Ġintel lect
Ġadd ing
requ is
Ġund en
Ġbr ain
Ġbr illiant
ĠY et
Ġce ases
Ġcontinu um
Ġcomb ine
Ġdogmatical ly
bel ieve
Ġrestrict s
ĠAr gum
Ġra ising
Ġappro priate
employ ing
Ġsepar ation
Ġcare ful
possess ion
Ġacqu isition
conf lict
analy se
Ġconver t
Ġprop Ã¦deutic
conform able
Ġcol lected
kind s
enetr able
xiom s
Ġplain ly
Ġopen ed
Ġabsurd ity
Ġindu ced
contin ue
Ġsubsum e
Ġelev ating
Ġremo ves
exp ress
Ġpopular ity
Ġextr avag
Ġsign al
Ġren unciation
exer c
Ġillustr ate
signif ic
ĠInt erest
scept icism
conci lable
ĠWh atever
Ġimit ation
Ġpathological ly
Ġperiod s
Ġchimer as
Ġambig uous
Ġdict ate
clear ness
Ġhard ly
Ġresol ved
abs ence
ĠTr ansition
Ġdestru ctive
Ġembr aces
Ġinstit uted
Ġobstin ate
Ġinfall ible
Ġbea utiful
Ġelabor ation
Ġcombat ants
Ġlur ks
Ġconven ience
Ġunf air
assum ed
Ġcoinc ide
Ġharm less
Ġhes itate
annihil ated
Ġimped iments
Ġridic ulous
Ġindubit able
spe aking
Ġmast er
Not hing
ste ps
accompan ied
hab it
reckon ed
Ġrestr ain
Ġvag ue
assign ed
Ġsurpr ising
appe ared
Mat hemat
bet ter
tow ard
) :
A uthor
E G
H T
H ume
N ITY
V I
b ene
d ict
d ivers
e al
e ous
e thics
f l
f r
f ut
f il
h orizon
i ps
l ated
m utable
n gl
o ck
p ite
p un
p el
p arent
p dated
r s
r ation
r un
s k
t akes
t aken
x ious
Ġ rom
Ġt one
Ġt emper
he ld
in ing
in consistent
in comprehensible
Ġo mitted
re p
re vol
it ute
it ted
en ing
er ably
Ġw ings
Ġs oft
Ġp et
Ġp ays
Ġin sufficiency
al most
or ic
Ġm ixture
ce ly
Ġf lu
an ks
an uary
Ġe con
Ġe lucid
Ġre solution
Ġre straint
Ġre verse
st reng
ent itled
ar les
ar cely
iv en
Ġl ive
ĠĠĠĠ ĠĠ
Ġwe alth
cept ive
ib us
ĠI M
qu ire
and er
ec ided
Ġde ed
il t
Ġun ites
Ġun conscious
Ġun mixed
ab andon
um mum
Ġthere on
est ed
Ġsen sual
ĠB el
Ġsh ip
ac le
Ġapp et
ca ution
for t
ĠP O
ĠP ost
str um
str ained
ĠO p
int ention
pre ted
Ġdif fered
ĠIn ternal
Ġpl ausible
Ġgr oss
form ing
Ġdes cribed
pro ving
Ġag o
Ġen abl
ĠE ngl
ha ving
Ġpossess ions
Ġappl icability
ĠD ate
oun cing
ass umption
Ġimp elled
there to
Ġinv iol
Ġdiv isions
Ġref uted
Ġconcl udes
Ġind ul
Ġind ivid
Ġind emonstrable
ĠU ND
Ġconf ounded
Ġaff air
Ġdiscover s
Ġattain able
Ġsupp lying
Ġstand point
dis pute
Ġneed less
Ġgu ess
Ġgu ides
Ġgu ided
part icip
Ġaffect ion
Ġmis s
dist inct
gr at
Ġcirc ular
cor rupt
ignor ance
happ en
Ġvol unt
pres cribes
just ify
row d
Ġsur vey
Ġbl amed
Ġevil s
ĠJ anuary
imp ul
TH ING
Ġhypothetical ly
Ġsc arcely
Ġadopt ing
Ġhappen ing
Ġconver sion
Ġindis pensably
Ġlay ing
Ġsubtle ty
jud ge
Ġimpl anted
ru ption
Ġassign s
Ġborrow ing
Ġang le
Ġcr y
Ġfit ted
Ġfit ting
Ġreturn s
ĠCh arles
Ġbu ilt
Ġpersu aded
Ġwond ered
Ġappe ared
Ġconfess ion
defin ed
Ġdoctr inal
Ġhonest ly
ĠWh o
dedu ce
Ġabandon s
restrict ion
restrict ed
suffici ently
Ġchimer ical
Ġste pping
Ġdict ates
Ġresol ve
Ġmon th
Ġrecomm ended
Ġreve al
small est
Ġwarning s
vari ous
Ġimperfect ion
SI TION
Ġcred ential
Ġanthrop ology
Ġcompens ate
Ġmid dle
Ġgrow th
Ġshar p
circ um
ĠMathemat ics
Ġvac ant
Ġinvalid ity
Ġcalcul ated
inev itable
Ġlab orious
Ġdece itful
Ġarrog ant
Produ ced
Ġbran ches
Ġexagger ated
intr insic
Ġappell ation
ĠST ART
Ġsynonym ous
Em pirical
prud ence
fut ure
ĠBel ief
Ġenabl ing
ĠUND ER
' t
) (
- -
A ct
A VE
B L
F oundation
H app
H AT
I s
N AL
P lain
V EN
a gement
b our
b ra
b usiness
c oin
c ulate
g ue
h oly
i pt
l est
l ie
l icense
l ier
m ast
o ke
p at
p one
s ent
s cribe
t empt
u ating
Ġ ign
on ical
in ner
in capable
Ġo st
re ferred
is s
is y
Ġc ard
Ġc ustom
er al
Ġw oe
Ġs or
Ġs an
Ġp age
Ġth rown
Ġm oun
Ġf ed
Ġf lat
an qu
ed istrib
Ġe ll
Ġre vere
Ġd read
ar um
ar ched
Ġh it
im b
Ġnot e
Ġl of
Ġl ives
Ġl ively
Ġl imb
Ġwith drawn
ur istic
per ity
ul ating
ĠT erms
Ġal ge
Ġal ike
Ġha bits
Ġun law
Ġsp are
Ġsp oil
Ġlaw giver
of ten
Ġtr ad
Ġtr oub
ĠB UT
ori al
pr iv
Ġhe uristic
Ġexperience d
ĠF UL
ĠF UND
Ġqu it
ord ination
Ġcons ent
ĠA ct
pon der
for ce
ĠP G
Ġch aract
Ġy e
te aching
Ġar gu
ĠS ee
ĠĠĠĠĠĠĠĠĠĠĠĠĠĠĠĠ ĠĠĠĠĠĠĠĠĠĠĠĠĠĠĠĠĠĠĠĠĠĠĠ
Ġsub rept
Ġser ious
Ġser ving
op yright
ort s
Ġgr ate
ĠG os
Ġemploy ees
Ġdes irable
Ġpo ison
ĠH AVE
Ġact ed
Ġag reed
ĠR espect
ĠR edistrib
ĠE VEN
ĠD uty
ang les
Ġlike ly
Ġhand s
Ġrest ing
Ġproof read
Ġcomp el
ĠL IC
ra de
Ġ1 00
Ġconf irmed
In telligence
know led
EN SE
dis posed
Ġleg ally
Ġinvestig ating
Ġassert s
ĠTH AT
do ctr
Ġprev ents
ov al
Ġher o
TER NAL
mor ally
ail s
Ġlook s
ĠTHE OREM
ont ological
Ġes se
every one
disc ern
moral s
AN T
Ġpar allel
ĠEx cept
ĠUn less
Ġprof its
Ġexcl usion
Ġtrans fer
Ġins cr
Ġdesign s
Ġbl iss
ific ent
comm anded
igh bour
ĠV anilla
Ġ5 68
IN D
Ġear lier
Ġ4 0
Ġput s
Ġreach ing
content ment
Ġmaj esty
demonstr ative
Ġdef ault
light ened
crit ic
Ġadm ire
Ġplan ets
Ġrece ipt
Su pposing
Ġapparent ly
Ġmist ake
Ġdiscern ment
Ġrep ay
Ġperform ed
Ġreflect ing
Ġproportion ed
Ġanimal s
Ġexc used
Ġpros perity
Ġsuggest ed
Ġpersu ade
Ġcal m
Ġcal culate
ĠMor als
Ġcult ure
Ġhonest y
Ġsecret ly
Ġcommun icated
common est
Ġprot ect
Ġperiod ic
Ġpat tern
Ġsuff ic
Ġord ains
maintain ed
AM ENTAL
Ġfulfil ment
Ġarchitect onical
anthrop ology
Ġhyper text
Ġformat s
Ġdisclaim er
Ġdisclaim ers
Ġpropri etary
Ġmagn anim
Ġmagn ificent
Ġpra ised
Ġfoot ing
Ġsuscept ibility
Ġhypostat izing
cop yright
Ġvis it
Ġroyal ty
Ġroyal ties
CL UD
Ġselfish ness
Ġomnipot ence
Ġcour age
Ġsuit ably
cult iv
Ġparticip ation
ĠDIS TRIB
Ġdeliber ate
heter onomy
Ar chive
accur ate
ocr isy
effort s
Ġaston ishment
Ġbon i
Ġfil es
Ġprag matical
ĠAGRE E
specif ication
Ph ilos
Ġprohib ition
spr ing
slet ter
Ġissu e
Ġanxi ety
duc ive
ĠRoyal ty
Ġomnis cient
Happ iness
coin c
Ġost ensive
Ġfed eral
Ġrevere nce
Ġalge bra
Ġunlaw ful
ĠFUL L
ĠFUND AMENTAL
Ġcharact ers
ĠLIC ENSE
Ġinscr utable
Ġmagnanim ous
CLUD ING
ĠDISTRIB UT
2 0
C h
C TR
F IRST
R emark
c artes
d ash
i ological
m dash
n ic
v ity
y le
Ġ +
Ġt ant
re productive
Ġc ush
Ġs it
Ġs em
Ġs mell
al ter
al ong
es sel
es tr
Ġth read
Ġf ing
Ġf resh
Ġn aught
Ġe leg
st hetical
ar alogism
ut ious
Ġh iatus
Ġl and
ir te
Ġg eneal
qu id
em por
em barrass
us io
âĢĶ (
am ount
ies t
Ġpossib ilities
Ġr ap
ĠB etween
Ġv essel
Ġper taining
Ġno body
Ġim medi
ant ity
present ing
Ġst yle
ph aenomenon
Ġj uris
ĠFor m
Ġdis par
ĠP ref
ĠP aralogism
Ġpre m
ĠTh rough
Ġch apt
Ġsome one
ĠĠĠĠĠĠĠĠĠĠĠĠĠĠĠĠ ĠĠĠĠĠĠĠĠĠĠĠĠĠĠĠĠĠĠĠ
Ġph antom
ĠN ecessity
int ensive
int uit
ĠIn asmuch
ĠC oper
ĠC reator
Ġgr avity
Ġext inct
Ġhapp ily
Ġsensib ilis
Ġfact s
Ġexpl ore
Ġap per
ĠRe ality
ĠRe presentation
Ġcharacter izes
ĠM otion
Ġind estr
Ġdec re
Ġmet al
represent ing
Ġ1 6
Ġ1 7
ĠU pon
Ġill um
ĠCon sciousness
ER AL
Ġarr anging
Ġup wards
EN ERAL
crib ing
Ġconsequ entia
mon ition
Ġprogress ing
Ġinst ant
ĠBe fore
Ġ2 2
Ġoblig es
bl ance
Ġharmon izes
Ġintr insically
Ġintu ites
Ġdynamical ly
intellig ibility
ĠUn iverse
Ġsur r
oc al
comm ercium
place d
IN E
origin ates
Ġindis cern
conform ability
ĠAN TITHESIS
real itas
Ġreciproc ity
Ġequal s
mort al
ante cede
Ġback wards
Ġpriv ativum
Ġantecedent ia
uit ous
Ġpreser ved
Ġstud ies
ĠÃ¦ sthetical
ĠDe pendence
jun ct
conting ency
consequ entia
neg ation
Ġgl ass
Con cl
Ġoccur red
Ġoccur rence
concern ing
ĠĠĠĠĠĠĠĠĠĠĠĠ ĠĠ
ĠCh ange
Ġpros yllogism
Ġillustr ating
Ġsubstant ia
Ġanticip ations
ĠPhenomen al
equ al
Ġmeasure d
bod ies
ĠCON CEPTION
Ġisol ate
uct ible
Ġapprehend ed
Ġdim ension
progress ion
ĠNe g
Ex perience
col our
enlar gement
ĠOr igin
Ġmund o
ĠIntuition s
ĠAnt ithetic
conduct ed
ĠANAL OGY
intu ited
continu ation
ideal ism
ĠPart icular
formula e
Sp ace
Ġcompr ises
Ġdisse ct
Ġdisse ction
Gr anted
ĠRemark s
seem s
ĠDes cartes
Ġperpet ually
guard ed
Ġprepar ation
itiz en
anc endent
piric ist
smell ing
hens ions
ĠSen suous
Ġassertor ically
substant ia
ĠMonad ists
Al though
tou ch
Ġunansw erable
Ġunanim ously
ĠDO CTR
Ġtant amount
Ġcush ion
Ġsem blance
Ġfing ers
Ġeleg ance
irte en
Ġgeneal ogical
Ġrap id
Ġimmedi ata
ĠPref ace
Ġchapt ers
intuit us
ĠCoper nic
Ġindestr uctible
ĠCONCEPTION S
ĠDOCTR INE
. ;
1 0
1 1
3 9
4 5
5 5
5 7
A fter
C ont
F ourth
I X
V ery
W olf
a z
a ired
b re
c ence
c ending
d den
e as
f ici
h n
h ort
j oin
o pposed
p so
p ium
s id
t ered
u ated
u ck
Ġt ed
he t
Ġa ch
on om
in y
in formation
in struct
Ġo pposites
re ndered
re verse
it atis
en es
at ically
Ġc old
Ġc urs
er ion
er ke
Ġb ar
Ġb ro
Ġth row
Ġm ing
ce ase
Ġf am
Ġf reed
Ġf avoured
ed ient
Ġe po
Ġre mind
le y
le ading
Ġd ouble
ot es
as certain
ut um
the ory
im id
Ġl angu
id er
id ently
Ġsu its
Ġsu dden
ĠI X
ive red
hen sibility
Ġde ar
il ia
Ġal tered
act ly
Ġun question
Ġun connected
Ġun satisfactory
ill usory
aw are
de pr
Ġthere upon
ĠĠĠĠĠĠĠĠ ĠĠ
Ġsp heres
Ġcom ing
tr ace
est ic
ide ality
ĠThe ology
ĠThe oretical
od ality
Ġab ut
Ġsy llogistic
Ġhe ads
Ġcogn izes
ĠF ac
Ġqu ick
Ġst ream
wh y
now here
Ġapp end
for ces
Ġdis s
Ġpart ially
Ġch allen
Ġle ar
ĠS oul
ĠS econdly
imit ation
int ended
Ġne arest
ĠIn te
ĠIn finite
ĠC l
Ġob l
com es
pro hib
Ġdisc ret
ĠH ypothe
Ġsystem atically
stit ution
Ġeffect ive
Ġen ig
ĠE v
ĠE thics
Ġter t
Ġfact o
ang led
Ġshall ow
Ġimp enetrability
Ġcor rection
princi pium
Th irdly
Ġanaly st
Ġcharacter ized
Ġwhere fore
Ġrest ed
ĠL at
represent s
Ġres ides
Ġ1 8
Ġsuccess fully
Ġaim ed
sub stratum
nat urally
Ġworth lessness
Ġobser ves
Ġple a
Ġneed ful
Ġleg itim
Ġgu ilty
transcendental ly
synthe tic
Ġco er
Ġco herence
Ġdemonstr ates
Ġanswer ing
Ġcop ula
arr y
Ġcontin ual
Ġexcept ed
Ġappre ciation
Ġpost erity
ĠBe yond
Ġprov ides
Ġmis erable
Ġvari able
gr ant
ext ended
Ġi pso
haps od
Ġoper ate
Ġdistinct ive
Ġvol ume
Ġpret ence
inde finite
Ġlead en
Ġsupport s
des cending
Ġoccup ying
Ġabstract ing
rem oved
Ġsur pass
Ġsur veyed
Ġsur rept
Ġdesign ated
Ġrefer ring
quant itas
Ġsignific ations
distingu ishing
consider ing
Ġsepar ately
Ġspeak s
ĠK ey
Ġear lies
Ġcarr ies
Ġcarr ied
Ġcarr ying
Ġaccept ation
Ġposition s
Ġgain s
Ġgain ing
ĠSt ate
cre ated
origin ally
Ġindis p
Ġinter fere
Ġinter mediate
Ġinter vention
jud ged
Ġtransc ending
Ġcomprehend ing
Ġbor ne
expl ained
crit erion
conce aled
contin ually
Ġcontrib uting
Ġhum ble
nex us
Ġmist rust
attempt ed
gl ing
Ġpun ished
Ġpun ishments
indic ating
Ġprofess ion
Ġprofess es
Ġshort est
Ġcr own
Ġguard ing
super fluous
pass ages
ĠWh y
ĠDis c
Ġcontempl ates
Ġtre asure
Ġmeasure ment
Ġdesc ent
Ġdesc end
Ġdesc ription
Ġcommence d
vers a
Ġevid ences
Ġpremis s
mo ving
ĠMetaphys ics
concl usion
concl usions
ĠIN TRODUCTION
Ġapproxim ation
affirm ative
correct ly
sour ces
Ġencl ose
anticip ate
see k
Ġuniform ity
Ġinc ite
Ġsuperior ity
Ġirre concilable
Ġmid st
Ġchar m
furn ish
Ġentertain ed
dogmat ism
bound s
bound aries
Ġlur king
pract ised
Ġprejudic es
Ġvac uum
Ġsil ence
dev iate
invol ved
Ġoffer ing
ĠGer man
geometr y
geometr ical
Ġdefici ent
introdu ced
Ġperce iving
Ġ178 7
endeavour s
Ġid le
Ġfri ends
Ġastr onom
ĠSat irae
sch ol
Ġtheore m
confirm s
Ġspecul ations
observ ations
PEND IX
Ġbes ide
Ġmer its
Ġuninter rupted
Ġsoci ety
Ġstopp ed
Ġantiqu ity
Ġcoal ition
Ġfanci ed
Ġcomplaint s
Again st
fal se
mem bers
Ġincontest ably
Ġextravag ant
Fourth ly
Ġted ious
Ġach ieve
Ġcurs ory
Ġepo ch
Ġlegitim acy
Ġsurrept itious
Ġearlies t
A mong
E Book
E pic
F irst
F urther
L E
L anguage
R ational
T itle
a part
b ly
c ur
c osmical
d ent
e ase
f ict
f ailed
f ault
h um
h igh
h ip
i os
i our
l and
l ab
m other
o of
p ire
r ied
t es
t aking
u ation
u cid
v ive
v ain
v iour
w ishes
Ġ #
he it
Ġa dequ
in ference
in struction
in eness
Ġo pposing
Ġthe olog
it ably
en umer
at ch
at ible
Ġc ame
Ġc osmology
Ġw ont
Ġw arrant
Ġw ander
Ġs ag
Ġin contr
Ġin no
Ġin compre
Ġin justice
Ġin secure
Ġin strum
al ogy
or n
ct ing
an imal
an alogy
ed ifice
Ġn om
Ġn ought
Ġe arn
Ġre cognition
Ġre aches
Ġre semble
le ad
le ave
Ġbe ha
st ition
ent ions
as m
Ġh int
Ġpr ince
the ologia
im m
im pl
im age
im ony
Ġex hausted
Ġl at
Ġl iqu
Ġl ament
ĠĠĠĠ Ġ
Ġwe ar
Ġfor s
id ge
Ġsu ppos
ur bed
ver t
ver ty
res istance
ist urbed
Ġpro c
em bered
Ġobject ed
con ject
con ven
ch imer
ch oice
Ġint entions
Ġde posit
il iar
il iating
am ing
Ġun important
pl an
ab ilis
Ġsp ok
tr ack
tr icable
Ġlaw less
ous and
Ġem be
Ġso ar
Ġtr ave
Ġtr ium
ĠB ec
ĠB onum
Ġv ulg
Ġv icious
Ġv ocation
Ġno vel
ound s
all owed
Ġim posing
pir it
pr im
pr os
ad em
su pposes
ĠF OU
ome ter
Ġst umbling
ph old
ĠA xioms
Ġacc us
ac quire
ca st
un ion
un gl
Ġdis posed
Ġdis appoint
ĠP ART
et c
et ition
ĠTh ose
ment al
ĠS h
ĠS ummum
sol ve
sol ved
fin es
Ġthan k
ag ing
op inions
Ġcont est
Ġcont ents
ĠW is
ĠW hence
ort ed
ĠC ause
Ġend ed
ser vice
me ant
pro pri
pro jected
Ġpo verty
ĠH ist
we ight
Ġact uality
Ġag ents
Ġen joined
ĠE Book
ĠE lements
Ġout line
ear s
phys iology
uten ess
Ġimp ot
Ġimp utation
Ġcor ruption
Ġincl ined
experience d
Ġpower less
ĠM any
Ġref uses
Ġconcl usive
Ġind ulgence
Ġadv ice
Ġcomp ounded
Ġsum mon
ra ise
lear ned
ĠU T
ĠU nder
Ġsince re
Ġsupp lement
rel igion
ĠOn e
Ġdeg r
sub tle
nat ura
Ġocc asions
Ġdefin ing
dis cipline
Ġmod us
Ġmod ified
Ġmod esty
Ġac uteness
Ġneg ations
subject s
Ġmain tenance
Ġnon sense
Ġmem ory
AL ITY
arr og
arr ive
arr angement
Ġinqu ires
ail able
Ġden ote
Ġaffect ing
Ġaffect ions
ob edience
Ġexpect s
Ġhop ed
Ġaffirm s
Ġdraw s
connect s
ĠAn y
Ġsuper stition
Ġund isturbed
Ġbr ief
Ġyour selves
Ġfut ility
Ġce aseless
ĠEx t
intellig ent
pres ence
Ġexhib ition
Ġcomb ines
just ification
Ġsur render
Ġsur vive
ĠJ uly
imp ression
Ġascrib ing
Ġtest imony
pe ople
div isions
comp are
Ġaccept s
iber um
Ġdisp uting
conf usion
arch itect
Ġcre ate
Ġcre ations
Ġconver sation
Ġinter preted
Ġcol lective
Ġheter ogeneity
Ġart s
discover ing
Ġsophist ries
Re lease
manif est
Ġfail ing
den ial
Ġpract icability
Ġvent ured
look ed
Ġhum iliating
Ġdest ined
Ġnecessit ates
exp resses
por ated
Ġblind ly
Ġexc ites
Ġbold ly
Ġdev ote
Ġgenu ineness
concern s
Ġstrong er
Ġconfess ed
ĠEvery thing
Ġlist en
equ ality
inter mediate
fall s
Ġroot s
sing le
Ġcommun ication
restrict ing
Ġattr act
Ġreject ed
dec ided
Ġadmir able
Ġord ered
trans g
Ġdr iven
occup y
Ġcle arest
clear ly
mod es
appro ach
Ġcent re
arbitr arily
arbitr ium
Ġrepe at
Ġinstruct ed
grad ually
problematical ly
Ġerect ing
Ġsubmit s
Ġenumer ate
ĠPhys ico
AB LE
Ġviol ence
Ġconceal ed
ende avoured
Ġcompens ation
Ġflatter ing
furn ishes
Ġz eal
Ġwitness es
Ġconven ient
Ġaccompany ing
accident al
accident ally
Ġcoinc ides
mist ake
Ġtouch stone
Ġdetr iment
Ġdetr imental
ĠSome times
deser ving
previous ly
annihil ation
excl uding
Ġinex tricable
ĠAb b
inev itably
Ġawaken ed
defect ive
Ġstead ily
peculiar ity
Ġdark ness
Ġperce ives
support ed
Ġincor porated
transc end
prob ability
Ġescap ing
Ġescap ed
incre asing
Ġdisgu ise
Ġtaut ology
profess ing
estim ation
Ġrare ly
Ġappropri ated
mag nitude
Ġwarn s
Ġlow est
Ġreluct ant
demand s
Ġchem ical
Ġfacil itate
Ġrecommend ation
Sy nthetical
danger ous
writ ten
Ġimpract icable
ĠPers on
Ġremed y
Ġamid st
Ġunden iable
ĠArgum ents
signific ance
Mathemat ics
toward s
Ġrom ance
Ġtemper ament
Ġecon om
ĠOp inion
ĠEngl ish
Ġinviol able
Ġindul ge
Ġaffair s
Ġvolunt ary
circum st
ios ity
Ġincontr overt
Ġinno cent
Ġearn est
Ġbeha viour
Ġspok en
Ġembe ll
Ġtrave l
Ġtrium ph
Ġvulg ar
" .
! )
* ]
. :
5 68
6 22
7 5
7 9
A IM
B ILITY
D ENTAL
D ED
F ORE
G ENCE
H APTER
I ED
I VE
I RECT
L iterary
L icense
L IMITED
M or
M ost
M oreover
N ES
N ITI
R ight
R PO
S S
S to
S SI
W ARRAN
a ple
a cies
b anks
c al
c ustom
d est
d ignity
e g
e fficient
e lev
f a
f am
f ast
f irm
g en
g ust
g les
k al
m as
m ber
n ify
p us
p ared
p enetr
r or
r ought
s ure
s ipp
t x
u c
u ously
v erest
w is
w art
w arrant
z ip
Ġ $
Ġ '
Ġ 80
Ġt empt
Ġa ux
in o
in ent
in fer
re w
re conci
re cognized
it eness
Ġof fered
at on
Ġc and
er vice
Ġs ending
Ġp resses
Ġin accurate
ic ant
ic ial
ic ited
Ġb ow
Ġb inary
es the
Ġth wart
or ous
Ġm illion
ce mber
Ġf ant
Ġf und
Ġf aint
an n
ed itions
Ġn ames
Ġe cl
se ction
ou th
Ġre search
Ġre fined
le ology
om aton
Ġwh it
ot yp
ut or
Ġh our
ll ous
the w
iv ae
im ilar
Ġl ack
Ġl ikes
Ġl iking
ess or
ir us
th y
th reat
ur ance
sib ilities
Ġpro ject
em nify
ĠT RAN
Ġreason ers
ve llous
con stant
con nexion
hen tic
end i
Ġde p
Ġde ist
Ġde ceptive
ther wise
il ed
ple ases
Ġal kal
act s
Ġha st
ol unteers
ig ious
ig hed
Ġsp ent
Ġsp run
Ġcom fort
tr ies
of essor
Ġtr aining
Ġv irus
od es
Ġwill ed
Ġim mutable
Ġab ode
pr ot
Ġhe arer
ad apt
su ggest
Ġreg ulating
Ġus age
ĠF RO
ĠF IT
Ġsh alt
Ġrel igious
Ġse arched
Ġst ay
Ġst aff
Ġcons cience
wh om
ĠA d
ĠA utonomy
ĠA ug
ĠA esthe
ac ent
un attainable
Ġdis k
Ġdis cl
Ġdis pleasure
Ġdis interested
Ġdis gust
et ies
et ext
te leological
tern ational
sis sipp
Ġar gue
sp ecul
sp read
ĠS TR
ĠS pecial
ĠS ervice
ĠS outh
Ġmoral ists
Ġsub mission
Ġsub species
Ġsub ordination
Ġwho ever
ens ed
ĠN EG
ĠO THER
el ess
Ġne ighbour
Ġpl ans
Ġcaus a
ĠW est
ĠW HAT
reat ing
Ġmo ve
ĠC opyright
ĠC HAPTER
Ġgr own
The y
ĠG re
ĠG IVE
Ġfound s
Ġpos iting
Ġcomm erci
Ġcomm itted
Ġrem oval
we apons
less ed
Ġeffect ing
Ġen v
Ġen ounced
Ġthink able
ĠE IN
Ġout lines
ear ly
reason ing
Ġass ures
Ġass uring
Ġass urance
sen sual
ĠD r
Ġgreat ness
Ġfact a
Ġorigin ator
Ġbas ing
Ġent ers
Ġent ium
Ġent rust
Ġcor rupt
Ġinv ention
Th ou
Th ose
rib e
Ġinf lex
ĠRe place
ĠRe fund
Ġintellig ibility
Ġinterest ed
ĠM ay
ĠM ER
Ġind emnify
ra id
ra ising
Ġconsist ently
stru ctive
Ġres ist
und oubted
In formation
In stead
In ternational
Ġ[ *]
rel ated
EN TI
ignif icant
TI CE
Ġobser ver
Ġobser vers
red it
Ġple asing
Ġel imin
Ġresult ed
Ġbod ily
cont empt
Ġremark ably
Ġnew sletter
Ġeas ier
Ġread ing
Ġmethod ology
Ġdog mas
Ġcop ied
Ġover come
CH ANT
Ġpost pone
ov ember
Ġident ify
ob vious
Ġprov ision
Ġprov isions
Ġhop ing
Ġhop eless
Ġgener ality
Ġgener ations
Ġaid s
dif ferences
some times
Ġadd ress
sim ony
Ġjud icial
ĠY es
limit ations
Ġabs or
Ġlie u
Ġcorrect ive
Ġcontinu ance
ordin ate
Ġask s
Ġsupport ing
Ġtrans fers
ask a
Ġrecogn ises
Ġrecogn ised
leg al
Ġins ignificant
att ered
Ġorgan ism
Ġdel ight
Ġke pt
Ġappro ve
produ ct
Ġcircum ference
Ġdon ation
Ġdon ors
consider able
Ġfurn ishing
Ġtest ed
inv ent
Ġagree able
Ġagree ableness
ĠK IND
ĠRE AD
my st
po ise
Ġdisp utation
worth iness
Ġsc attered
conf irmed
ĠSt aple
Ġsimilar ly
cre t
Ġsecure s
Ġwise ly
Ġconce ives
Ġtransc ription
Ġtransc ribe
Ġmark et
demonstr ate
Ġanalog on
great ness
prov iding
Ġpriv ilege
Ġprocess ing
Ġweight y
ĠIm per
Ġ9 5
Ġ9 9
Ġindu ces
Ġdet ect
Ġvent ures
air banks
Ġturn s
Ġhum ility
velop ed
Ġelev ates
post ed
post ulate
Ġdiscern ing
Ġdest itute
ĠDe fect
ĠDe cember
Ġqual ification
accord ant
Ġ200 0
Ġ200 4
Ġintention ally
Ġcap ability
exp ressions
exp ressed
Ġgl ance
Ġgl orious
ĠPU NITI
ĠPU RPO
ED IES
ST ART
oper ations
Ġextr icate
Ġguard s
Ġproportion ate
Ġincre asing
bid den
Ġdev i
ĠDo es
legisl ating
signif ies
Ġ6 4
Ġprim acy
addition al
fortun ate
SE QU
PL EAS
PL IED
find s
Ġtax es
TR AC
dedu ctible
Ġattack ing
EM NITY
ĠNO TICE
fall acies
ĠCON SEQU
ĠCON TRAC
Ġ15 00
Ġprot otyp
import ance
Ġreject ing
doubt ful
attrib utes
attrib uted
PRE SS
direct ly
ĠREM EDIES
Ġhyp ocrisy
Ġcur ved
imper atives
ĠIN CLUDING
ĠMat thew
Ġcounter poise
Ġloc ations
pleasant ness
Ġcultiv ate
Ġtyp es
enlar ged
appro bation
Ġhonour able
anthrop omor
ĠEBOOK S
ili ary
Ġann ouncement
prom inently
Ġindefinite ly
Ġdam age
Ġdam aged
result ing
ĠHim self
ĠANY THING
Ġerect ed
vari ety
search able
agree ableness
ĠPhys ical
Ġanthrop omorphic
Ġviol ates
Ġaf raid
Ġchar ges
ĠEX PRESS
val ue
Ġshar ing
Ġdesp ise
CL AIM
ĠWARRAN TIES
Ġcomput ers
assum ing
Ġtouch ing
LI GENCE
want ing
Ġlic ensed
Ġsubstit uted
ĠNor th
Ġpaper work
Sp eculative
class ification
commun icated
invol ves
qual ities
Ġdissimilar ity
Ġawaken ing
Ġindubit ably
Ġperplex ity
Ġstead fast
Ġphilosoph ize
Ġembrace d
cult ure
Ġparticip ating
ĠDIS CLAIM
Ġdeliber ation
ĠDes pite
Ġru in
exhib ited
Ġnear ly
Ġfri end
merit orious
thorough ly
Ġcast s
Ġvit al
Ġdisgu ised
proportion ed
De fects
eBook s
ipp ed
sight ed
ĠMis sissipp
Ġcounsel s
Ġric hes
ĠSU CH
PRO JECT
yield ing
Ġaut hentic
Ġcens ure
Ġinsp ire
Ġrevel ation
ĠIND IRECT
Ġrig orous
Ġinfring ement
Ġdownlo ading
Ġbenefic ent
VI DED
ips es
Ġpet ty
ĠIM PLIED
Ġsor row
Ġell ipse
Ġlof ty
Ġtrad es
Ġtroub ling
Ġgrate fully
ĠGos pel
622 15
NES S
SSI BILITY
WARRAN TIES
tx t
Ġaux iliary
imilar ly
ĠTRAN SITION
Ġsprun g
ĠFRO M
ĠFIT NESS
ĠAug ust
ĠAesthe tic
ĠSTR ICT
ĠNEG LIGENCE
Ġcommerci al
ĠReplace ment
ĠMER CHANT
ENTI AL
ĠStaple ton
ĠPUNITI VE
ĠPURPO SE
ĠCONSEQU ENTIAL
ĠCONTRAC T
Ġprototyp e
anthropomor phism
ĠDISCLAIM ER
ĠMississipp i
ĠMERCHANT ABILITY
) ?
1 2
1 4
1 9
1 78
2 1
2 3
2 4
2 5
2 6
2 7
2 8
2 9
3 0
3 1
3 2
3 3
3 4
3 5
3 6
3 7
3 8
4 3
4 4
4 6
4 7
4 8
4 9
5 1
5 2
5 3
5 4
5 6
5 8
5 9
6 0
6 1
6 2
6 3
A rist
A pperception
B etween
C ategor
C osmological
D ifferent
D ITION
G EMENT
G ENERAL
H uman
L ocke
M P
M e
P ossib
P lato
R TH
S THE
T hing
Y ST
_ [
b us
b all
b ser
c ion
c overed
c osmology
c asus
d rop
e ometr
f lection
f igur
h op
i ary
l ose
l lect
l ix
l urality
m et
m unity
m oments
n ull
n icious
r d
r um
s ies
s ided
w ond
y pon
Ġ q
Ġ vel
in ated
in ability
in ternally
in heres
re hension
re comm
it ial
it udes
is ol
is yllogism
is covered
Ġc ath
Ġc asus
Ġc ub
Ġc itizen
Ġs adly
Ġp omp
Ġin conceivable
al leg
Ġb an
es ult
Ġth irteen
or ter
or ph
or igination
Ġm us
ce lebrated
Ġf ame
Ġf atum
Ġf rees
Ġn es
Ġre ly
Ġre ign
Ġre ap
Ġre cap
Ġre production
Ġre trace
Ġre rum
Ġcon veyed
Ġd ull
Ġd iction
Ġbe que
st ac
st ability
ent ities
ot ot
as c
ut most
Ġh ole
Ġas pir
iv isible
os sess
Ġex ceed
Ġex change
Ġex empl
Ġan terior
Ġl end
ject ive
id ity
cept ical
cept ible
ib les
ain drop
and al
if ling
ec um
per plex
Ġpro lix
ve il
con veyed
con verted
con junct
Ġint act
Ġint imid
end ations
Ġha ph
dition s
am pl
am orph
Ġun exception
Ġun changed
Ġun influenced
Ġun alter
Ġun guarded
ill ustr
ab ile
ab iding
Ġca el
Ġca utious
ol ens
min or
tr od
tr action
Ġem piricist
Ġr ose
Ġr iver
Ġr aindrop
Ġtr a
Ġtr ial
Ġtr iang
Ġtr ifling
ĠB erke
Ġper ish
Ġper tains
Ġper nicious
Ġim mortal
Ġab st
pr on
pos itio
su cceed
Ġreg ulated
Ġk new
Ġcogn iz
ĠF unction
ĠF AC
Ġsh ame
Ġsh ield
Ġsh orter
ex ec
ex ternally
ex actly
Ġqu ib
Ġst at
Ġst ory
Ġst ars
ĠA re
ult aneity
sequ ence
un its
un certain
un limited
un iting
un iform
un ciated
Ġad jective
Ġdis mis
Ġdis continu
ĠP lurality
Ġrepresent ative
Ġpre ference
Ġpre posited
Ġpre monition
str iking
sp aces
ĠS ing
ĠS ense
ĠS econd
ĠS enses
ĠS ciences
ĠS ceptical
Ġsub sid
ĠN ame
ĠN oumen
possib ilities
pre hensible
Ġpl ays
Ġmo ver
ĠC osmical
ĠC osmology
Ġcontr ari
Ġend ing
ast ically
me et
Ġcomm ences
Ġcomm ercium
âĢĿ .
âĢĿ ),
Ġdes ist
ici um
Ġrational ist
ĠH itherto
ĠH armony
Ġag ency
med iable
par alogism
par adox
exist ed
ĠE dition
ĠE lucid
ĠE DITION
Ġreal e
Ġreal itates
Ġter minis
Ġam ply
ogit o
phys iological
hemat ism
oun ted
Ġfact i
cogn izing
determin able
Ġimp ure
Ġconstit uent
Th ought
necess itate
Ġexpl ication
Ġhand les
Ġdem erit
ĠM atter
Ġrest less
Ġstr uck
Ġref rain
reg ulate
Ġind ivisible
Ġcomp ound
mediate ly
ĠL ogicians
Ġpredic ables
Ġpredic aments
Ġ1 1
Ġ1 4
Ġconf usions
Ġconf using
ĠCon junction
ĠCon tent
ĠCon ditions
In trodu
In trod
Ġregress ion
Ġregress ively
sub stitution
dis junctive
dis appears
mon ads
cont empor
Ġperman ently
Ġelement al
contradict orily
part ed
Ġnon entity
Ġco at
Ġco ins
Ġless er
Ġless ened
Ġideal izing
bit ably
Ġappre hensions
ĠSu b
ĠSu bst
Ġden ying
Ġden otes
ob stac
Ġpeculiar ities
Ġmis use
Ġ2 1
Ġ2 3
Ġgener ates
Ġaffirm ing
ĠAn alog
ont al
some what
ave olens
sim plicity
sim ultaneous
bl under
Ġund iscovered
Ġintellectual ized
cor rection
Ġthree fold
Ġendeavour ing
Ġce ased
Ġpret ext
Ġdynam ics
Ġsuccessive ly
ĠEx tent
ĠUn philosophical
Ġprof undity
Ġexcl usive
rem ove
rem ote
caus ed
respect ing
respect ive
ific ate
Ġrefer able
Ġorgan ic
Ġdel ine
Ġsignific ancy
ĠV ery
ĠJ UD
oriz ontal
icip ations
Ġsepar ating
constit uted
constit uent
Ġcare lessness
div isible
change ably
comp ound
possess ions
Ġoff ence
cogit able
Ġsc andal
CE DU
Ġgeometr icians
Ġoccasion ing
sens atio
predic aments
Ġed ifices
Ġprop ounded
Ġinter pretation
Ġexper imental
Ġcol lect
jud ges
jud ging
jud icium
Ġcoun tenance
imin ished
Ġclass ed
gu ides
expl anations
Ġart ifice
first ly
Ġconfin ing
Ġasc ends
Ġrec ent
Ġir respective
Ġvent uring
adequate ly
Su bst
say ing
Pr otot
regress ive
regress us
draw ing
ert ificate
ĠHere in
appre hend
Ġauthoriz ing
Ġbest owed
Ġestim ates
ĠLeibnitz ian
remain ed
ST AN
ĠPRO CEDU
Con ceptions
oper ative
oper ating
Ġincre ases
Ġtw ist
Ġsuggest s
Ġsuggest ions
Ġsubstant ive
deg rees
Ġvan ish
Ġvan ishes
ĠWh ole
analytical ly
Ġschol astically
aenomen a
pot ism
vers ed
mo on
ĠCom position
abstract ed
attrib uting
Ġimpart iality
Ġspect ata
Ġundert akes
ĠCategor y
concl usio
progress us
affirm ing
occup ies
reciproc ity
Ġloc ale
ĠPer ception
ĠPer haps
Ġhard ness
Ġteach ings
Ġaugment ative
Ġmon ads
Ġmon ogram
compar atively
Ġdecided ly
Ġerrone ously
ĠProble matical
ĠÃĨ STHE
Ġinhere nce
ĠTr ancendent
small er
ĠMe anwhile
grad uated
Ġconject ures
ĠSystem atic
material iter
Ġmov able
ĠExist ences
remark s
remark ing
apode ictical
Ġirre mediable
ĠDIALECTIC AL
UL TY
Ġannex es
Ġsovereign ty
Ġflow ing
insepar able
Ġelabor ating
Ġsolid ity
Ġaltern ation
Ġsil ver
ĠConcl usion
Ġspiritual ism
Per manence
SEC TION
SEC OND
commun io
comprehend ing
Ġcompr ised
ĠIntrodu ction
Gr ant
moment a
ĠQu antity
organ on
ĠGr ant
ĠGer many
spe ak
Ġdefici ency
Ġsust ain
contempl ated
Produ ce
ton ian
heter ogeneous
Ġru ined
exhib it
forth coming
Ġencour ages
design ate
Ġperpet ual
det ailed
ĠSat urn
ĠCogn ition
ĠCogn itions
Ġsimpl est
Ġprolong ing
ĠSe at
agon al
ĠDetermin e
maj or
Ġtaut ological
Ġarchetyp es
profess es
Ġimagin arium
Ca ius
Ca usality
Ġsmo ke
Ġsmo oth
Ġep isyllogism
plain ly
ĠCa uses
ĠCa usality
function s
Ġdi agonal
Ġlar ger
indu bitably
Ġconvict ions
Ideal ism
Ġmil itates
Ġlib itum
ĠSc hematism
obsc urity
embarrass ment
ĠParalogism s
Ġprem ise
Ġphantom s
Ġapper taining
Ġdecre ase
Ġillum inated
Ġsurr ounded
Ġindiscern ibles
consequentia e
Concl uding
Ġprosyllogism s
ĠNeg ation
ĠOrigin ally
Ġimmediata e
ĠCopernic us
Wolf ian
az ard
eas ily
fici ency
Ġbar bar
Ġbro ke
Ġlangu ages
Ġunquestion ably
ĠFac ulty
ĠInte llect
ĠCl ue
Ġdiscret um
ĠEv ents
Ġtert ium
Ġshallow ness
ĠLat in
Ġcoer cion
ĠDisc overy
Ġsilence d
Arist otle
Categor ies
Me anwhile
Possib ility
Thing s
YST EM
bus y
bser vation
eometr y
hop es
recomm endations
Ġcath artic
Ġcub ic
alleg ed
Ġrecap it
Ġdiction is
Ġbeque ath
Ġaspir ations
ossess ion
perplex ity
Ġprolix ity
conjunct io
Ġintimid ation
Ġhaph azard
Ġunexception able
Ġunalter able
Ġcael o
Ġraindrop s
Ġtriang les
ĠBerke ley
Ġcogniz ant
ĠFAC ULTY
Ġsubsid iary
ĠNoumen a
Ġcontrari wise
paradox ical
ĠElucid ation
ĠSubst ance
obstac les
ĠAnalog ies
ĠJUD GEMENT
Subst ances
Protot ypon
ĠPROCEDU RE
ĠÃĨSTHE TIC
ĠTrancendent ale
. ),
6 4
; [
C he
C om
C ertain
C rit
C ritical
D ialectic
E I
G HT
H ave
I m
L ogical
L ast
L ogic
L EMENT
N on
O r
P art
T wo
U S
U pon
V II
] .
a dequ
b i
b at
b ack
c her
c ible
c ob
d ur
d ile
d ata
d imin
d itio
e w
e in
e per
f aces
f illed
f ancy
f anci
g y
g over
h ic
h or
h ist
h old
h itherto
h armon
h omogeneity
i og
i ently
l come
m ics
m ark
m und
m ov
m etic
n ate
o qu
o ca
p ast
p utes
p sych
p iece
r al
r ont
r ash
r hapsod
s pl
t w
t able
t ology
t ask
t emper
u phold
v ict
v oc
v ocation
Ġ &
Ġ er
Ġ il
Ġt ib
Ġt ends
Ġa pt
Ġa equiv
in j
in ward
in ning
in comp
Ġo pt
Ġo mission
re ject
re ve
re du
re cisely
re sem
it al
it itious
is ter
at en
Ġc ou
Ġc rowd
Ġw arr
Ġw atch
Ġs i
Ġp al
Ġp ause
Ġp ush
Ġin an
Ġin form
Ġin correct
Ġin estim
Ġin habit
Ġin equality
Ġin nate
al es
al tern
ic an
Ġb are
Ġth ousand
Ġto u
Ġto ld
ct yp
ct ification
Ġf ight
Ġf light
Ġe ctyp
se cting
ou re
Ġre t
Ġre call
Ġre new
le ft
Ġcon ced
Ġcon vey
Ġcon ditio
Ġd umb
Ġbe fits
st art
st ates
st arry
Ġwh ol
ar ond
as p
as y
as cribed
Ġh ost
Ġpr ize
Ġpr ogram
Ġpr oud
the ning
Ġu m
iv ial
iv eness
im poses
Ġex hort
Ġl iable
Ġl ucid
Ġl iberum
Ġwe ari
Ġwe lcome
Ġfor t
Ġfor cing
ith metic
id ens
id ger
cept ation
Ġsu spect
Ġsu ited
ld arond
ur p
ur red
qu i
qu erable
ver sely
ere r
and o
and om
per ceived
per sist
per pet
per tains
Ġreason ably
con querable
con versely
ch asm
end our
end els
Ġde eper
us able
us iveness
act ivity
Ġun re
Ġun sh
Ġun just
Ġun real
Ġun necessarily
Ġun belief
Ġun qual
Ġun sett
Ġun usual
Ġun restricted
Ġun conquerable
pl anation
pl acing
de ceived
de part
ol ence
ol lection
ig our
um n
Ġsp ort
tr ied
of f
Ġem pire
Ġr ot
Ġr het
Ġexist ent
her self
Ġtr ivial
fore ign
use ment
use ful
Ġv a
Ġv ast
Ġv igour
Ġwill ingly
Ġim proved
Ġnat ura
ame ter
su pposed
su pposing
Ġus urp
ind ifference
ant agon
Ġsh ake
out set
Ġse a
Ġse yn
ph il
Ġev ade
wh olly
Ġj ug
ĠA S
ĠA ff
ĠA ldarond
Ġacc um
Ġacc used
ac ceptation
ult imate
Ġunderstanding s
ca re
un ite
un ted
un changeable
for ward
Ġad just
ĠP ER
ĠP ole
ĠP recisely
), [
so hn
Ġpre cl
et us
et ting
ĠTh ough
ĠTh irdly
Ġch amp
Ġsynthe ses
str ong
str ings
Ġsome where
Ġar dent
ĠS pirit
Ġsub du
Ġsub divided
Ġsub divisions
ens ity
ness es
oy ed
pre par
pre fer
pre determined
pre ciated
Ġcomple ting
Ġcertain ties
Ġcont ending
ĠW idger
Ġmo ves
ploy ment
ĠC OM
ĠC artes
Ġgr asp
The ological
Ġfollow ers
Ġob no
Ġdist rust
Ġcomm encing
ari us
Ġdes cribes
com pl
com men
pro ves
Ġrem embered
with drawn
Ġdisc ord
Ġrespect ive
Ġpur ified
Ġpo ly
ĠH as
ĠH ad
we b
Ġground ing
Ġag es
over step
Ġen unciation
ĠR eci
Ġpres ume
exist ences
ĠE qu
ĠE LEMENT
Ġexp edient
av ailable
Ġatt ends
phys ician
ident ity
ĠD E
ĠD est
Ġent ities
ass able
Ġimp elling
Ġimp enetrable
Ġimp aired
Ġimp assable
Ġpurpose ly
Ġanaly ses
Ġinterest ing
Ġconc ess
ĠM odality
ĠM endels
ingu ish
Ġstr ay
Ġstr iving
Ġref ute
Ġref using
empt y
Ġind olence
Ġadv ised
Ġcomp any
Ġcomp ulsion
Ġassum es
Ġsum m
Ġsum s
contr ib
Ġdec ay
ĠL est
Ġmet als
ev ents
Ġpredic ating
lu de
ra ft
Ġexpress ing
Ġres iding
ĠU pdated
Ġmight y
Ġconf er
Ġconf ident
Ġconf idently
und ant
In asmuch
ĠOn tological
acc ustomed
Ġclear ing
sub sum
Ġarr anges
dis similar
dis putes
Ġel oqu
Ġneed ing
Ġaccord ant
Ġfin ishing
err ors
cont act
Ġrelations hip
part e
Ġco in
Ġmethod ical
Ġsol ving
arr i
Ġideal istic
AP PENDIX
bit ious
Ġappre ciated
Ġbound less
ov erer
Ġinfluence d
ĠSu pposing
Ġpass ion
Ġpass ions
Ġconduct ing
ck s
Ġexpect ing
Ġmis applied
Ġmis inter
Ġmis sed
Ġmis leads
Ġmis leading
Ġconscious ly
Ġgener atio
Ġop ens
Ġunderstand s
ext ends
Ġaw akes
connect ing
Ġsuper ficial
dif fer
bl ind
bl ances
Ġi ii
requ iring
Ġund ecided
ia e
Ġbr utum
sensuous ly
Ġoper ative
Ġoper ates
right eous
happ ily
Ġanal ogical
ap se
br ain
Ġmed itation
Ġask ing
ĠEx ternal
ĠEx amples
pres cribed
Ġmeaning s
des ired
des cribe
des cent
bel ie
Ġthird ly
Ġfr ustr
appl ies
Ġsur m
ĠSp here
Ġdesign ates
Ġdesign ating
Ġbl ow
respect s
quant a
Ġdel usions
Ġdel ivered
ĠAr chitect
Ġra ises
incl ined
incl udes
imp enetrable
Ġarbitr ium
Ġcircum s
Ġro ads
consist ing
Ġsepar ates
mathemat ician
univers ally
Ġagree ably
metaphys icians
Ġaccept ance
iter ated
cogit ating
Ġscept ic
urs ively
think er
think ers
Ġgen ius
conf utation
Ġdogmat ists
Ġcre ative
Ġoccasion ally
ip ate
analy sed
Ġconver ted
Ġconver ting
predic ated
origin ated
origin ator
satisf y
Ġinter ference
Ġinter ior
Ġexper iments
speci fic
Ġhigh way
real ized
IC AL
Ġmechan ically
Ġlos es
Ġcomprehend ed
discover s
Ġrec ord
Ġrec ollection
Ġsucceed s
ĠIm mortality
obser ve
Ġpract ised
Ġpract icable
Ġobsc ured
Ġdet ection
contin ual
Ġfirm ness
Ġpreser vation
inf luences
Ġmist aking
Ġstud ent
Ġbene fits
Ġdest iny
Ġeng raft
attempt ing
Ġrep ul
Ġrep utation
gl orious
Ġ200 3
neg ations
Ġauthoriz es
Ġcap ital
Ġstreng thening
Ġreflect ed
Ġspirit uality
ĠEm piricism
ĠEm ployment
Ġhabit ation
oper ate
Ġextr act
Ġblind ness
human ity
imag in
imag ine
Ġexc use
Ġexc usable
depend ing
Ġbeh alf
Ġillustr ations
Ġpermit s
pret ext
addition s
Ġappe als
alt ered
equ ally
Ġcontempl ate
Ġattack ed
Ġconfused ly
Ġtransg resses
show ing
Ġsecret s
require ment
concept us
Ġimit ate
Ġimit ating
Ġabandon ed
Ġcha os
Ġhind ers
sing ular
Ġinj uring
Ġinj ury
Ġevid encing
Ġstart ed
Ġreject ion
Ġalter ing
ĠCom p
Ġblame less
Ġimpart ed
anteced ently
Ġsuff ers
Ġspect acle
ĠCategor ical
Ġlegitimate ly
Ġsym bol
Ġmeant ime
Ġambig u
affirm ations
maintain s
Ġdr ives
correct ness
Ex amples
person al
Ġprefer able
Ġprefer red
Ġresol ves
Ġcolour ing
Ġfulfil s
Ġdepr ives
Ġjoin ing
col lect
mod i
enlar ges
enlar ging
Ġalleg ing
ĠTr anscendent
Qu od
Ġcent ury
sec urity
gener ations
Ġann ounces
Ġver bal
Ġinstruct s
construct ed
ĠProof s
Ġinc it
Ġinc umb
coun try
Ġwid er
Ġfoot steps
Ġerect s
sophist ries
Ġreconci le
Ġamount s
Ġstrug gling
Ġflatter s
Ġantinom ial
Ġdenom ination
exper iment
Ġmodern s
Ġelabor ate
Ġrun s
throw ing
Ġcour tes
Ġexempt ion
deser ve
ston es
Ġlic ence
exposition s
Ġsubstit uting
Ġprime val
Ġhes itation
class es
pursu it
comprehend ed
inst ances
Ġinex haust
Ġtrust worthy
Ġheight s
Ġve hic
Ġdenomin ated
declar ations
introdu ction
Ġsust ained
Ġembarrass ments
Ġinsist ed
Ġincor poreal
transc ends
exc ite
Ġbran ch
det ect
ĠAgain st
sch ool
Ġtheore ms
del usion
ĠDetermin ing
confirm ation
Ġratiocin ant
Ġarchetyp al
Ġpol ice
Ġpubl ish
Ġpubl ished
Ġmass es
ĠCan on
Ġvalu es
Ġvalu ed
prevent ing
bring ing
Ġeduc ation
recogn izes
Ġric her
Ġvision ary
ĠSU B
precept s
Ġrespon sibility
42 80
Ġpot ential
Ġdi ameter
Ġdrop s
iver ance
Ġlar gest
authoriz ed
Ġincap ac
Ġincap acity
sett lement
Ġrever ses
Ġforget ting
Ġadvers ary
Ġartic ulation
Ġpresum ed
Ġpresum pt
Ġconfound ing
Ġfals ity
requis ite
Ġsignal ize
exerc ising
divers ity
sk etch
streng th
abandon ing
Ġappet ite
ĠPost ulates
impul ses
Ġsharp en
instruct ed
enes is
Ġming les
Ġsudden ly
Ġdiss ipate
Ġobl iterated
ĠHypothe sis
Ġenig ma
grant ing
Ġindisp utable
Ġtreasure s
Ġastronom ers
schol astic
Ġsurreptitious ly
Epic urean
fict itious
Ġtheolog ians
Ġwander ing
Ġsag acity
Ġincompre hensibility
Ġinstrum ent
Ġlat ent
Ġwear iness
Ġsuppos ititious
conven ience
ĠBec ause
Ġaccus ation
ĠHist ory
arrog ant
architect onic
circumst ances
Ġembell ishments
Crit icism
Part icular
cob web
gover n
harmon ize
mund us
mov able
psych ologia
spl endour
tw ofold
vict ory
Ġil legitimate
Ġtib i
Ġaequiv oca
Ġopt ical
resem blances
Ġcrowd ed
Ġinan imate
Ġinestim able
Ġinhabit ants
Ġectyp al
Ġwhol es
Ġhost ile
Ġweari ed
persist ed
perpet ually
Ġunsh aken
Ġunqual ified
Ġunsett led
ĠAldarond o
ĠPole mics
Ġsubdu ed
ĠCartes ian
Ġobno xious
commen cing
ĠReci proc
ĠELEMENT S
ĠMendels sohn
Ġeloqu ent
Ġmisinter pretation
ĠArchitect onic
Ġincumb ent
Ġcourtes y
Ġinexhaust ible
" ),
( $
) -
* (
. ]
0 2
0 4
2 80
6 5
6 6
6 7
6 9
7 0
7 2
7 3
7 4
7 6
7 7
8 1
8 7
9 6
A F
A Y
A IN
B C
C reating
D IC
D AMAG
E nd
F UND
H is
H IL
I TH
J u
L L
L ove
L AF
M AL
M ENT
M ichael
N O
N ER
O S
O RO
O SE
P le
R S
R even
R APH
U AL
U nt
U SI
U pdated
V olunteers
W NER
Y es
a ut
a ud
a str
a ugment
b es
b ook
b esides
b new
b ungl
c s
c over
c ivil
c rowd
d am
d oll
e gr
e br
e veloped
f an
f ence
f ull
f ix
f ru
g n
g one
g ained
g gle
h i
h ind
h art
h yp
h oliness
h oof
j acent
k ingdom
l ink
l aid
l io
l oc
l iability
m n
m er
m al
m ill
m our
m acy
n ight
o h
o ber
p ort
p ob
r os
r ary
r ible
r ances
r ium
s in
s ound
s ought
s ake
s ciences
t re
t act
t lest
u seless
u pright
v ous
v ered
w ished
w elf
w ater
w rong
w ants
y ers
z er
z ism
Ġ QU
Ġ *****
Ġt or
Ġt ur
Ġt rem
Ġt ears
Ġt utor
he art
Ġa the
Ġa ver
Ġa we
Ġa version
on es
on ent
in a
in ery
in conceivable
Ġthe e
Ġthe ist
re ach
re lu
re ceived
re ption
re fer
re pe
re cognize
re pute
it ating
is i
is se
en n
en cour
en force
at s
at ical
at ure
Ġc un
Ġc osm
Ġc ount
Ġc odes
er m
er v
er on
er ce
er ation
er ate
er ring
er ving
Ġw al
Ġw ent
Ġw ound
Ġw ret
Ġw ild
Ġw rest
Ġw rought
Ġs end
Ġs ink
Ġs ap
Ġs ites
Ġp u
Ġp us
Ġp ill
Ġin sen
Ġin ane
Ġin expl
Ġin compar
Ġin structive
al ar
Ġb lessed
es ca
Ġth ine
Ġth resh
or ably
or ned
Ġm ir
Ġm ill
ct antly
ct ober
Ġf ain
Ġf if
Ġf ra
Ġf ier
an alytic
Ġn ations
Ġn et
Ġn isi
Ġe ul
Ġe ff
Ġe lect
se ver
se verest
se cret
ou p
Ġre fin
Ġre ward
le ge
Ġcon e
Ġcon qu
Ġcon dem
Ġcon ducive
Ġd il
Ġd ress
Ġd ie
Ġd ates
Ġd ial
Ġd uc
Ġd rew
Ġbe ad
st atus
om as
om ain
om pl
om aly
om ni
om nit
ar ing
ar ol
ar ities
as ur
as ibility
ut ers
ut che
ect ions
ect yp
Ġh ide
Ġh over
Ġpr ae
ll ing
ll ed
the ore
iv al
im pose
im prov
im mortality
im material
os oph
Ġex cess
Ġan xious
Ġan omaly
Ġnot ic
Ġnot ifies
Ġl ust
Ġl oth
Ġl au
Ġl ux
Ġwe ighed
Ġfor be
Ġfor fe
ith ful
id night
Ġsu pre
Ġsu nt
ib ib
ib rium
ter onomy
ir re
ir ation
ir gin
ure ans
Ġg out
Ġg old
Ġg aps
Ġg bnew
Ġg erm
Ġwith stand
ĠI RS
ci ate
og ue
res ides
ist ence
Ġor ator
Ġor bits
Ġcan st
and i
ec utive
ec undity
sel s
per form
per mit
per mission
per suasion
per forming
sib ly
Ġall ot
Ġall ure
Ġall ied
rom ise
em y
em in
ul zer
ate ful
con sol
con dem
con ducive
con fines
ch ie
ch arge
ch arities
Ġint imate
Ġint egr
ore d
Ġde ter
Ġde fe
Ġde arest
Ġde let
il ation
il anthrop
il ibrium
Ġal arm
Ġal lege
dition al
am ination
am ps
Ġun w
Ġun tr
Ġun sol
Ġun satisfied
Ġun bidden
Ġun fortunate
Ġun yielding
Ġun link
Ġun erring
ill ain
pl ies
pl ays
pl aces
pl iance
pl ausible
ab ol
ab ilities
ab yss
self ish
de tr
de istic
de fence
ans as
Ġca ution
ol ved
Ġ( "
Ġ( *
ig ence
ies tle
Ġsp ur
Ġsp her
Ġcom ets
tr anqu
of fer
est ing
Ġr ich
Ġr ude
Ġr aces
Ġexist ential
Ġme l
Ġme lt
Ġwor se
Ġtr ies
Ġtr aces
Ġtr anqu
fore seen
ction s
ori ally
Ġper vert
ak ed
Ġform arum
Ġno bl
Ġim pre
Ġim material
Ġab sol
pr ag
Ġnat ive
pos its
su ppos
su itable
Ġreg ions
Ġreg ret
ind ulgence
Ġk at
Ġcogn ise
Ġcogn isable
Ġcogn itio
ĠF ull
ĠF airbanks
ĠF ebr
Ġsh ine
Ġsh aken
Ġsh ared
out side
ex to
ex ert
ex cell
ex hausted
ex terior
Ġrel iable
ud o
Ġst one
Ġst ored
ph rase
Ġide ally
ance d
Ġj esting
ĠA K
ĠA CT
Ġman hood
Ġacc ru
Ġacc redit
our ce
ac id
ac knowled
position s
un necessary
un ities
un certainty
un til
un ceasing
un true
un searchable
Ġad jacent
Ġdis advantage
Ġdis posing
Ġdis appro
Ġdis continue
Ġdis appeared
Ġdis pleases
Ġdis repute
ĠP AR
ĠP ublic
ĠP lease
ĠP HIL
Ġpre fers
Ġpre caution
Ġpre ponder
et ched
Ġknow able
ĠTh omas
ener ation
ener ally
Ġy aw
Ġy oke
Ġevery day
Ġar ouse
Ġar mour
ĠS END
ĠS alt
ĠS imilarly
ĠS MAL
Ġph ilanthrop
ens ome
ĠN ihil
ĠN early
ĠN ovember
ĠO therwise
ĠO WNER
ĠO ctober
oy ing
imit able
pre ponder
pre pared
condition al
ĠIn cl
Ġpl un
be hoof
ĠW ould
ĠW ell
ĠW OR
ĠW IL
ĠW ITH
gor y
ort ing
ort unities
Ġwhen ever
ĠC ity
ĠC AN
ĠC ORO
ĠC arol
Ġgr oup
The oretical
Ġend uring
ĠG over
ĠG enerally
old est
Ġconnect ions
Ġfound ing
ser ved
Ġob sole
Ġow e
Ġow ed
me asur
Ġcomm end
Ġcomm erce
Ġemploy ee
pro posed
Ġwas hed
Ġrem ember
Ġext ol
Ġext ingu
Ġrational ism
Ġpo or
we ak
we aken
Ġact or
Ġact uating
under taking
Ġval uel
over look
over throw
med ium
Ġen lightened
Ġen emy
ĠR IG
wo ven
Ġpres iding
ĠE s
ĠE mail
ĠE BC
Ġout we
Ġout dated
Ġexp end
Ġexp orting
Ġter rible
Ġperfect ions
man kind
av a
av en
ident ical
ĠD irect
ĠD ON
ĠD OM
ĠD omain
Ġent rance
ass ion
ass ent
ass istance
Ġimp lying
Ġimp air
Ġcor por
Ġwork ing
ark s
ful fil
Ġhere in
can on
Ġinf used
Ġinf ancy
Ġkind ness
Ġhand le
Ġappear ing
Ġconc ur
ĠM ore
ĠM AY
Ġdiv ides
Ġstr ive
Ġstr ain
Ġref used
Ġdedu ctible
ys ms
Ġcontradict ing
Ġtruth fulness
reg ulated
othe ology
Ġcomp elling
Ġcomp etition
Ġcomp romise
Ġcomp ilation
contr ast
Ġdec ried
ĠL I
ra ised
Ġexpress ly
stru ggle
ĠU S
ĠCon cept
ĠCon trib
ĠCon tact
und ecided
Ġdiscover ies
Ġsupp ressed
Ġphys ician
Ġphys ica
acc ompl
Ġdeg rade
Ġcl oud
Ġcl ock
know ing
sub scribe
sub ordinate
Ġdefin iteness
Ġright eous
dis k
dis play
dis interested
Ġsole mn
TI VE
red istrib
Ġexer ted
Ġconting encies
Ġimper illed
Ġac knowled
Ġwant ed
Ġfin anci
cont end
transcendental ism
Ġperson ified
Ġremark ing
Ġassert orial
Ġassert orially
contradict s
Ġmean est
ĠTH OSE
mis conception
mis apprehension
Ġnon propri
Ġco ar
Ġco ol
Ġdemonstr able
aim ed
Ġdog ma
go als
arr ay
arr ied
arr ived
Ġless on
Ġequ ipped
Ġequ ilibrium
Ġover coming
Ġcommand ing
men se
ĠPr imal
ĠPr iestle
Ġident ification
Ġhar sh
Ġmis ology
Ġmis representation
Ġmis fortune
Ġmis chief
Ġmis erably
Ġoblig atory
Ġargument ative
gr ace
ext reme
Ġaw a
Ġmaintain er
Ġprom ising
Ġprom inent
Ġspe ech
ĠBeing s
Ġadd resses
Ġlegisl ator
Ġcirc uit
requ est
ne arer
Ġund one
Ġund eveloped
Ġbr utes
Ġbr idge
categor ically
yn ics
cor poreal
Ġclaim ing
Ġdistinct ly
Ġdistinct ness
Ġfut ile
happ ened
Ġcorrect ing
no ble
no isse
Ġte leology
Ġinvol unt
fer ing
proc ure
exam ine
exam ined
exam ining
Ġpar simony
Ġpar abol
Ġdistrib utive
ĠEx ecutive
ĠEx amination
sh ort
sh ip
Ġmeaning less
just ifies
Ġexcl uding
Ġtrans lated
AR Y
ask ed
Ġvain ly
leg ality
rem o
Ġfr ank
Ġfr ames
caus al
fe es
Ġpain s
Ġpain ful
ft p
thought s
Ġdesign ed
att ached
oc ate
Ġdel ivers
Ġdel icate
Ġappro ved
Ġappro val
Ġappro bation
Ġdecl ined
Ġlet ters
Ġ5 5
Ġ5 96
IN T
ĠK ings
ĠK NO
Ġche er
Ġche mist
then ed
Ġ* (
comp ressed
Ġge ometer
ĠRE PL
ĠRE FUND
po seless
Ġfa ulty
worth less
Ġ4 000
Ġ4 280
Ġsc ale
Ġsure ly
conf ounded
Ġdogmat a
ins ip
Ġwis er
Ġwis est
Ġfavour ite
Ġgeometr ician
ven al
Ġoccasion ed
Ġed iting
Ġens ure
Ġens ures
Ġens uring
origin arium
Ġprop ension
Ġinter rog
Ġinter woven
Ġinter fering
ĠAN D
real issimum
matter s
Ġcoun tries
demonstr ations
demonstr atively
Ġredu cing
Ġcanon s
Ġaccident ally
investig ating
Ġdivers ities
ru in
ian a
Ġaccess ed
Ġaccess ible
adv ances
Ġprud ential
Ġenlar ges
Ġenlar ging
Ġdefect s
Ġ9 2
attain ing
Ġsk etched
Ġdet ails
Ġwrit er
Ġhum our
Ġpreser ves
Pr ofessor
Ġbene f
Ġrep ress
Ġrep orts
Ġrep orted
ND ATION
Ġsent imental
Ġqual ified
ĠPh alar
aff inity
Ġlower ing
neg lect
Ġreckon s
maxim um
Ġprofess ions
Ġgl ory
ĠPU BL
remain ing
ĠPRO BL
infinite ly
Ġguard ed
Ġguard ian
JEC TIVE
cond itio
Ġoccur ring
imag ined
Ġexc ited
super ior
Ġsearch ing
Be yond
Ġdev iate
Ġ7 0
Ġ7 5
Ġren amed
Ġren ounces
Ġren ounced
ĠCh ief
Ġstrong ly
Ġstrong est
Ġbeh old
Ġsuggest ion
Ġ6 5
Ġderiv able
diffic ult
Ġenjoy ing
ĠDI RECT
vol unteers
second ly
ĠEpic ureans
oblig atory
defin e
ĠEvery one
inqu ire
unte er
TR AD
Ġadapt ation
supp lied
begin s
EM ARK
Ġschol ar
Ġschol ars
labour s
Ġfortun ate
Ġaddu cing
Ġgover nor
Ġroot ed
Ġmoder ately
pot ence
Ġprep ares
Ġcommun ic
mo ck
Ġattr actions
Ġobe ys
Ġreject s
ĠCom pliance
advantage ous
ACE MENT
ĠPR INT
Ġaccompl ishes
direct s
direct ing
direct ed
Ġsett lement
Ġsym path
Ġsym pat
Ġhead er
Ġomni present
Ġomni presence
ox ysms
Ġcur iosity
ĠIN TERNAL
Ġdeep est
ĠMat erial
cul ation
Ġdict ation
Ġdict ated
Ex istence
Ġcle ared
Ġstop s
ĠPer fect
ĠPer mitted
author s
person s
person ality
Ġtell s
Ġtyp ic
Ġresol utions
construction s
col lection
col lected
Ġlink ed
80 1
Ġtend er
Ġtend encies
anthrop omorphic
Ġenounce ment
Ġhyper bol
Ġreplace d
ili ates
Ġpleasant ness
inc erity
Ġreve aled
Ġann oying
prom ise
prom ote
Ġver sion
Ġver ify
Ġnull ity
construct s
need ing
Ġobstin acy
AG RAPH
result s
Ġration e
ĠAl aska
distrib ute
distrib ution
affect ing
Ġthreat ened
Ġfoot path
Ġhundred s
individual s
agree able
ĠPhilos ophical
ĠPhys ics
Ġwa x
Ġwa it
Ġprincip ally
Ġviol ate
indis pensably
Ġyouth ful
Ġconceal ment
Ġhypostat ize
Ġhypostat ized
Ġbreak s
cop y
cop ying
Ġthy self
Ġur ges
Ġpropens ions
Ġ50 1
INCI DENTAL
pathological ly
Ġprospect s
UL AR
opp ortunity
opp onent
prof itable
Ġstrug gles
Ġchar itable
ĠEX CEP
ĠEX TERNAL
Ġdesp ising
ĠNew by
CL USI
Ġ8 5
Ġ8 41
Ġascertain ing
Ġaltern ate
Ġaltern atively
Ġmach ines
Ġmach inery
Ġincomp atible
Ġexcell ence
Ġdetr act
LI ABILITY
LI ABLE
lo ving
Ġlic et
Ġsubstit ute
Ġ19 71
disposition s
Ġcalcul ation
Per suasion
don ation
Ġsolic itation
Ġinstinct s
command s
Ġsalt s
dev ised
pursu ed
convin cing
Ġridic ule
Ġbetray ed
treat ment
inst ance
Ġinex orably
ĠAb out
Ġmyst icism
Ġve x
Ġve iled
Ġbind s
cil ity
Ġdece it
Ġperplex ing
Ġcompass ion
Ġsuffer ing
definite ly
Ġtalk ed
reckon ing
Ġrestr ained
exc ited
Ġgrat ification
prob able
Ġencour age
Ġsurpr ise
ĠMethod ology
Ġthreaten ing
incre ase
anci ents
adm ixture
adm iration
Ġchief ly
Ġcritic ize
Ġfatal ist
De ity
hon oured
hon esty
Ġaston ishing
Ġbon us
Ġprag matic
Ġhealth y
ĠAGRE EMENT
ĠMis sion
specif ically
Ġpunct ual
Ġpunct ually
Ġstrengthen s
itiz ens
Ġprolong ed
piric ists
maj esty
ĠSubject ive
50 1
test ing
Ġsl ip
Ġpol es
Ġparent s
Ġmar vellous
equiv alent
OP H
Ġeduc ational
recogn ise
Ġsw amp
Ġpress ure
Ġconsult ing
ĠWolf ian
Ġrespon sible
Ġparadox ical
Ġchem ists
Ġfacil ity
Ġtransgress ing
PRO VIDED
creat ure
creat ures
Ġaut omaton
enjoy ment
Ġinsp ires
Ġtol erable
Ġtol erate
Ġmal i
Ġmal um
Ġredistrib ute
Ġredistrib uting
ĠIND EMNITY
ĠBE FORE
sym pathy
sym bol
attack s
Ġdownlo ad
Ġbenefic ence
Ġwaver ing
18 87
Ġsedu ced
Ġlib rary
Ġshadow s
ĠCertain ly
obsc ure
bene ficial
divers ities
fl own
fr amed
parent s
ration e
sk ill
rep utation
Ġsoft ware
Ġflu id
Ġelucid ate
streng thened
Ġunconscious ly
abandon ed
ĠPO SSIBILITY
ĠPost ulate
Ġindivid uum
impul se
ĠWho ever
mast er
mast ery
sent iments
tempt ation
tempt ations
Ġign ore
Ġcard inal
Ġsan ctions
Ġmoun tain
Ġmoun tains
Ġflat ten
Ġlimb s
priv ate
priv ilege
ĠPG LAF
Ġye a
Ġargu ing
Ġsubrept ions
Ġsubrept io
Ġpoison s
ĠRedistrib ution
ĠRedistrib uting
doctr ines
doctr inal
Ġhero es
Ġ568 2
Ġ568 3
Ġadmire rs
Ġsuffic es
cultiv ated
Philos ophical
ĠDISTRIBUT E
ĠDISTRIBUT OR
hum iliates
lab orious
mother ly
Ġadequ acy
enumer ate
animal s
Ġnom inally
Ġliqu et
Ġfors akes
conject ured
Ġnovel ty
prim ary
adem ical
ĠFOU NDATION
Ġdisappoint ment
service able
Ġimpot ence
Ġdegr aded
transg ression
Ġzeal ous
ĠAbb ott
Ġeconom ical
Ġincontrovert ibly
568 3
Mor ality
Sto ics
cal culation
dest ination
elev ated
fa cility
fam iliar
penetr ating
wis dom
warrant ies
ino zism
reconci led
Ġcand our
Ġthwart ing
Ġfant astic
Ġecl ipses
threat ens
constant ly
Ġdep ict
Ġalkal i
Ġhast ily
adapt ed
ĠAd ditional
specul ations
ĠGre gory
Ġenv y
sensual izing
Ġentrust ed
Ġinflex ible
undoubted ly
myst icism
ĠImper atives
Ġdevi ations
PLEAS E
Ġsteadfast ness
Ġauthentic ated
Ġtrades man
62215 41
DAMAG E
Ju venal
LL ARY
OS OPH
Ple asure
Reven ue
Unt il
cover ably
civil ized
doll ars
fan aticism
fru itful
hind rances
pob ox
sound ness
welf are
Ġtor ment
Ġathe istic
Ġaver age
relu ctantly
repe ated
encour agement
enforce ability
Ġcun ning
Ġwal ks
Ġwret ched
Ġpus hed
Ġinsen sibly
Ġinexpl icable
esca pe
Ġthresh old
Ġnet work
Ġeul og
Ġrefin ement
Ġdil igence
Ġdial etic
Ġduc at
omni potence
omnit udo
utche son
ectyp a
theore m
improv ement
Ġlau gh
Ġlux ury
Ġforbe ar
Ġsupre macy
ibib lio
irgin ia
Ġgbnew by
condem n
chie vous
Ġintegr ity
Ġdelet ions
Ġunsol icited
detr imental
Ġmelt s
Ġnobl est
Ġimpre gn
prag matic
suppos itio
ĠFebr uary
excell ent
ĠACT UAL
ĠPAR AGRAPH
ĠPHIL OSOPH
Ġarmour y
ĠSMAL L
Ġphilanthrop ist
ĠWOR K
ĠWIL L
ĠCORO LLARY
ĠCarol ina
ĠGover nor
Ġobsole te
Ġvaluel ess
ĠRIG HT
ĠEBC DIC
ĠDirect or
ĠDOM AIN
Ġcorpor ation
ĠContrib utions
Ġfinanci al
Ġnonpropri etary
ĠPriestle y
noisse urs
Ġinvolunt arily
Ġparabol a
Ġfrank ness
ĠKings mill
ĠKNO W
ĠREPL ACEMENT
insip id
ĠPhalar is
ĠPUBL IC
ĠPROBL EM
TRAD EMARK
Ġhyperbol ic
ĠEXCEP T
CLUSI ON
Ġ841 16
( Â§
) [
) âĢĿ;
. ).
. )âĢĶ
8 3
8 4
: _
; âĢĿ
? _
A H
A b
A re
A pp
A pr
A str
A part
A nt
A xioms
B od
C an
C ogn
C reator
C ogito
D es
D eduction
D ING
E ither
E AL
E lements
F UT
F OU
F ailing
G ign
G eometry
H IB
I P
I ll
I CE
I OM
I ndeed
I ENCE
J udgement
K Ã
L aw
L LI
M y
M od
M uch
M OR
M ARK
M odality
N un
N IC
N umer
N UM
N IG
N ew
O v
O ther
O bservation
P henomen
P ers
P ER
P rop
P lat
P ACE
P PENDIX
P ossession
R esult
R ICE
S ach
S olution
S BERG
S econd
S ocr
S hort
S YSTEM
T U
T e
T ot
T hen
T ENCE
T ALITY
T ecum
W here
X IOM
Y et
Z en
_ )
_ ),
a i
a um
a est
a fe
a ert
b u
b ow
b tr
b ations
b ial
b ted
b vious
b ank
b oast
b irth
c it
c le
c ation
c od
c art
c ro
c osm
c ula
c ury
c itizen
c arry
c ertificate
d ich
d ecess
d ers
d ism
d own
d atum
d iction
d entity
d abilis
d abile
e en
e ter
e ternity
f ate
f ant
f usion
f ail
f latter
f ume
f als
f utation
f ling
f oot
f ourth
f ailing
g ans
g art
g ated
g ree
g ner
g ave
g reement
g eneal
h s
h ur
h ouse
h ole
h iatus
h orizontal
i ation
i ec
i ogn
i ad
i ates
i othe
i ably
i ery
j o
j uris
l ib
l ant
l ost
l iber
l aps
l ogicians
l ength
l orn
m r
m il
m ans
m est
m med
m ma
m arch
m ists
m phiboly
m ometer
n s
n y
n il
n arrow
o at
o ak
o existence
o ins
o osing
o pposites
p ing
p sis
p ires
p ode
p air
r on
r is
r ut
r act
r ose
r ived
r ange
r ane
r ained
r anks
r idge
r andom
r mometer
s ign
s ine
s edu
s ize
s ides
s afe
t i
t us
t ol
t uition
t itles
u o
v o
v il
v est
v iate
v estig
v isible
v ient
w ide
w hence
w arn
w ider
y ears
z es
z ing
´ ris
Ã ©
Ã Ģ
Ã ´ris
Ġ X
Ġ Ċ
Ġ iv
Ġ âĢĶ
Ġ xi
Ġ versa
ĸ NIG
ĺ _
Ġt ab
Ġt uition
Ġt ree
Ġt ied
Ġt ween
Ġt empor
he at
he ard
he ism
he av
Ġa iothe
on os
on ism
on set
in er
in tern
in form
in stit
in admissible
in hering
in herence
in ferred
in experienced
in itial
in determinable
in cogitable
in security
in convenience
Ġo ce
Ġthe w
Ġthe rmometer
re tr
re action
re arr
re vel
re ached
re straint
re pet
re volution
re inst
re miss
re prehensible
it iv
it ical
it us
it iful
it het
it iation
is os
is ans
is io
is sed
is que
en cl
en ounce
en ables
en unciated
en cro
at i
at ism
at ived
at ient
at ii
at traction
at heism
Ġc um
Ġc el
Ġc oll
Ġc lement
Ġc ru
Ġc overt
Ġc ertificate
er ies
er ially
er iality
Ġw on
Ġw ard
Ġw ast
Ġw ood
Ġw ars
Ġs on
Ġs ou
Ġs qu
Ġs wor
Ġs cor
Ġs ix
Ġs well
Ġs ieve
Ġp ict
Ġp sych
Ġp ick
Ġp icked
Ġp iec
Ġp itiful
Ġin im
Ġin con
Ġin ch
Ġin ad
Ġin ca
Ġin op
Ġin cogn
Ġin action
Ġin consequently
Ġin cess
Ġin ert
Ġin super
Ġin serted
Ġin completeness
Ġin formed
Ġin heres
Ġin organ
Ġin numer
Ġin itial
Ġin cogitable
Ġin itiation
al ing
al ved
al ities
ic es
ic ations
ic ative
Ġb os
Ġb ide
Ġb urn
Ġb ungl
Ġb arri
es is
es ce
es cence
Ġth in
or ing
or um
or my
or icians
or ters
Ġto p
Ġto ur
Ġto to
Ġm ad
Ġm our
Ġm other
Ġm ount
Ġm utation
Ġm ecum
ce les
Ġf og
Ġf et
Ġf ought
Ġf oun
Ġf ather
Ġf iery
ing ence
an as
an um
an arch
ed o
Ġn ation
Ġn ight
Ġn igh
Ġn ug
Ġn aming
Ġn Ã´ris
Ġe is
Ġe min
Ġe uth
Ġe rection
Ġe adem
se a
se ven
Ġis m
Ġre now
Ġre form
Ġre posed
Ġre cede
Ġre minis
Ġre prim
Ġre converted
Ġre prehensible
Ġre versed
Ġre ctification
Ġre commencing
le a
le aving
le cula
le jo
Ġcon st
Ġcon ger
Ġd ar
Ġd aw
Ġd are
st all
st ret
st umbling
st ormy
om it
om us
om uch
om istic
om ists
om itted
ent ive
ent ures
ot omy
ar ther
ar ie
ar cation
as ive
as serted
as cribe
as hed
as cent
as hes
ut ans
ut ations
ut ably
ut ants
Ġh ate
Ġh orizontal
Ġh unted
Ġh alved
Ġas semble
Ġpr imit
Ġpr ating
Ġpr ized
Ġpr ius
Ġpr hole
ll ess
ll ating
the st
the sis
the me
Ġu bi
iv ion
iv ol
iv ocal
ition ers
im ality
im perfectly
im parted
ation is
ation ary
os a
os pect
Ġex ul
Ġex ponent
Ġon wards
Ġon tology
Ġnot es
Ġnot io
Ġl ame
Ġl iterary
Ġl oud
Ġl apse
pt ed
pt ians
pt hs
Ġwe igh
Ġfor lorn
ith me
id ical
id able
cept io
cept ibility
ence ment
Ġsu pe
Ġsu pel
Ġsu aveolens
ib il
ib ule
ib ilia
ter able
ir ous
ir mat
Ġg ame
Ġg erms
Ġg onos
th read
th irteen
ĠI dentity
ur ate
ur ities
ur ope
ur idical
ci o
ci llating
og ony
qu acious
qu ando
qu aest
ver itable
ver bial
res set
ist inct
ist ration
ist inguish
Ġor ation
Ġor gans
âĢ ĺ_
if old
if ici
ec ub
per ate
per tain
per ative
per man
per miss
per ceptive
per ceptible
per dur
per ceptio
Ġall o
Ġall ures
Ġpro xim
Ġpro posing
Ġpro verbial
em piricist
ul as
ul ary
ul are
Ġobject or
ĠT od
ĠT wo
ĠT err
ĠT OR
ĠT IM
ĠT ABLE
Ġreason ed
con ca
con fined
con join
ch ican
ch oosing
Ġint ol
Ġint emper
end ure
end um
end ix
end ium
ore st
Ġde em
Ġde fer
Ġde als
Ġde parts
Ġde alt
Ġde taining
Ġde bar
Ġde ceptions
Ġde preciated
Ġde pths
il ful
il ater
ple ading
Ġal ive
us al
act io
Ġha ir
Ġha ste
âĢĶ _
âĢĶ âĢĺ_
am ber
am und
am bitious
Ġun so
Ġun com
Ġun reason
Ġun lu
Ġun will
Ġun like
Ġun adv
Ġun common
Ġun sus
Ġun concerned
Ġun mist
Ġun seen
Ġun becom
Ġun attained
Ġun popular
Ġun accompanied
Ġun ascertain
Ġun aware
Ġun veil
Ġun caused
Ġun changeably
Ġun perceived
Ġun righteous
Ġun happily
Ġun authorized
Ġun ilater
ill imit
pl ed
pl urality
pl au
ab asis
ab ilia
ab undant
ab ulary
aw aken
de tain
de ep
de ficiency
de aling
ans ion
ans lated
Ġat omus
ol ish
Ġ( )
Ġ( =
ig ations
ig uity
ig enesis
um ble
um ping
um atism
min ation
min istration
Ġsp elling
Ġsp inning
Ġsp atii
tr aces
tr ouble
tr ains
tr avag
Ġlaw su
Ġlaw lessness
ous ed
est ial
est ine
Ġr aw
Ġr ays
Ġr ouse
Ġr hapsod
Ġr oused
Ġunder go
Ġother where
Ġtr ick
Ġtr ampl
Ġtr iad
Ġdo or
Ġdo ve
fore going
ĠB ON
ĠB ru
ĠB AC
ĠB aum
Ġv on
Ġv ind
Ġv ult
Ġv oy
Ġv indic
Ġv isions
Ġv ider
Ġv arie
Ġnecess ities
ori an
od ox
ge tic
Ġper tain
Ġper pend
Ġper spic
Ġper version
Ġper fume
Ġthem e
ak able
Ġform ative
Ġform idable
Ġform ulas
Ġno et
Ġno vo
Ġno ogony
ound ing
all ation
all oyed
Ġim properly
Ġab use
Ġab ort
Ġab ides
Ġab iding
Ġab ridge
Ġab olish
pr it
pr ising
Ġnat isque
Ġhe ard
Ġhe ap
Ġhe ars
Ġhe mmed
ad ic
ad ays
ad ology
pos ses
su n
su it
su ited
su aveolens
Ġreg ulates
ind ivid
ind emonstr
ind emonstrable
ind istinguish
ant ities
ant ithetic
Ġk not
Ġk ai
Ġcogn ate
Ġcogn itable
Ġphenomen ized
Ġphenomen ization
ĠF RE
ĠF ailing
ĠF arther
art ifices
present ly
out ward
ex pon
ex ponent
ex travag
Ġrel inqu
Ġqu am
Ġqu ibus
Ġqu een
Ġst ar
Ġst up
Ġst ood
Ġst ationary
Ġst umble
ph istic
ph aenomena
ord ant
Ġcons ole
Ġev asion
Ġev asions
Ġev asive
actical ly
Ġj unction
Ġj ury
Ġj uridical
Ġj umping
ĠA MP
ĠA PPENDIX
ĠA XIOM
ĠA greement
ĠA mphiboly
ĠA pode
Ġman ual
Ġacc use
Ġacc using
Ġacc ounted
Ġacc idens
ac ute
one ously
Ġapp ended
Ġapp oint
nthe sis
sequ ent
un ary
un connected
un fit
un pleasant
un exception
un fortunately
un happy
un fold
un attempted
un veil
un changeably
un altered
un safe
un alloyed
un suited
for bid
Ġad verse
Ġad hering
Ġad monition
Ġad junct
Ġad ministration
to ld
Ġdis use
Ġdis arr
Ġdis pensable
Ġdis solution
Ġdis agreement
Ġdis proportion
Ġdis miss
Ġdis united
Ġdis join
Ġdis involved
Ġdis union
Ġdis qui
ĠP ha
ĠP ne
ĠP lat
ĠP sychological
ĠP oint
ĠP ossession
so vereign
Ġpre ception
Ġpre determined
Ġpre conceived
Ġpre posit
Ġpre lude
Ġpre decess
Ġpart isans
et amorph
here in
ener getic
Ġch art
Ġch air
tern itas
ment ary
Ġle vity
Ġar med
ĠS he
ĠS ens
ĠS oph
ĠS IM
ĠS YSTEM
ĠS etting
ĠS PACE
ress ing
Ġsub ser
Ġsub divisibility
Ġsub joined
Ġsub verted
Ġsub altern
Ġph aenomena
ens urate
Ġser ially
fin itude
ĠN il
ĠO pposition
ĠO pposed
ĠO bservation
ĠO bvious
ĠO perative
int end
int estine
ag ent
ag ination
ag mentary
mat ron
mat eriality
pre condition
pre ference
pre mis
pre formation
pre limin
pre ferred
solute ly
op oly
ĠIn herence
ĠIn vestig
Ġfar thest
Ġcomple mental
Ġpl ate
Ġpl ant
Ġma zes
be quest
Ġcont ext
Ġcaus ed
ĠW OL
ĠC lear
ĠC ap
ĠC AT
ĠC OP
ĠC ogito
ĠC oexistence
Ġgr ants
The tic
The ology
ĠG AL
ĠG OD
ĠG ENERAL
ĠG eometry
rit ory
ism a
ast ly
Ġpos ed
Ġpos se
form able
Ġob edient
Ġob tus
Ġob viate
me asure
Ġcomm ensurate
ari ably
âĢĿ ?
âĢĿ âĢĶâĢľ
Ġdes cribing
Ġdes potism
Ġdes irous
Ġdes perate
com pose
com part
com posed
com posit
com positio
com formable
ici i
Ġinde bted
ine ar
Ġpur a
Ġpur ify
Ġrational istic
Ġpo orest
ĠH err
ĠH ope
ĠH ecub
ro od
ro bor
Ġact um
Ġsci re
Ġground work
less ly
Ġag endum
over come
over bor
over sies
med iating
Ġen coun
Ġen semble
Ġen counter
Ġen unciated
Ġen cod
par able
xim ately
ĠR esult
rough ness
ĠE ternal
ĠE ffect
ĠE MP
ĠE gy
ĠE lea
ĠE urope
Ġreal m
Ġreal ist
Ġreal itas
Ġout look
sy llogistic
Ġappl ications
Ġexp anded
Ġexp ansion
Ġter mination
Ġter ritory
Ġam usement
ke y
Ġsensuous ness
Ġperfect ibility
Ġsim ul
Ġsim ultaneity
Ġcrit ics
Ġatt aches
Ġatt ested
Ġatt entive
Ġmat erially
Ġmaxim a
phys ica
ident ial
ĠD ev
ĠD ynam
ĠD ifferent
ĠD iog
hemat a
ble matical
Ġsec ured
Ġorigin arius
cogn itio
ass on
ass ured
Ġimp uted
Ġimp uting
Ġimp ug
Ġimp utable
Ġimp atient
Ġcor rel
Ġcor relates
Ġcor robor
there on
there with
there from
ular ly
Ġinv ariably
Th ales
ĠPro cess
Ġquant itas
Ġmanifold ness
Ġpoint ed
ice berg
Ġnatural is
Ġsens itiv
Ġshow er
Ġexpl icative
Ġinf lu
ccess ion
Ġap olog
phenomen ization
ĠRe al
ĠRe public
ĠRe flection
Ġintellig ently
Ġintellig ibilia
Ġdem urred
Ġdem arcation
Ġcharacter ize
Ġconc aten
Ġconc ordant
ĠM air
ĠM etamorph
Ġwhere on
Ġwhere upon
Ġdiv est
Ġdiv iding
Ġrest oring
Ġref rained
Ġref utations
Ġref usal
ys ics
Ġconcl usio
Ġcontradict ed
Ġcontradict ories
app arent
app lying
reg ister
reg ularly
Ġremain der
Ġremain ders
Ġind istinct
Ġadv entures
Ġcomp ute
Ġcomp endium
Ġnotion al
contr action
contr oversies
Ġdec ade
ĠL imitation
ĠL aert
ĠL amber
ĠL astly
Ġmet amorph
Ġtot um
Ġfree zing
represent able
represent atio
ev iating
Ġcontent less
lear nt
ĠU s
ĠU NITY
ĠU NUM
irm ative
Ġconf utation
Ġconf ront
ĠCon fusion
Ġaff ixed
Ġaff irmat
und iminished
und eter
Ġmathemat ic
Ġsupp lant
Ġsupp orters
Ġsuccess ions
ER UM
ER NIC
Ġnow adays
In corrupt
Ġphys iological
Ġphys iogn
rel ating
acc ustom
,âĢĿ [
Ġcl oak
Ġstand still
Ġconform ability
sert orical
sub mit
sub div
sub rept
sub traction
sub sequent
Ġconcept as
wor se
read er
read ers
Ġnum bered
Ġconcern ment
dis connected
dis claim
dis appearance
dis figure
dis continue
dis appeared
dis secting
Ġconsequ ens
Ġmetaphys ician
Ġparticular ize
Ġel angu
avour able
Ġindic ations
Ġleg is
Ġleg acy
mon opoly
Ġfin ish
Ġneg atio
hence forward
err oneously
cont iguity
transcendental is
Ġmean while
ĠTH OU
part ies
mis conceptions
mis appre
Ġnon entities
oubt ingly
Ġco here
Ġco heres
Ġco hering
ogress ively
Ġanswer able
Ġformal iter
go at
Ġbelie ving
Ġsol us
Ġsol utions
Ġideal e
isl and
Ġover take
Ġover steps
Ġspeci osa
Ġbound ed
Ġpost hum
Ġbeginning s
ĠPr ior
Ġprev ention
Ġident atis
Ġident itas
Ġdialect ics
Ġdialect ician
ĠSu ccession
Ġpass age
Ġpass io
ĠAs sertorical
Ġprogress es
Ġprogress ive
Ġprogress ively
.âĢĿ âĢĶ
mor row
ck er
ck ily
Ġinst igations
dom ain
Ġmaterial ist
will ingly
Ġprov idential
Ġpeculiar ly
Ġmis used
Ġmis apprehension
Ġmis conceived
Ġfall ible
Ġgener is
Ġgener ic
Ġgener ate
Ġgener ating
dist ract
Ġvari ation
Ġallow ing
gr uity
gr oping
Ġconj oins
ĠAn imality
Ġprom pted
Ġsuper added
io cr
Ġimperative ly
Ġlegisl ators
sim ultaneity
bl ock
Ġcirc ulate
ne y
Ġund emonstr
Ġund iminished
Ġund eviating
Ġund oubtingly
ull ed
what soever
Ġav ow
Ġsing ulare
sist ence
Ġtreat ises
cor ner
cor relate
sensuous ness
lar ge
Ġjud icii
Ġintr ude
Ġintr usive
Ġintr ospect
RE ASON
RE FUT
RE MARK
ignor ant
disc ord
disc overer
disc ursively
Ġcorrect s
Ġpret ty
Ġinfin itus
Ġcontinu a
Ġcontinu ation
Ġcontinu ations
Ġmoment ary
Ġdeterminate ly
ap pertain
Ġcompar ationis
Ġignor ing
br utum
Ġmed itate
Ġmed iates
EC TION
where in
intellig ibilis
Ġanteced ens
pres cribing
sh ore
sh ield
pens ated
Ġexhib iting
IS M
IS TENCE
Ġcomb ining
Ġcosmological ly
Ġprof itable
des cribing
des potism
des pair
general ness
Ġtrans form
Ġtrans ference
Ġdialectical ly
Ġcompre hens
Ġcompre hensibility
Ġrecogn izing
Ġrecogn izable
rational istic
Ġins ured
Ġfr ivol
Ġfr agmentary
Ġpain ters
Ġintrodu ctory
Ġstates man
Ġmanifest ly
ific ial
Ġfore ver
Ġfore thought
Ġfore stall
Ġline ar
att end
att ending
att aching
quant i
quant um
quant itative
quant itatis
quant orum
Ġdel uding
Ġdel udes
Ġdel iverance
ĠAr rived
ĠAr ithme
Ġpursu its
Ġsignific ant
comm encement
separ ated
separ ating
separ ately
system a
system s
ĠV oid
ĠV irtue
ĠV ERUM
Ġke ys
Ġappro aching
Ġappro bations
imp els
imp etus
Ġro of
Ġro cks
consist ence
Ġ5 2
Ġutter s
Ġutter ing
Ġtask s
mathemat ic
mathemat ically
Ġcare lessly
univers itas
Ġpostul atum
IN ATION
Every body
?âĢĿ âĢĶ
div inity
comp el
Ġaccept able
ĠRE FL
TH IRD
Ġdisp elled
Ġdisp utants
Ġcreat es
ren ounce
tot o
Ġsc ope
Ġgen esis
question es
conf ounding
ins ured
ins omuch
presu pposing
Ġfavour ing
cre ation
cre ate
success ions
analy sation
Ġconver se
Ġed ifying
Ġens ured
origin ate
Ġprop ound
Ġindis soluble
Ġdestroy s
conform s
conform ed
Ġinter fered
Ġinter rupted
Ġcomparison s
than k
sc rut
sc hemata
content ed
ĠAN TIC
real izes
Ġmag ical
Ġold est
non entity
non entities
Ġdown ward
Ġdown wards
Ġdown fall
Ġdom estic
correspond ence
gu ide
gu iding
Ġfour fold
Pro blematical
Ġsever ity
Ġdef ensive
Ġart ifici
Ġart ificial
Ġprob ity
Ġanalog ously
universal itas
Ġdivers a
Ġdivers ified
Re ality
Re flection
Re futation
Re alities
Ġstandard s
Ġconfin es
Ġabsurd ities
ĠAt omistic
adv antages
Ġprocess ion
ater al
Ġfail ure
Ġweight iest
ĠIm agination
ĠIm materiality
den ies
OR IES
Ġsk ilful
Ġpract itioners
Ġchain s
Ġobsc urities
particular ity
Ġdata e
Ġproduction s
proceed ed
contin uity
Ġborrow s
apt itudes
ustr ation
Ġsubsum ing
Ġsubsum ptions
claim ants
Ġcontrib uted
Su btr
mot us
_. âĢĻ
look ing
Ġhum bly
ĠOR IG
Ġpreser ving
inf it
rest ing
rest ed
post erity
mind ed
Ġnecessit as
Ġaggreg ated
Ġaggreg ates
Ġeng age
Ġeng ages
Ġrep el
Ġrep aired
Ġrep etition
Ġrep utans
Ġextensive ly
ĠDe ceived
ĠDe ficiency
ĠDe gree
stant iality
Ġdisappear ance
Ġearth ly
Ġdomain s
draw s
consequ ent
indic ations
aff ord
aff air
neg atived
Ġintention al
Ġreflect ive
ED OM
ST UL
Ġhabit a
Ġcausal itatis
Ġinquire r
Ġinquire rs
ae ternitas
Ġpopular ly
Ġsubl unary
Ġavail ing
Con junction
Con sciousness
Ġextr aneously
Ġextr acted
Ġextr amund
Ġfew er
PR INCIPLES
Ġexec utive
Ġexperiment ed
Ġsafe guard
ref lect
ref lective
ref lex
Ġreturn ed
Ġdev ises
Ġdev ised
Ġdev iating
Ġplay ed
assert io
assert orical
ik lejo
ank ly
Ġren ouncing
IR ICAL
found ations
Ġbeh oof
Ġsuggest ing
Ġillustr ative
Ġillustr ated
OG IES
signif y
Ġcal oric
Ġsubstant iality
Ġderiv ativ
pret ension
pret ended
Ġenjoy s
ĠNot withstanding
ĠInt ensive
Ġconfess es
intellectual is
pass age
scept ical
scept ics
Ġlist ener
Ġlist ens
PL E
Ġvan ishing
equ als
establ ishment
ĠWh ile
ĠDis junctive
distinction s
Ġprofound ly
Ġequiv ocal
inter changed
olog ist
supp lies
ĠNO THING
ĠKant ian
fall ing
fall acious
Ġfortun ately
Ġfortun ae
Ġcompl ain
Ġ20 20
except ing
ĠObject ively
Ġinj ured
Ġpremis es
Ġcommun is
Ġcommun ion
Ġcommun ities
Ġcommun io
Ġcommun icate
mo lecula
restrict s
restrict ions
Ġprot est
Ġattr active
Ġattr acted
Ġstart le
Ġstart ling
Ġfruit fulness
Ġwar mest
ĠCom munity
work ing
abstract o
abstract s
dec ision
dec ried
doubt s
Ġimpart s
Ġapprehend ing
anteced es
anteced ens
Ġrank ed
Ġtrib es
unal terable
Ġsett ling
IL EI
concl ude
concl uded
concl usiveness
progress ive
Ġste el
Ġcur ta
Ġcur vil
Ġpenetr ated
Ġpenetr ating
Ġbre ast
Ġbre aking
Ġbre vity
ĠIN TU
acher s
Ġnumer o
Ġnumer ation
Ġnumer ically
Ġcounter s
Ġcounter bal
affirm ation
affirm atively
maintain ing
cul pable
cul prit
Ġair s
Ġair less
Ġdr ive
Ġdr iest
Ex position
Ex planation
deduction s
Ġcle aves
Ġcle aving
Ġshap es
Ġshap ing
ĠPer manence
ĠPer ceptions
co exist
co existent
Ġdream ing
Ġencl osing
answ ered
Ġcolour s
Ġaugment ing
Ġaugment ed
Ġmon as
Ġmon adology
Ġrecomm ending
Ġdimin ution
abs ent
Ġarchitect onically
compar ative
compar atio
col oured
col umn
mod us
mod ality
mod ification
mod ifying
render s
enlar ge
ĠTot um
Ġalleg es
ĠApp rehension
ĠApp endix
appro ximately
Ġdecom pose
Ġdecom positio
Ġcontempor aneous
af oresaid
anthrop ological
Ġdepart ure
Ġdepart ments
Qu ality
Qu antity
Ġcent ral
anticip ations
anticip ated
anticip ating
ĠAnt icipations
gener ation
gener ating
Ġfl oat
Ġfashion able
entia e
Ġann ounce
Ġann ulled
prop ose
prop Ã¦deutic
flu idity
Ġinstit utions
Ġuniform ly
Ġindetermin able
Ġintuitive ly
Ġmagn et
Ġmagn etic
Ġappeal ing
prom ising
Ġnull o
Ġnull ifying
understand s
ĠMe iklejo
grad ations
grad ual
need s
metaphysic a
anim a
Ġquar rel
ĠAl most
Ġguarante es
affect ion
Ġwid en
Ġwid ening
Ġthreat ens
Ġimprov ising
Ġimprov idently
Ġsubmit ting
Ġmodel s
AT ES
vari ance
search ing
sophist ry
formal iter
Ġenumer ated
remark able
ĠPhys iocr
Ġwa ited
Ġreconci ling
add ressed
add ressing
admit s
indis cern
Ġoverlook ing
Ġirre parable
Ġhypostat ization
Ġcompens ated
Ġcompens ates
ĠANAL OGIES
Ġobscure ly
Ġsubstantial e
Ġsophism a
intu itive
ĠMan ifold
Ġvis ited
aggreg ation
aggreg ates
Ġgrow s
ĠEX PER
ĠEX ISTENCE
Ġclos ing
ĠĠĠĠĠĠĠĠĠĠĠĠĠĠĠĠĠĠĠĠĠĠĠĠĠĠĠĠ Ġ
continu ing
Ġtechn ique
furn ished
furn ishing
ĠGree ks
Ġdesp icable
evol ved
Ġcombat ant
dogmat ic
dogmat ist
dogmat ists
ĠNew tonian
sus ceptibility
Ġsun ny
Ġaltern ative
Ġaltern ating
Ġconven iently
Ġboast s
Ġboast ful
embr aces
Ġunf avourable
assum es
Ġinvalid ate
OL Y
mechan ics
Ġcour ses
Ġsil ly
Ġsil ently
Ġexempt ed
educ ation
Leibnitz io
Leibnitz ian
lo quacious
Ã¦ sthetic
Per ception
Per fect
Ġbirth place
Ġhes itates
Ġassist entiae
accomp any
Ġsketch ing
Metaphys ical
soul s
Ġnarrow ly
essential ia
dev ices
excl ude
excl uded
Ġimped es
pursu e
pursu its
commun e
invol ve
dogmatical ly
Ġridic ules
.. .
.. .âĢĿ
.. ..
Tr ansition
Tr ancendent
Tr anslated
treat ise
yllogism os
hes itation
Ġfigur atively
Ġfigur ae
qual itas
Ġcompr ise
ĠAb solute
Ġmyst ical
Ġmyst ery
process es
ĠLOGIC AL
St ars
ĠQu ality
ĠQu od
ĠQu antities
organ um
organ ized
Ġnihil o
Ġnihil um
Ġperplex ities
Ġcontrover sies
ĠGer mans
Ġphilosoph ic
destroy ing
Ġrepeated ly
spont aneously
spont aneous
did actically
peculiar ly
Ġvict ories
ĠAfter wards
Ġsubter rane
Ġmast ers
Ġmast ered
absurd ity
Ġround ness
Ġsynony ms
Ġsevere ly
prev ailed
Ġ178 1
Ġarrog ate
Ġarrog ates
contempl ation
Ġsuperfluous ness
THE OREM
support ing
endeavour ing
accompan iment
Ġinsist ing
Ġreview s
Ġreview ing
exc uses
Ġgrat ified
Ġgrat uitous
prob ably
Ġinduce ment
Ġmistaken ly
Ġexagger ations
Ar ithmetic
access ions
merit o
numer o
numer ical
numer ically
numer ica
Ġred ness
Ġrevolution ized
Ġanim ated
ĠID EAL
Ġtrace d
Ġvit ally
adm irable
Ġcritic ized
accur acy
Princi ples
Ġfatal ism
Ide as
last ly
popular ity
Ġastr ay
Ġastr onomy
que en
det ected
Ġregular ity
Ġprepar ing
ĠRel igion
Ġsimpl er
Ġsimpl ifying
Un iverse
Un fortunately
Un iversal
Ġprolong ation
del ay
del ivered
ĠSe gner
maj estic
contest s
Ġratiocin atio
Ġratiocin ati
sur faces
sur prising
test s
test ed
your s
intr insically
Ġsl umber
Ġsl ips
Ġpol itical
Ġmar red
Ġmar iner
Ġappell ations
ĠST AH
Ġinvent ory
Ġappropri ating
occur red
occasion ing
hypothetical ly
equiv ocal
PO SITION
Ph ysics
Respect ing
Ġsw allowed
Ġaspect s
Ġprohib itive
Ġposit ives
ĠEpicurean ism
Ġsacred ness
rain bow
wit nesses
Ġball s
Ġep ithet
Ġep igenesis
ĠThought s
ĠSen sibility
Ġmock s
Ġmock ing
medi ation
substant iality
ĠMonad ology
PEND ENCE
fill s
fill ing
van ity
van ishes
van ishing
Ġpot ens
Ġpot entially
Ġbes et
Ġmer cury
Ġrevol ve
Ġrevol ves
Ġrevol ved
Ġbeg un
Ġuninter fered
Ġundermin e
Ġundermin es
Ġundermin ed
Ġsoci al
Ġpersist ed
Ġpersist ence
indu ction
artic ulation
Ġstopp ing
Ġantiqu ated
Ġcoal esce
Ġfanci ful
Sy nthesis
authoriz ing
writ ings
Ġcut ting
Ġsedu cing
Ġsedu ctive
analog ies
analog ously
Ġrever ti
Ġloose ly
Ġforget s
chief ly
Ġrob bed
Ġimpract icability
indifferent ism
indifferent ists
Ġshadow y
Ġadvers aries
ĠPers ius
Ġleap ing
Ġartic le
Ġremed ies
appoint ed
Ġfals ification
requis ites
Ġunden iably
ĠArgum ent
conflict ing
exerc ised
signific ancy
Ġunfair ly
Mathemat ical
EG ORIES
bene fit
dict um
fl ashed
fr ankly
fil ings
run s
rep ulsion
revol ved
Ġsoft ness
Ġpet itio
Ġflu ency
Ġelucid ations
ĠIM MOR
Ġsensual ized
fort ified
ĠPO STUL
Ġgross ly
Ġindivid ually
particip ant
grat uitous
ĠUNDER STAN
Ch aracter
Ch ange
Ch anges
Ġsit us
Ġsit uation
alter ations
embarrass ing
Ġjuris prudence
Ġdispar age
Ġdispar ata
Ġdispar aging
Ġprem ier
Ġapper tain
Ġdecre ases
Ġillum inations
Ġinstant aneous
Ġsurr ounds
Ġindiscern ible
Concl usion
ĠNeg ative
colour ing
substantia e
touch ing
touch stone
Ġrapid ly
ĠCopernic an
Cont ents
Cont ingence
bre aking
bre vity
instruct ress
Ġthrow s
Ġming led
Ġfam ous
Ġfam iliar
depr ive
depr ives
Ġabut s
Ġquick en
Ġquick ly
Ġdiss ension
Ġchallen ged
Ġchallen ges
Ġlear ner
Ġlear nt
Ġobl ivion
prohib ition
prohib iting
ĠHypothe tical
Ġenig matical
Ġanalyst s
Ġindisp utably
Ġmistrust ful
Ġcrown ed
Ġdescend ants
Ġastronom er
schol ar
false hood
cur iosity
fault iness
lab oure
Ġadequ ateness
enumer ated
Ġnom adic
imm ensity
impl ied
Ġliqu id
Ġlament able
Ġfors aken
vert ently
Ġproc uring
conject ures
chimer as
Ġdeposit or
Ġvicious ness
pros yllogismos
ĠFOU RTH
Ġdisappoint ed
ĠSh all
fines pun
Ġthank fulness
Ġcontest s
ĠWis est
propri ety
weight iest
Ġimpot ent
Ġsummon s
ĠUT F
Ġsupplement ed
Ġdegr ading
ĠExt ensive
transg ress
ĠAbb Ã©
ĠPerson ality
Ġeconom ize
Ġincontrovert ible
Ġearnest ly
Ġtriumph ant
178 1
178 7
figur ative
figur ae
met abasis
null ity
null ifies
wond er
wond ered
isol ate
isol ated
Ġpomp ous
Ġban ish
Ġban ishes
Ġmus ic
Ġmus ician
Ġnes cit
Ġnes cio
Ġreign s
Ġreap ed
Ġdull est
asc end
asc ension
Ġexceed ing
Ġexceed ingly
Ġexempl ification
Ġexempl ifies
ampl ify
Ġunguarded ly
illustr ate
illustr ations
Ġtra versed
Ġtra hor
Ġabst ain
Ġabst ains
pron ounce
pron ounces
succeed s
succeed ing
Ġshame less
exec ution
exec uted
Ġquib ble
Ġquib bling
Ġstat ute
Ġstat utes
uniform ity
Ġdismis sing
Ġdismis sed
Ġdiscontinu ing
Ġdiscontinu ed
ĠSing le
ĠSing ular
Introdu ction
Introdu ctory
contempor aneously
contempor aneous
ĠSub sistence
ĠSub stantiality
correction s
Ġdeline ate
Ġdeline ated
apprehend ed
STAN CE
Ġtwist ing
Ġepisyllogism s
Ġepisyllogism os
Ġbarbar ic
Ġbarbar ism
Ġrecapit ulate
Ġrecapit ulation
Che mists
Com munity
Im possibility
adequ ateness
bat tle
back wards
cher ished
dile mma
dimin ution
fanci ed
hist orian
rhapsod y
temper ate
uphold ers
voc abulary
Ġer go
Ġapt itudes
inj ury
inward ly
incomp atible
reve als
redu ction
Ġcou pled
Ġwarr ants
Ġwatch ing
Ġpal pable
Ġtou ches
Ġfight ing
Ġret orted
Ġrenew ed
Ġconced ed
start ed
Ġprogram me
Ġum pires
Ġfort uitous
Ġunre strained
depart ure
Ġrot ten
Ġrhet oricians
Ġva cillating
Ġusurp ed
antagon istic
phil odox
Ġjug gling
ĠAff irmative
Ġaccum ulation
care fully
Ġadjust ing
ĠPER CEPTION
Ġprecl ude
Ġchamp ions
strong er
ĠSpirit uality
prepar ations
ĠCOM POSITION
compl aint
Ġpoly syllogistic
ĠEqu ivocal
ĠDE PENDENCE
ĠDest itute
Ġconcess ion
Ġadvised ly
Ġsumm ary
contrib uted
subsum ed
blind ing
belie ves
Ġfrustr ated
Ġsurm ounted
Ġcircums cribes
Ġrepul sed
imagin arium
ĠComp elled
Ġambigu ities
collect s
Quod lib
Ġincit ement
Ġvehic le
school men
Ġratiocinant es
ĠSUB STANCE
Ġincapac itate
Ġpresumpt uous
cobweb s
govern ments
ĠReciproc ity
Ab solutely
App rehension
Apr il
Astr onomy
Ant icipations
Bod ies
Cogn ition
Des pite
FOU RTH
Gign i
HIB OLY
IP ATIONS
Ill ustration
Judgement s
KÃ ĸNIG
Law s
Mod o
Nun c
Numer us
New tonian
Ov id
Phenomen a
Pers ius
Prop Ã¦deutic
Plat onism
RICE LLI
Sach heit
Socr atic
Te achers
Zen o
bu ild
boast ing
cle arest
cosm ologia
dich otomy
dism issed
fant asy
fail ure
fals ity
foot ed
gart en
geneal ogy
hur ry
juris diction
liber ate
laps us
mil king
narrow ness
sign s
sedu ced
tol erably
vest ibule
wide ly
ĠâĢĶ >
Ġxi ii
Ġtab ular
Ġtempor al
heav y
Ġaiothe ta
intern e
instit ute
Ġoce an
retr ogressively
rearr anges
revel ation
repet ition
reinst allation
remiss io
isos celes
encl osed
encro aching
Ġcel estial
Ġcoll ateral
Ġcru cible
Ġcovert ly
Ġwast ing
Ġsou lless
Ġsqu are
Ġswor n
Ġscor n
Ġsix ty
Ġswell ing
Ġpict ure
Ġpsych ologist
Ġpiec es
Ġinim ical
Ġincon gruity
Ġinad vertently
Ġinca utious
Ġinop s
Ġincogn izable
Ġincess antly
Ġinert iae
Ġinsuper able
Ġinorgan ic
Ġinnumer able
Ġbos om
Ġburn t
Ġbungl er
Ġbarri ers
Ġtour ney
Ġmad ness
Ġmour ns
Ġfet ters
Ġfoun tain
anas ia
anarch y
Ġnug atory
Ġemin ent
Ġeuth anasia
Ġrenow ned
Ġreminis cence
Ġreprim anded
Ġconst ans
Ġconger ies
Ġdar ling
Ġdaw ned
stret ch
Ġprimit ively
Ġprhole psis
Ġsupe resset
Ġsupel lex
ibil ium
quaest io
perman ency
permiss ive
perdur abile
Ġproxim ity
ĠTod ay
ĠTerr asson
ĠTOR RICELLI
ĠTIM E
conca ve
chican eries
Ġintol erable
Ġintemper ance
Ġdebar red
Ġunso phistic
Ġuncom pensated
Ġunreason able
Ġunlu ckily
Ġunwill ing
Ġunadv isable
Ġunsus ceptible
Ġunmist akable
Ġunbecom ing
Ġunascertain ed
Ġunilater ally
illimit ableness
plau sibility
awaken ed
deep ly
Ġlawsu its
Ġrhapsod ically
Ġundergo es
Ġtrampl ed
ĠBON UM
ĠBru cker
ĠBAC ON
ĠBaum garten
Ġvind ication
Ġvoy age
Ġvindic ated
Ġvider i
Ġvarie gated
Ġperpend icular
Ġperspic uity
Ġnoet a
Ġabort ive
individ uo
indemonstr abilia
indistinguish ables
ĠFRE EDOM
expon ents
extravag ance
Ġrelinqu ishing
Ġstup idity
ĠAMP HIBOLY
ĠAXIOM S
ĠApode ictical
Ġmanual s
Ġappoint ment
unfit ness
unexception ably
unveil ing
Ġdisarr anging
Ġdisproportion ate
Ġdisqui et
ĠPha edo
ĠPne umatism
ĠPlat onic
ĠPoint s
sovereign ty
Ġpredecess ors
ĠSens ations
ĠSoph isma
ĠSIM PLE
Ġsubser vient
ĠObvious ly
premis ses
prelimin aries
ĠInvestig ation
ĠWOL F
ĠClear ness
ĠCap e
ĠCAT EGORIES
ĠCOP ERNIC
ĠGAL ILEI
Ġobtus eness
measure ment
compart ments
composit a
ĠHecub a
overbor ne
Ġencoun ters
Ġencod ing
ĠEMP IRICAL
ĠEgy ptians
ĠEurope an
ĠDev oid
ĠDynam ical
ĠDiog enes
assured ly
Ġimpug ned
Ġcorrel ative
Ġcorrobor ating
Ġsensitiv um
Ġinflu encing
Ġapolog ize
Ġconcaten ation
ĠMair an
ĠMetamorph oses
ĠLaert ius
ĠLamber t
Ġmetamorph osed
Ġaffirmat ives
undeter red
Incorrupt ibility
Ġphysiogn omists
subdiv isio
subrept io
Ġelangu escence
ĠTHOU GHT
misappre hensions
Ġposthum ous
Ġundemonstr ated
Ġintrospect ions
REFUT ATION
despair ing
Ġcomprehens ive
Ġfrivol ity
ĠArithme tical
ĠREFL ECTION
scrut iny
ĠANTIC IPATIONS
Ġdomestic ae
Ġartifici ally
Subtr act
ĠORIG INATION
Ġextramund anum
reflex io
Ġderivativ us
molecula e
Ġcurvil inear
ĠINTU ITION
Ġcounterbal ancing
ĠMeiklejo hn
ĠPhysiocr acy
indiscern ibilium
ĠEXPER IENCE
Trancendent al
Ġsubterrane an
ĠIDEAL ISM
ĠSTAH L
ĠIMMOR TALITY
ĠPOSTUL ATES
ĠUNDERSTAN DING
laboure r
philodox y
Ġpolysyllogistic a
Quodlib et
KÃĸNIG SBERG
Ġunsophistic ated
ĠCOPERNIC US
" :
" ).
! *
! ).
! **
! *****
' ,
' ll
( #
) ?"
) ":
* :
, -
. _
0 3
0 9
1 00
6 55
7 75
8 655
A W
A utonomy
B E
B ole
B enevolence
B JECTIVE
C r
C ON
C opyright
C ynics
D o
D as
D em
D ak
D et
D el
D ON
D IS
D ES
D uty
D avid
D onations
E Y
E dition
E ach
E ven
E thics
F E
F reedom
F IN
F OR
F airbanks
G E
G eneration
H art
H old
H ypothe
H amps
H utcheson
I nd
I RE
I mag
I UM
J ust
L C
L ake
L ook
L ED
L ATION
M B
M ich
M and
M ore
M ast
M ark
M ON
M any
M ont
M oney
M idnight
N at
N or
N ay
N ol
N eg
N ovember
O k
O x
O bject
O ne
O nt
O UT
O THER
O therwise
P re
P ain
P un
P ost
P AR
P ortions
P MB
S h
S at
S im
S cept
S ol
S END
S ummum
S imilarly
S etting
S ections
S ulzer
T M
T O
T em
T able
T ell
U nder
U RE
U TION
U GHT
V er
V ari
V anilla
V irginia
W el
W iz
W ell
W IS
W HAT
W ANT
] -
a h
a ed
a ver
a ign
a ises
a ug
a ii
a version
a ithful
b t
b an
b ent
b ur
b ul
b end
b ind
b led
b ases
b ull
b urd
b enevol
b roken
b lessed
b oldest
c ut
c ate
c ans
c ard
c ens
c ue
c ular
c ited
c ost
c ode
c ert
c ope
c ibly
c ription
c endi
c odes
c arri
c arried
c itizens
d r
d y
d it
d ing
d ere
d ate
d ise
d ness
d ro
d read
d ouble
d umb
e th
e ur
e ps
e org
e utic
e leology
f at
f le
f as
f ol
f ide
f ord
f ear
f ted
f requ
f oc
f ool
f lying
f air
f ashion
f ri
f elt
f ails
f ecundity
g ical
g em
g ard
g un
g old
g ered
g ra
g izing
g ression
h o
h us
h all
h ire
h ated
h int
h ollow
h ast
h tm
h ode
h io
h amed
h undred
h alf
h arm
h ateful
i is
i as
i ety
i atives
i ased
i works
i unt
i asm
i hi
j u
j ack
j uries
k ill
k ak
k some
k ansas
l er
l or
l ity
l ical
l ay
l ate
l am
l ary
l ays
l are
l iness
l ives
l ower
l iving
l ively
l ater
l eness
l anguage
l iable
l oses
l iking
l oss
l ax
l van
l oric
l iberum
l aud
l ah
m ar
m pt
m ate
m us
m ous
m able
m el
m ish
m oun
m ount
m illion
m idnight
n um
n est
n ance
n ers
n arr
n ob
n amed
n ares
n ament
n abilis
n cret
n aked
o al
o ever
o be
o ble
o ppose
o pposes
o ister
p g
p it
p ut
p ith
p ay
p ain
p ate
p ol
p her
p ered
p over
p age
p utation
p resses
p els
p upil
p ub
p orts
r in
r ic
r if
r ality
r ous
r ict
r ise
r ink
r av
r ang
r ises
r up
r ip
r oyal
r anc
r ival
r ho
s ic
s ical
s ink
s we
s ident
s akes
s io
s ential
s ending
s light
s alt
s af
s cribed
s ches
s oft
s pirit
t s
t is
t ur
t ist
t ig
t of
t ility
t ener
t ile
t ful
t ension
t itle
t ending
t ification
t resses
t ender
t ax
t otheology
u es
u ed
u end
u est
u ers
u ber
u ine
u ided
u fact
v us
v ig
v ant
v idence
v iction
v iol
v icious
v ature
v ogue
v illain
w re
w er
w ar
w ither
w anted
w atch
w rought
w inning
w arks
x es
y om
y ourselves
y rin
z ed
z ard
~ ),
ĉ ĠĠ
Ġ /
Ġ <
Ġ ener
Ġ 00
Ġt em
Ġt il
Ġt ac
Ġt ute
Ġt ong
Ġt ort
Ġt ear
Ġt reason
Ġt ang
Ġt ending
Ġt aint
Ġt ild
Ġt imid
Ġt orn
he ad
he ment
he ma
he alth
he aded
Ġa er
Ġa le
Ġa st
Ġa qu
Ġa de
Ġa ud
Ġa uth
Ġa ward
Ġa vers
on or
on ant
on ens
on ness
on ted
on ten
on net
in her
in able
in ant
in ex
in sp
in ances
in sensible
in sist
in complete
in ctive
in sensibility
in conce
in still
in compar
in determinate
in secure
in hab
in strum
in uating
in structive
in nabilis
Ġo ption
Ġo cular
Ġthe at
Ġthe istic
Ġthe ft
Ġthe osoph
re ce
re str
re mit
re ward
re wards
re ap
re vere
re aching
re lease
re search
re taining
re jected
re fined
it a
it at
it ly
it ter
it ab
it ant
it atively
it ivae
Ġof tener
is ect
is iana
is pered
en em
en ch
en ge
en ame
en ance
en ment
en man
en ni
en ry
en ounced
en ouncement
en ouncing
en lightened
at om
at ir
at tr
at ant
at ers
at ag
at ern
at red
at tle
at ists
at iable
at orial
Ġc ure
Ġc ul
Ġc ree
Ġc over
Ġc ited
Ġc row
Ġc ash
Ġc ert
Ġc aring
Ġc itizens
Ġc itab
er or
er ve
er um
er ted
er ious
er mon
er io
er als
er vation
er isk
Ġw omen
Ġw ind
Ġw ire
Ġw rests
ion et
Ġs is
Ġs al
Ġs ic
Ġs ar
Ġs ect
Ġs and
Ġs ore
Ġs ad
Ġs can
Ġs atis
Ġs che
Ġs eduction
Ġs ick
Ġs ling
Ġs inner
Ġs ales
Ġs incerity
Ġs nares
Ġs atir
Ġp iv
Ġp il
Ġp um
Ġp all
Ġp ud
Ġp op
Ġp ledge
Ġp ates
Ġp ious
Ġp ique
Ġp onens
Ġin se
Ġin ext
Ġin most
Ġin consider
Ġin consist
Ġin completely
Ġin cul
Ġin co
Ġin appro
Ġin applicable
Ġin verse
Ġin hab
Ġin access
Ġin active
Ġin fects
Ġin correctly
Ġin experienced
Ġin efficient
Ġin gen
Ġin considerable
Ġin adequ
Ġin off
Ġin convenience
Ġin imitable
al d
al ism
al anced
al hall
ic it
ic le
ic ut
ic us
ic um
ic ide
ic ine
ic ule
ic acy
ic ero
ic ros
nd oubted
Ġb le
Ġb ent
Ġb ul
Ġb end
Ġb un
Ġb oy
Ġb ast
Ġb read
Ġb ane
Ġb ull
Ġb iog
Ġb ias
Ġb oister
Ġb itter
Ġb isect
Ġb attle
Ġb alanced
es crib
es see
es pecial
es cap
es erving
Ġth ir
Ġth rif
or k
or se
or as
or ation
or ld
or able
or ses
or ously
or ifies
or ibus
Ġto ll
Ġto il
Ġto wer
Ġm ess
Ġm onstr
Ġm arch
Ġm ild
Ġm alle
Ġm arried
Ġm ihi
Ġm icros
ce l
ce ased
ct ed
ct ity
ct ify
ct uating
Ġf ond
Ġf ast
Ġf are
Ġf ost
Ġf ath
Ġf ood
Ġf ool
Ġf olly
Ġf ores
Ġf oil
Ġf ecundity
ing enesis
an a
an ch
an ies
an tern
an ating
an atory
an alogue
ed ition
ed icated
Ġn ig
Ġn our
Ġn ational
Ġn aked
Ġe re
Ġe at
Ġe ur
Ġe ffici
Ġe get
Ġe lude
Ġe book
Ġe bull
se ar
se ld
se ated
se arched
se vered
ou ch
ou isiana
Ġis land
Ġis tis
Ġre i
Ġre ar
Ġre act
Ġre pr
Ġre pose
Ġre sem
Ġre taining
Ġre tains
Ġre acts
Ġre plies
Ġre served
Ġre ctify
Ġre sear
le te
le ag
le ologia
Ġit em
Ġcon str
Ġcon gr
Ġcon quest
Ġcon strained
Ġcon grat
Ġcon noisseurs
Ġd ab
Ġd ig
Ġd ally
Ġd ang
Ġd atis
Ġd ra
Ġd ug
Ġd inner
Ġd edicated
Ġbe at
Ġbe ast
Ġbe ating
Ġbe atis
Ġbe think
Ġbe ckon
Ġbe fit
Ġbe ware
Ġbe held
Ġbe aten
st o
st ain
st ud
st ory
st age
st ee
st amp
st amps
om a
om s
om inable
ent er
ent ality
ent ance
ent ers
ent ang
ent uring
ent ient
ent angles
ent uck
ent angled
ent ral
ot a
ot o
ot ic
ot ing
ot ently
ot ives
ot istic
ar p
ar ment
ar ice
ar ising
ar gue
ar ithmetic
as er
as ide
as hing
as ible
ut a
ut er
ut ary
ut ability
ut rality
ut sches
Ġh ur
Ġh anged
Ġh unt
Ġh atred
Ġh orses
Ġas sem
Ġas hamed
Ġpr ice
ll s
the ism
the ian
the olog
the sin
the osoph
Ġu phold
iv ation
iv ating
iv ized
iv ided
iv ery
iv endi
iv abilities
ition em
im en
im us
im ination
im ps
im posed
im acy
im manent
im properly
im ax
im measur
im mense
os ique
os ities
os cendi
os itionem
Ġex pos
Ġex cogitate
Ġex cogitating
Ġan a
Ġan ch
Ġan gu
Ġan atom
Ġon us
Ġon totheology
Ġnot ed
Ġnot ation
Ġnot ably
Ġl ent
Ġl og
Ġl ad
Ġl un
Ġl ived
Ġl iar
Ġl ik
Ġl ift
Ġl owers
Ġl oft
Ġl ax
Ġl oved
Ġl aug
Ġl antern
pt s
pt ure
pt ember
pt uously
pt oms
pt ivating
ess entially
ow a
ow ner
Ġwe ed
Ġwe ary
Ġfor ge
Ġfor ty
Ġfor cibly
id a
id le
id dy
id icule
cept s
cept ivae
Ġsu e
Ġsu sp
Ġsu icide
ter ing
ter rent
ter ror
ir ksome
ir pate
ld ier
Ġg ate
Ġg one
Ġg ather
Ġg allow
Ġg estic
Ġg aming
Ġg arment
Ġg iddy
Ġwith al
th ither
th rown
ĠI S
ĠI T
ĠI mit
ĠI dent
ĠI owa
ur b
ur o
ur su
ur able
ur ring
ur ia
ur ists
ur rection
ur mount
ci a
ci an
ci le
ci ples
ci pit
og ra
qu od
qu ired
ver bal
ception em
res pon
res olved
res urrection
ist rict
Ġor nament
ere t
ere cting
ere cted
Ġcan onic
ain e
and a
and eur
if ting
if iable
ec k
per or
per ous
per ty
per forms
per formed
per versa
per severed
Ġall ured
Ġall oyed
rom ising
Ġpro ps
Ġpro pter
Ġpro claim
Ġpro jected
em bers
em inently
em inent
em piricists
em anating
ul ity
ul atio
Ġobject ivized
pp et
ĠT ex
ĠT ell
ĠT yp
ĠT ext
ĠT rade
ĠT enn
ĠT eleology
Ġreason er
Ġreason ableness
ve ill
ve to
ve get
con du
con joined
con strained
con noisseurs
ch ant
ch ives
ch ild
ch ains
ch anging
ch oose
ch arm
ch allen
ch loric
ch aser
Ġint us
Ġint ends
hen sibilities
ust eron
end less
end owed
end ship
Ġde ception
Ġde tain
Ġde af
Ġde bat
Ġde posits
Ġde bt
Ġde lete
il an
il as
il ate
il ious
Ġbut tresses
ple te
ple asing
Ġal get
us age
us ius
act ness
act ments
Ġha zard
am a
am ur
am med
am atic
am big
am usement
Ġun i
Ġun ass
Ġun wise
Ġun ten
Ġun read
Ġun gr
Ġun att
Ġun ison
Ġun comp
Ġun think
Ġun satisf
Ġun true
Ġun fit
Ġun critical
Ġun ri
Ġun utter
Ġun educ
Ġun hes
Ġun tou
Ġun intention
Ġun holy
Ġun eas
Ġun practised
Ġun solved
Ġun supported
Ġun warrant
Ġun prot
Ġun worthiness
Ġun searchable
Ġun altered
Ġun instructed
Ġun sought
Ġun prepared
Ġun convincing
Ġun skill
Ġun cultivated
Ġun civilized
Ġun enforceability
Ġun named
Ġun instructive
Ġun changing
ill ains
ab ond
ab stain
ab ama
aw e
aw ful
aw aii
de ed
de pre
de ceive
de light
de velop
de grad
de posit
de jected
de veloped
de preciated
de terrent
ans gression
Ġca res
ol ve
ol ix
ol umb
ol ta
ol aters
Ġ( ~),
ig an
ig ably
ig uous
um ans
um mat
um ni
um mate
um ptuously
ies ce
min e
min ently
min uend
Ġsp ot
Ġsp end
Ġsp ared
Ġsp acious
Ġsp oke
Ġsp aring
Ġsp rang
Ġsp eck
Ġcom for
Ġcom ment
not her
tr ain
tr ad
tr ays
tr ying
tr anged
Ġlaw fully
Ġlaw fulness
Ġlaw giving
Ġlaw yers
of ficial
Ġem ended
Ġem power
Ġem piricists
ecess ary
Ġr an
Ġr ust
Ġr ough
Ġr out
Ġr ud
Ġr aking
Ġr ick
Ġr isen
Ġr andom
Ġr ival
Ġunder to
Ġunder line
Ġunder gone
Ġso ber
Ġso ldier
Ġwor ms
stand ard
Ġsen seless
Ġtr ail
Ġtr ained
Ġtr ains
Ġtr illion
Ġtr amples
Ġtr uest
Ġdo st
Ġdo cile
fore gone
ĠThe oretic
ĠThe oric
ĠB ose
ĠB ox
ĠB onnet
use um
use tt
Ġv ary
Ġv ivid
Ġv ote
Ġv ii
Ġv arying
Ġv otes
Ġv ogue
Ġv illain
Ġv eneration
Ġv enge
Ġv ouch
Ġv ivendi
Ġv illains
od eration
Ġper il
Ġper missible
Ġper sec
Ġper verted
Ġper sever
Ġper dere
Ġper juries
ak er
Ġno bly
all er
all ibly
Ġim moral
Ġim manence
Ġim prud
Ġim proving
Ġim movable
Ġim measur
Ġim mense
Ġim probable
Ġim minently
pir ing
Ġab ound
Ġab und
Ġab used
Ġab lest
Ġab ounds
Ġab hor
Ġab undant
Ġab ominable
pr ior
pr imal
pr ae
pr avity
pr aises
pr olix
Ġsy ncret
Ġhe w
Ġhe ark
ad a
ad able
ad ise
ad vers
ad icated
ad minis
ad orned
pos al
pos sident
su es
su ff
su pre
Ġreg ulation
Ġreg imen
ever al
Ġus es
Ġus ers
ose ly
ind irect
ind escrib
ant y
ant ibus
Ġk ill
Ġk ins
Ġcogn ised
Ġcogn izable
Ġcogn oscendi
ĠF ight
ĠF ree
ĠF ollow
ĠF requ
ĠF als
ĠF urther
ĠF inal
ĠF lor
ĠF ranc
ĠF onten
Ġsh ut
Ġsh un
Ġsh ines
Ġsh ift
Ġsh oot
Ġsh rew
Ġsh rink
ff ing
out ly
ex pose
ex poses
ex ico
ex actness
Ġrel ie
Ġrel ish
Ġrel iance
Ġrel ativ
Ġrel ax
Ġrel apse
Ġqu od
Ġqu oted
Ġqu ando
Ġse as
Ġse ated
Ġse ize
Ġse lected
Ġse verest
Ġse vered
ud ence
Ġst em
Ġst ag
Ġst ating
Ġst atis
Ġst ret
Ġst ories
Ġst ock
Ġst outly
ph arm
ph antom
ord ain
Ġcons cient
Ġcons erv
Ġcons onant
Ġcons ervation
Ġcons ummate
Ġev ok
Ġev ading
Ġev olved
Ġev olve
wh ilst
wh ispered
Ġj oy
Ġj oc
Ġj oined
Ġj eal
Ġj ew
ĠA ve
ĠA RE
ĠA way
ĠA lex
ĠA nother
Ġman ners
Ġman ufact
our able
our ces
our aging
ac op
ac knowledge
ac erv
ac ademical
ac quired
Ġnature s
Ġapp ositionem
Ġmor ose
Ġmor tification
Ġtheir s
ca ptivating
ĠFor bidden
un o
un cor
un inter
un anim
un essential
un mixed
un recogn
un yield
un influenced
un usual
un fortunate
un pleasantness
un yielding
un righteous
un authorized
un selfish
un profitable
un fruitful
un enforceability
un broken
un fair
for get
for sakes
Ġad mis
Ġad herence
Ġad minis
Ġad orn
Ġad orned
Ġad oration
Ġdis sol
Ġdis pose
Ġdis sim
Ġdis may
Ġdis content
Ġdis like
Ġdis conc
Ġdis regarding
Ġdis eng
Ġdis proved
Ġdis figure
Ġdis hon
Ġdis favour
Ġdis proving
Ġdis ease
Ġdis allowed
Ġdis agreeableness
Ġdis plays
Ġdis grace
Ġdis agreeable
Ġdis inher
Ġdis ciples
Ġdis posal
ĠP ut
ĠP ay
ĠP ower
ĠP ages
ĠP OP
ĠP lain
ĠP rep
ĠP enn
ĠP ursu
Ġworld ly
Ġpre y
Ġpre fixed
Ġpre dile
Ġpre fix
Ġpre cipit
Ġpart icle
Ġpart aker
et e
et ing
et ates
et ites
et uous
ĠTh ou
ĠTh ree
ĠTh ousand
here with
here nt
here after
ener gizing
Ġch at
Ġch ose
Ġch ase
Ġch ican
te acher
te lling
te leologia
te lls
str ive
str iving
str aight
ict ions
sis mus
Ġle af
cl osely
ces ilas
Ġar bit
Ġar my
Ġar mist
Ġar cs
Ġar chives
sp it
sp end
sp ite
sp oke
sp arks
ĠS pect
ĠS mall
ĠS ocr
ĠS ections
ĠS ulzer
ĠS ource
ĠS kill
ĠS everal
sol ar
sol ip
Ġmoral ist
Ġmoral ized
Ġsub sequently
Ġsub serve
Ġsub scribe
Ġsub tlest
Ġsub reption
Ġsub tile
Ġph this
ens ate
ens oribus
Ġser vant
fin e
fin al
fin ished
fin itions
fin iteness
ĠN on
ĠN ev
ĠN umber
ĠN ames
ĠN ecessary
ĠO ut
ĠO ther
ĠO reg
ĠO BJECTIVE
ĠO UGHT
ĠO hio
el an
el le
el ater
el abor
el ucid
el ench
imit s
imit ative
int ed
int imate
ag ation
ag ious
ag matical
ag oras
pre jud
pre determine
pre conceived
pre liminary
pre cision
pre rogative
pre miss
op ening
Ġne fas
Ġne utrality
nect icut
ĠIn telligence
ĠIn cert
Ġpresent able
Ġcomple tes
iz ations
Ġpl ast
Ġpl ants
be o
be gun
be trays
Ġcont ested
Ġcont iguous
Ġcont agious
Ġcaus as
Ġbel oved
ĠW ere
ĠW ise
ĠW erke
ĠW oh
ĠW yom
ĠW alhall
ĠW orld
ĠW ashing
Ġmo b
ploy ee
ĠC oun
ĠC ynics
ĠC icero
ĠC entral
ĠC olumb
Ġcontr ive
Ġgr ace
Ġgr av
Ġend ure
Ġend anger
ĠG ive
ĠG ute
ĠG aining
ĠG eorg
ĠG oal
ĠG uided
old s
rit us
ign ant
ign ia
ign ava
Ġfound ations
ast ical
ser ious
ser ving
Ġfollow er
form arum
Ġdist ances
Ġdist urb
ivers ity
Ġcomm it
Ġcomm its
Ġcomm ended
Ġcomm ends
Ġshould st
Ġshould ers
Ġdes pond
Ġdes pot
Ġdes ider
com mit
com ply
pro xim
Ġrem orse
ink s
ish able
spect ion
spect acle
ach usett
with hold
Ġdisc ard
Ġdisc overer
Ġdisc ursively
Ġdisc ouraging
Ġrespect ed
Ġrespect ability
Ġexam ines
Ġexam ining
Ġinde fat
ine fficient
Ġpur se
Ġpur posed
Ġpur port
Ġpur poseless
Ġext ant
Ġext rem
Ġext ensions
Ġext orts
Ġext remit
Ġext irpate
der ives
der ivation
Ġpo et
Ġpo ck
ĠH ob
ĠH ave
ĠH oly
ĠH oliness
ĠH aving
ĠH OP
ĠH utcheson
ĠH onor
ĠH enry
ĠH awaii
ĠH umans
ĠH aller
ro ot
ro ad
ro amatic
under take
under value
under mine
Ġhapp ier
Ġorder ly
Ġfe ared
Ġfe ature
Ġfe asibility
Ġfe asible
over turn
over powers
stit utes
Ġeffect ual
Ġen light
Ġen acted
Ġen ouncing
Ġen ric
Ġen actments
Ġen sues
par ison
par aded
par allel
par simony
par oxysms
Ġunivers itas
ĠR ight
ĠR ules
ĠR ather
ĠR ATION
ĠR hode
ĠR idicule
wo e
Ġquestion ed
Ġquestion able
Ġpres cription
ell ipse
ĠE t
ĠE lectronic
ĠE duc
ĠE sto
Ġreal issim
Ġreal itatis
Ġout bre
sy nony
sy lvan
Ġpossess or
Ġappl ause
Ġexp ends
Ġexp ounded
Ġter ror
Ġter restr
Ġam ple
Ġam iable
Ġam az
Ġam bitious
Ġam putation
ear th
ear ning
ty pic
Ġhuman ly
ophy sical
Ġmind ed
reason ed
reason ably
Ġperfect s
Ġass ists
Ġass ault
av ish
av ailing
av ails
Ġatt ending
Ġmat urity
Ġmat hema
edu ces
sen ess
ceed ing
phys ically
ĠD ialectical
ĠD atur
ĠD emonstr
ĠD istrict
). "
). [
Ġorigin arium
Ġbas es
cogn itive
cons in
cons ilia
cons entient
cons ummat
Ġent is
Ġent ia
Ġent angles
Ġent reating
Ġent hus
ass ure
ass ification
ass ures
ass achusett
ok o
Ġimp el
Ġimp utes
Ġimp els
Ġimp etus
Ġimp iety
Ġimp eret
Ġcor ner
Ġcor pus
ange lical
there d
Ġinv ites
Ġinv iting
Ġinv inc
Ġinv ested
Th ree
ĠPro positions
ĠPro vidence
ĠPro perty
ĠPro ceeding
Ġpoint ing
necess itates
necess itat
Ġnatural ist
Ġnatural istic
Ġnatural ists
Ġhere dit
Ġhere tof
can o
ner vus
Ġbet ake
Ġbet imes
Ġexpl anatory
Ġinf use
Ġinf ers
Ġinf lict
Ġinf using
Ġinf lam
Ġap ology
Ġnor mal
Ġuniversal itas
ĠRe ven
ĠRe quire
ĠRe adable
Ġrequire st
Ġkind red
Ġhand ed
Ġhand iworks
Ġanaly zed
Ġdem ur
Ġcharacter ization
ught s
Ġconc ert
ĠM S
ĠM en
ĠM ight
ĠM ON
ĠM ont
ĠM ED
ĠM OD
ĠM AD
ĠM oh
ĠM otives
ĠM aine
ĠM ilan
ĠM useum
ĠM oderation
ĠM exico
ĠM elan
ĠM assachusett
Ġwhere ver
Ġwhere of
Ġdiv inity
Ġdiv erted
Ġrest ores
Ġstr ife
Ġstr anger
Ġstr ik
Ġstr iking
Ġstr ipped
Ġstr atag
Ġref uge
Ġdedu cible
Ġconcl usiveness
app etites
Ġtruth ful
Ġtruth fully
reg ion
reg ions
reg ulating
reg num
Ġind ustr
Ġind ulg
Ġind ignant
Ġadv ises
Ġadv ocate
othe ism
Ġcomp ressed
Ġcomp iled
Ġcomp anies
Ġsum mit
contr ol
contr acted
Ġdec ry
ĠL ake
ĠL ove
ĠL eg
ĠL AW
ĠL LC
ĠL ouisiana
ĠL imits
ĠL earning
intuition al
ev angelical
Ġpredic ata
ious ness
Ġconsist ed
Ġconsist ence
Ġexpress ive
Ġres ort
Ġres pond
Ġres ists
Ġres ource
Ġres cue
Ġres ources
Ġmost ly
fic ence
Ġ1 000
Ġ1 15
Ġ1 13
Ġ1 40
Ġ1 10
Ġ1 45
Ġsupreme ly
ĠU bel
ĠU ta
ĠU ndoubted
Ġill imitable
Ġconf use
Ġconf luence
Ġconf uted
Ġconf uting
ĠCon sid
ĠCon stitution
ĠCon viction
ĠCon necticut
Ġmathemat a
ost atic
ost ensive
Ġsupp ress
Ġsupp ression
Ġsuccess ors
Ġnow ise
In finite
In no
In experienced
In tending
Ġphys ic
pend ant
rel inqu
ĠOn tology
Ġmot to
Ġproble matic
acc idens
Ġcl ay
Ġcl imax
Ġhypothe sin
Ġconform ing
sert ation
sub mitted
sub species
sub serve
sub ordination
sub tlest
sub reption
sub stitutes
Ġup per
Ġsatisf actions
Ġimag ined
Ġimag ines
ath y
Ġocc ult
read ily
Ġright ful
Ġder iving
dis appear
dis content
dis like
dis solution
dis regarded
dis pleasure
dis regarding
dis claims
dis plays
dis sertation
Ġconsequ ential
Ġworth less
opher s
TI TY
Ġple ased
Ġmod ify
Ġel uded
Ġel icited
Ġel icit
Ġel imination
Ġexer tion
Ġemployment s
che ck
che mist
che cks
raph ies
ention alism
Ġneed y
Ġlogic arum
Ġaccord ed
law giver
Ġleg ion
Ġleg ibus
Ġgu est
trib unal
mon ogram
Ġac id
Ġac ademical
Ġac roamatic
Ġwant onness
Ġfur thered
Ġfin itude
Ġneg atives
Ġneg lected
subject ing
Ġmean ness
Ġmain ly
come ts
Ġant ip
Ġant agon
mis chievous
Ġco de
Ġco ars
Ġmethod ically
Ġimport unity
do cs
Ġdog s
pect s
Ġlong ings
Ġphysical ly
Ġsol ar
arr anged
Ġhence forward
Ġvirt uously
Ġcontin ent
Ġcontin ents
Ġless en
Ġless ens
Ġequ ity
Ġequ ations
Ġover gr
Ġover throw
Ġover bal
Ġover sight
Ġover fl
Ġover takes
Ġover throwing
Ġover charge
Ġover tur
Ġover thrown
Ġexcept ing
Ġcommand ments
Ġhold est
Ġmen ace
Ġappre ciate
Ġspeci erum
Ġbound ary
Ġpreced ence
Ġpost erio
nature d
ĠPr ofessor
ĠPr imacy
ĠPr agmatical
Ġprev alent
Ġher ald
Ġdialect icians
Ġpass ively
ĠAs k
ĠAs soci
Ġdoubt ing
Ġdoubt less
Ġinst ability
Ġinst antly
Ġinst inctive
Ġden ial
Ġden ounce
Ġden oted
Ġmaterial e
Ġess endi
Ġhar ass
Ġprov able
Ġmis employment
Ġmis application
Ġmis fortun
Ġmis ery
Ġmis understand
Ġmis lead
Ġmis chievous
Ġmis carri
Ġpleasure s
Ġoblig ations
Ġoblig andi
Ġoblig antibus
Ġargument ation
Ġargument um
dist ance
Ġvari ations
Ġvari ously
Ġvari eties
Ġvari etates
For mal
gr oss
gr image
gr andeur
ties t
Ġfal seness
Ġaw ful
ĠAn ne
ĠAn nihil
ĠAn ax
Ġprom ised
Ġprom inently
Ġsuper fici
Ġsuper subtle
Ġsuper ann
Ġsuper sensual
dif fers
some one
ave lled
Ġes tranged
Ġharmon izing
Ġcontingent ia
ne ighbour
Ġund a
Ġund o
Ġund eserving
Ġund ivided
Ġbr other
Ġbr igh
Ġintellectual ists
strict ly
strict est
Ġav owed
Ġav arice
Ġsing ly
sist ency
cor ruption
Ġseek est
Ġfurther s
philos oph
erse y
les ome
disc redit
ĠY ear
ĠY ork
consid ers
limit less
right s
right ful
right fully
Ġcorrect ed
Ġvol o
Ġvol unteer
Ġvol cano
Ġconv ulsion
Ġpret ences
Ġpret ending
Ġpret ends
All ow
All heit
All gem
moral ists
no olog
nt ial
Ġcriticism s
Ġinfin itude
Ġcontinu i
inde xes
Ġspring ing
AN TITY
ood less
ap pertains
fer re
fer tility
Ġignor atio
Ġinfer ior
ĠHe teronomy
ĠHe aven
Ġcritical ly
br ief
br aska
br idle
Ġmed ical
Ġmed dle
Ġmed ley
Ġmed itating
Ġmed icine
where fore
Ġpar ading
Ġpar oxysms
Ġpar cel
Ġpar adise
world s
Ġauthor itatively
Ġdistrib utor
ĠEx planation
intellig entia
ĠUn ion
ĠUn question
ĠUn iversity
pres sible
pres cribe
pres umption
pres erving
pres erve
pres umptuously
sh ut
sh arp
sh ifting
ech ism
Ġfield s
Ġcomb ative
des iring
just ly
Ġexcl usions
Ġtrans formation
Ġtrans port
Ġtrans ports
bel ow
leg es
leg itim
Ġabstract s
pur ity
pur poseless
pur chaser
Ġins incerity
Ġins inuating
Ġins atiable
Ġins urmount
Ġins ensate
rem ember
rem oval
rem embered
rem embers
Ġfr ug
Ġfr actions
Ġfr aming
Ġfr atern
fe res
fe asibility
Ġpain t
Ġsur passing
Ġsur faces
Ġsur gical
Ġsur veill
Ġ3 000
Ġ3 8655
ĠSp inozism
Ġdesign ations
Ġbl end
Ġbl oodless
Ġmanifest ed
Ġmanifest ation
respect ively
ific ed
Ġfore go
Ġfore seen
att aches
oc ritus
Ġorgan izations
Ġdel ivery
ĠAr kansas
ĠAr tist
comm only
separ ation
system atical
sum ma
igh s
ĠV au
ĠV olunteers
ĠV irginia
ĠV ermon
ĠV olta
Ġke eps
Ġappro ves
Ġappro ving
Ġappro ached
Ġtranscendent ly
produ cing
ĠJ urists
ĠJ uno
ĠJ ersey
incl uded
imp se
imp elled
imp otently
imp etuous
Ġcircum scribe
Ġcircum spection
Ġro ck
distingu ishes
employ s
Ġlet s
Ġlet ting
Ġascrib es
Ġsepar ations
Ġtest is
Ġtest ing
IN CLUDING
inv alid
inv iol
Ġkingdom s
Ġagree ing
ĠK ingdom
ĠK ansas
ĠK entuck
Ġche ated
Ġche ats
perfect ions
perfect issimum
Ġindividual s
Ġear s
phist s
Ġdeser ved
div ine
div ested
Ġvolition s
comp ass
comp etent
comp ulsion
comp uters
comp assion
comp uter
comp ete
possess or
possess ing
possess ed
Ġuseful ness
Ġoff ended
Ġoff spring
Ġge ogra
ĠRE LATION
speculative ly
cogit ation
cogit ates
ata e
TH IS
po em
Ġdisp uted
Ġdisp assion
Ġcreat ors
Ġfa de
Ġfa cia
Ġacqu ires
Ġacqu iesce
Ġsc ru
Ġsc rup
Ġsc anty
Ġsure r
Ġreflection s
ĠÃ Ģ
conf ront
Ġadopt s
Ġdogmat izing
ins piring
ins ignia
Ġgain er
Ġschool man
Ġlight en
Ġlight ly
Ġcre de
Ġfavour s
ug nance
ven ing
ven ged
Ġsimilar ities
Ġoccasion al
Ġopp ortunities
analy sing
Ġconver sio
predic able
Ġed it
Ġed ited
Ġprop ortions
Ġprop ounds
Ġprop aed
Ġprop agation
Ġindis solu
Ġannihil ation
conform ing
belong ed
Ġinter course
Ġinter secting
Ġinter feres
Ġinter vening
Ġphilosophical ly
Ġforth with
Ġconstruction s
should ers
purpose ly
real ize
ĠWith in
Ġta uro
far ther
Ġold er
Ġmechan ics
imin al
Ġtransc ended
demonstr able
demonstr ates
demonstr ating
Ġredu ction
Ġredu ces
Ġdom inant
Ġclass ification
gu ided
gu arante
Ġbor n
Ġcheck ing
Ġcheck ed
Ġdef ences
Ġdef ended
Ġdef ensoribus
Ġart ist
Ġart istic
Ġart ists
Ġart ifices
discover ies
when ever
Ġfan atical
Ġprob andi
Ġsophist s
Ġsophist ry
investig ate
investig ated
Ġplain er
Ġplain est
crit ically
great ly
compre hension
Ġopen ing
Ġopen ly
prov ide
prov ision
prov ides
Ġprevent ing
ret reat
ret urn
ĠAt qui
Ġadm ired
Ġadm ixt
Ġadm oto
Ġback ward
Ġrec urs
Ġrec urring
Ġpriv ation
adv ocate
adv enturing
Ġmajor ity
Ġprocess ors
Ġplan et
Ġfear fully
Ġafford ed
Ġpublic ly
Ġfail s
den y
through out
Ġassign ing
struct ure
occ urs
occ asions
Ġ9 1
Ġ9 3
Ġ9 4
Ġ9 6
Ġ9 7
Ġ9 8
Ġ9 000
attain ment
since re
Ġir ref
Ġsa ves
Ġsa fer
Ġpract ise
Ġdet ail
apt ation
lat ent
lat est
uit ously
truth s
truth ful
truth fulness
TIC ULAR
Ġaxiom atic
Wh ich
Wh oever
Ġturn ed
Ġturn spit
Ġwrit ers
Ġpreser ver
Pr of
Pr udence
inf lex
inf allibly
Ġelev ate
Ġelev ations
Ġmist ress
post poned
post pone
Ġstud ied
before hand
Ġbene ath
Ġnecessit ating
Ġeng agement
turn s
Ġrep elled
Ġrep ressed
Ġrep entance
Ġrep ugnance
ĠDe fects
ĠDe utsches
ĠDe finitions
gl ery
gl impse
.) [
Ġsent ences
Ġqual ifies
Ġqual ifying
conting ently
indic es
indic ative
appre ciate
aff irmed
play ed
Ġperform ances
neg atively
As k
Ġcap abilities
Ġgl ad
Ġgl ances
Ġgl imm
Ġgl orifies
Ġgl imps
Ġshort en
Ġshort ness
expect ing
expect ation
ĠEm peror
Ġestim able
Ġcr ied
Ġcr ush
Ġcr iminal
Ġpay able
Ġpay ment
Ġfit test
Ġhabit ual
Ġhabit ually
plic anda
ae que
ĠPRO VIDED
Con sistency
Ġextr action
Ġextr aneous
Ġguard ians
Ġproportion ately
conscious ly
human ae
you th
Ġexec utes
Ġheav ens
feel s
Ġexperiment ing
imag inary
Ġexc iting
super natural
super human
Ġtw ice
ref use
ref und
ref utation
ref lected
Ġbold est
Ġbold ness
Ġdev oting
Ġ7 8
Ġ7 50
assert orial
Ġendless ness
found s
logical ly
Ġbu ys
Ġbu yers
Ġpros cribed
Ġsuggest ive
Ġpersu ading
Ġillustr ates
Ġ6 000
Ġcal umni
Ġbad ly
Ġbad ness
Ġsubstant iate
pret end
Ġgrad ations
proble m
Ġenjoy ed
." ]
dog ma
vol unteer
Ġwond ers
Ġwond rous
Ġmin ute
Ġmin erals
second ary
ĠNot ions
Ġconfess ing
Ġanticip ates
Ġanticip atory
Ġpromot ed
Ġconvin ces
pass es
tal ents
tal ks
ĠEvery where
Ġlist ing
Ġlist ed
Ġlist ened
fact itious
deg rade
preced ed
equ itable
find ing
Ġtal ks
establ ishes
ĠWh ich
ĠDis pute
Ġfinal is
Ġspecif y
positive ly
Ġequiv ocation
Ġtransg ressions
Ġtransg ressed
show s
view s
view ed
inter change
inter vention
inter preted
inter pol
Ġweak er
Ġweak ens
Ġmeasure s
Ġperi uria
Ġimit ative
Ġcharge able
Ġconfirm ations
Ġpsychological ly
Ġhind ered
conv ince
conv ictions
conv entionalism
Ġaddu ces
Ġesteem s
Ġesteem ing
Ġ20 16
Ġ20 13
Ġminor ity
Ġ0 1
Ġ0 2
Ġforbid ding
among st
except ivae
ĠCON CLUSION
Ġ15 0
Ġ15 5
pot entially
Ġsound ness
Ġinj ure
Ġprejud ge
mo ved
Ġprot ection
Ġprot uber
Ġstart ing
Ġstart les
Ġfruit lessness
ĠCom mon
ĠCom parison
rupt ible
An alytical
An cient
dec ides
dec lare
doubt ing
doubt fulness
Ġdur able
Ġapprehend s
direct or
Ġpat ience
Ġpat ched
Ġpat ches
Ġsuff ice
Ġtrib ute
Ġtast es
Ġhyp ophysical
Ġobjection able
concl udes
Ġsym ptoms
Ġste ward
Ġadmir ing
Ġcur o
alog uers
ĠIN CI
Ġord aining
Ġord inances
ift ness
trans form
trans fer
trans fers
trans lated
ĠNe braska
Ġ10 5
Ġapproxim ations
Ġapproxim ates
Ġapproxim ating
Ġcounter act
Ġcounter part
Ġcounter acts
Ġgovern s
Ġgovern ed
Ġdr inks
Ġdict et
correct ing
correct ed
occup ying
Ex ternally
Ex actly
Ex tension
Ġcle ver
ĠPer manent
ĠPer suasion
co acerv
clear ing
sour i
Ġhy dro
Ġhard er
Ġhard ens
Ġhard ware
Ġprefer ring
Ġcultiv ated
Ġcultiv ates
Ġcultiv ating
Ġtell us
Ġinward ly
Ġoutward ly
Ġaugment ation
Ġmon otheism
Ġrecomm ends
Ġrecomm ender
Ġdepr ived
Ġdepr iving
Ġdepr avity
Ġdepr aved
Ġexerc ising
mod ern
mod eration
Ġalleg ation
ĠOr der
appro ves
appro val
80 9
Ġmund i
ott ish
ĠTr ademark
ĠTr illion
ĠTr ansgression
ĠAuthor s
Ġexert s
Ġhyper physics
long est
sec ured
Ġdoll ar
Ġdisclaim s
Ġdisclaim ed
gener ated
Ġmut ilate
Ġfl ap
Ġann ual
Ġann ounced
term ing
prop ensions
prop ortions
prop ensity
ri ot
ri pture
eng aging
Ġinstit ution
see ks
Ġrepro ached
Ġrepro aches
Ġrepe ating
method ical
method ology
comb atant
Ġindetermin ateness
Ġmagn ified
prom o
prom ised
prom otion
Ġver ge
Ġver ification
Ġver ifying
Ġver acious
Ġver bi
Ġinstruct ors
Ġnull a
Ġpra ising
grad ation
grad uation
need less
Ġfaith ful
Ġinc ited
Ġinc urred
Ġinc urable
Ġconject ured
Ġhorizon s
result ed
Ġunb iased
ĠAl abama
distrib uted
distrib uting
ĠSystem s
affect ation
affect ions
coun tries
coun sels
pet itio
Ġthreat s
imental ism
Ġimprov ements
material s
Ġpeace able
vari ations
vari eties
Ġinner most
Ġdeal er
Ġdeal ing
Ġrad iating
Ġrad ius
Ġenumer ating
Ġ12 0
Ġ12 5
Ġ12 40
Ġimperfect ions
remark ed
remark ably
ĠPhys iology
AB OUT
SI US
Ġcred ulity
Ġfix ing
Ġreconci lable
Ġanthrop ological
Ġanthrop omor
Ġanthrop omorph
Ġprincip ii
Ġprincip iis
Ġviol ation
Ġviol ating
add ing
admit ting
Ġconceal ing
Ġirre voc
Ġirre coverably
Ġirre pressible
Ġsacr ifices
Ġsacr ificed
Ġhypostat izes
cop ical
cop ied
Ġur ge
Ġpropens ities
Ġfault s
Ġfault less
opp ortunities
Ġmid way
prof it
prof ound
cour t
Ġvis ual
Ġvis ibly
Ġchar ms
account s
Ġclos est
continu ed
continu ance
Ġtechn ically
Ġshar per
Ġshar ply
ĠĠĠĠĠĠĠĠĠĠĠĠĠĠĠĠĠĠĠĠĠĠĠĠĠĠĠĠĠĠĠĠ ĠĠĠĠĠĠĠĠĠĠĠĠĠĠĠĠĠĠĠ
Ġdesp ises
Ġdesp ised
Ġdesp air
Ġentertain s
Ġentertain ment
evol ent
Ġmulti plies
Ġmulti plicanda
dogmat a
dogmat izing
ĠNew slet
ĠNew sletter
sus ceptionem
Ġlur k
pract icable
cap acity
Ġcontempt uous
Ġkey stone
ĠChrist ians
Ġboast ing
embr ace
Ġunf illed
Ġunf aithful
Ġunf olds
Ġvac ans
Ġcoinc iding
mechan ical
psychological ly
rent ly
Ġcour t
Ġsuit ability
exception s
ĠSome thing
educ ators
ĠConcl uding
deser ves
deser ved
deser ted
Ġdefend ers
Ġspiritual e
Ġspiritual ist
infin itude
Ġlic enses
Ġsubstit utes
Ġcalcul ations
Ġcalcul ating
Per haps
don ations
meaning less
Ġassist ing
Ġsolic ited
Ġfair ness
ĠChristian ity
Sp inozism
cent red
Ġomit ting
Ġpupil age
Ġband s
Ġnarrow est
ĠIs land
dev ote
excl usion
excl udes
Ġfell ow
Ġimped ing
Ġimped iment
pursu ing
commun is
Ġfancy ing
41 09
hes itate
inst inct
inst abilis
qual ifies
Ġtrust ees
ĠAb ove
Ġmyst ics
Ġmyst erious
Ġmyst icum
Ġirresist ibly
Gr ace
St ill
Ġve hement
ĠQu id
Ġten or
Ġfat ality
Ġlab oured
Ġlab oure
Ġlab yrin
Ġdece ives
defect s
Ġstead y
Ġphilosoph ies
Ġphilosoph ized
Ġphilosoph izing
destroy s
destroy ed
Ġsuffer ance
Ġsuffer ings
UND ER
mic ros
Ġcat echism
Ġcat aloguers
seem ing
ĠIll usion
ĠIll ino
Ġvict ors
Ġchild ish
Ġattach ments
evil le
Ġ25 00
Ġdefici encies
Ġobey ed
ĠMORAL ITY
He teronomy
He aven
Not withstanding
Ġtext s
introdu ces
Ġdark est
ste pping
Ġsust ains
Ġsust enance
Ġembarrass es
Ġembarrass ment
Ġround about
Ġyield ing
Ġ178 5
Ġ178 8
contempl ate
contempl ates
contempl ating
rupted ly
accompan ies
bal anced
Ġid em
Ġid leness
Ġid olaters
Ġinsist s
Ġincor ruptible
Ġreview er
transc ending
Ġru ins
Ġvag um
Ġvag abond
exc iting
exhib its
Ġdispens es
Ġgrat iae
Ġgrat uitously
Ġencour aged
Ġencour agement
ĠEnd s
assign s
discus sing
design ing
design ations
Ġhinder ances
Ġthreaten ings
Ġexagger ates
Ar cesilas
text s
incre ment
Ġburd ensome
Ġanim i
Ġanim am
Ġanim ality
Ġanim ates
Ġanim advers
Ġunexpected ly
Ġcast ing
Ġvit am
Ġvit ium
adm ired
Ġcritic ised
Ġcritic izing
accur ately
advance d
advance ment
Ġpraise worthy
De fect
hon ourable
last ing
tent h
ĉĉ ĠĠ
ĉĉ ĉĉ
ĉĉ ĉĠĠ
Ġfil ed
Ġfil ename
Ġprepar atory
ĠCogn itive
Ġsimpl ify
ĠMon th
ĠMis souri
ĠLaw s
Ġpunct uation
Ġpunct ilious
Ġweakness es
Un conditioned
Un ited
bar ism
bar barism
Ġwicked ness
anc ers
del iverance
Ġselect ing
ĠSe a
ĠSe ptember
ĠDetermin ation
Ġstruct ures
Ġ13 0
Ġ13 5
Ġratiocin atae
Ġarchetyp a
sur face
sur render
sur veyed
Ġsl avish
Ġpubl ication
Ġmar ionet
Ġweaken ed
ulous ness
Ġspecul ate
Ġspecul atists
ĠAmong st
soon er
ĠCan st
Ġvalu able
Ġinvent ed
Ġinvent ors
appe al
Ġimagin ing
Ġimagin able
Ġimagin arius
Ġappropri ation
occasion al
observ able
observ ance
ĠMoral ists
prevent ed
Em ployee
PO SSIBILITY
bring s
favour able
mag ic
Ġeduc ators
Ġwarn ed
Ġsw im
Ġsw iftness
Ġpress ing
Ġlow ered
Ġwithdraw s
Ġwithdraw ing
Ġreluct ance
Ġreluct antly
Ġconsult ed
Ġrespon sibilities
Ġharmonious ly
Ġrecommend ations
71 2
creat ing
fund raising
oe ia
spr ings
enjoy s
enjoy ing
enjoy ments
Ġcens or
Ġcens ura
Ġtol erably
Ġmal evolent
Ġissu es
Ġrevel ata
Ġredistrib ution
Ġanxi eties
Ġunpleasant ness
Ġrig id
Ġrig our
Ġcontrol s
ĠRoyal ties
sym pat
keep ing
Ġinfring es
Ġinfring ed
mail ing
attack ing
Ġdesert s
Ġ45 57
Ġomnis cience
TRIB UTION
Ġ199 1
Ġ199 4
Ġ199 7
Ġ199 8
Ġ199 9
Al ways
hetical ly
Ġrevol utions
Ġunansw ered
Ġunanim ity
Ġ(_ )
Ġundermin ing
indu ced
artic ulatio
comparison s
Ġguarantee ing
Ideal ist
17 5
17 39
authoriz e
bor n
bor row
ey es
fal sely
fixed ly
mem ory
Ġcut s
Ġincontest able
Ġmil es
Ġmil itant
analog on
analog ous
Ġrever sely
Ġdwell ing
Ġadvers ity
Ġartic les
ĠSc ottish
ĠSc ripture
Ġfals ify
requis ita
conflict s
Ġcollected ness
Ġextravag ances
Ġsignal ized
exerc ises
bene ficence
dict ation
dict ates
dict atorial
fr ame
fil es
horizon s
pun ishes
pun ishment
pun ishable
ration ally
Ġrom ancers
Ġtemper ance
revol t
revol ve
revol utions
Ġflu ctuating
Ġecon omy
Ġelucid ation
Ġlive liness
Ġdeed s
Ġsensual ists
Ġship wre
Ġappet ites
Ġappet imus
ĠOp inions
intention ed
ĠEngl and
Ġinviol ability
Ġindul ged
Ġindivid uality
Ġguess es
particip ation
particip ate
particip ating
grat ified
grat ifying
corrupt s
Ġvolunt arily
Ġcredential s
Ġsharp est
Ġsharp ened
circum scribed
lie u
pat tern
sent iment
sent imentalism
Ġign ava
Ġign oble
Ġcustom s
Ġsor ry
Ġsan ctification
Ġsan ctity
Ġell ipses
Ġdread s
Ġhit ting
Ġlof tiest
Ġspoil s
Ġspoil ed
Ġtrad uc
Ġtroub lesome
Ġquit ting
Ġconsent iunt
Ġargu es
Ġargu ed
Ġserious ness
Ġgrate ful
ĠGos pels
Ġpoison er
Ġhero ic
Ġhero ism
discern ed
discern ment
Ġparallel ism
IND EMNITY
critic izes
Ġsuffic ing
Ġsuffic ed
cultiv ation
cultiv ating
Ġpragmatical ly
Philos ophy
Philos ophers
coinc ide
coinc ident
coinc ides
coinc idence
Cont act
Ġbro ad
Ġfam ily
Ġremind ed
Ġlangu or
Ġunquestion ed
depr ived
trace able
ĠFac ulties
Ġquick ened
Ġappend ix
Ġchallen ge
Ġlear ning
ĠInte ger
ĠCl assification
prohib itivae
Ġdiscret a
ĠEv il
Ġtert io
Ġcorrection s
ĠLat ins
Ġ18 2
Ġcoer ce
indefinite ly
Ġsurpass es
Ġcrown s
ĠDisc ursive
Ġcharm ing
Ġepoch s
Among st
Epic urus
First ly
cur rent
cur vature
fict ions
high ly
Ġtheolog ian
Ġwarrant ies
Ġwander ings
Ġsag acious
Ġincompre hensibilities
Ġinstrum ents
Ġnought s
Ġhint s
imm utability
impl ies
impl anted
Ġlat est
Ġlament ed
Ġsuppos able
Ġproc ured
Ġproc ures
conven iently
chimer a
chimer ical
track s
ĠBec ome
pros perous
pros pects
Ġaccus er
cast ic
cast les
ĠSh ould
ĠSh allow
Ġthank ful
ĠWis dom
ĠWis consin
ĠHist orical
Ġsummon ing
Ġsummon ed
Ġsupplement ing
arrog ance
Ġbrief ly
Ġbrief est
ĠExt ension
ĠExt reme
Ġsurrender ing
manifest ly
manifest ations
ĠPerson s
circumst ance
Ġembell ishing
568 2
Mor als
Sto ic
cal m
custom ary
dest ined
eg otistic
elev ating
fa ithful
fam ily
firm ly
gen us
gen uine
pus hed
penetr ate
sure ly
wis er
Ġ80 9
Ġtempt ed
Ġtempt ation
reconci ling
Ġcand id
Ġbow s
Ġthwart s
Ġfant astical
ann ouncement
ann ouncing
Ġecl ipse
section s
Ġhour s
Ġlack s
thy self
threat ening
Ġproject ile
Ġdep ressed
Ġalkal is
Ġhast ens
Ġcomfort able
prot ect
prot ensive
Ġhearer s
suggest s
suggest ion
suggest ed
ĠAd aptation
Ġdiscl ose
Ġdiscl osed
Ġdiscl oses
Ġdisgust ing
specul ators
spread ing
ĠOTHER WIS
ĠGre cian
Ġenv ying
Ġcorrupt ing
Ġinflex ibly
Ġresist ing
Ġelimin ate
Ġelimin ated
Ġelimin ating
contempt ible
obvious ly
Ġprovision ary
Ġabsor ption
Ġabsor bed
Ġabsor bent
product s
invent ed
myst ical
ĠImper ative
Ġ99 775
Ġ99 712
Ġdevi ation
PLEAS URE
Ġruin ous
Ġfriend ship
Ġauthentic ity
62215 4
Che seld
Com plete
Certain ly
EI THER
Im manent
Logical ly
cher ishes
dur ation
dimin ishes
ein heit
fanci ful
hist orical
mark ed
rhapsod istic
temper ament
Ġer adicated
Ġapt ness
inj ure
incomp etent
reject ion
reve aled
redu ced
Ġcou ple
Ġwarr anted
Ġpal ingenesis
altern ately
Ġtou ched
Ġret ort
Ġconced ing
asy mpt
Ġproud ly
Ġum pire
Ġexhort ation
Ġfort itude
Ġunre venged
Ġunjust ifiable
depart ment
umn osique
Ġrot eron
Ġrhet oric
Ġva unted
Ġusurp ation
antagon ism
phil aut
Ġjug glery
ĠAff inity
Ġaccum ulated
Ġadjust ed
ĠPER SIUS
Ġprecl udes
Ġchamp ion
prepar ation
ĠCOM MON
Ġdistrust ful
compl acent
Ġpoly theism
ĠEqu ator
ĠDE FIN
ĠDest ination
Ġconcess ions
inguish able
Ġstray ed
Ġsumm un
contrib ute
Ġconfer red
subsum ption
belie ved
Ġfrustr ate
Ġsurm ise
Ġblow s
Ġcircums cribed
Ġrepul se
imagin able
ĠComp uters
Ġsymbol s
Ġambigu ae
Ġincit ements
Ġvehic ula
detect ing
school s
Ġratiocinant is
ĠSUB JECTIVE
Ġincapac itates
Ġpresumpt uously
arrogant ia
govern ment
splendour s
ĠReciproc al
aut omaton
aud ible
astr ay
astr ology
bes ide
book s
bungl ers
bungl ingly
dam age
dam ages
hi oko
hyp ocrisy
hyp ostatic
loc ations
loc ated
mer ge
mer chant
tre ated
tre asure
upright ness
ĠQU ALITY
ĠQU ANTITY
Ġtur ning
Ġtur bul
Ġtrem ble
Ġtrem bles
ones elf
itating ly
Ġcosm otheology
Ġcosm icus
Ġcount s
Ġcount less
Ġwild est
Ġsink s
Ġsap io
Ġpu ppet
Ġpu ffing
Ġpill ow
Ġpill ars
Ġincompar able
Ġincompar ably
Ġblessed ness
Ġmir acle
Ġmir ror
Ġmill enni
Ġfif th
Ġfif ty
Ġfra il
Ġfra ilty
Ġfier i
Ġfier ce
Ġeff emin
Ġeff icacy
sever ity
secret ly
Ġconqu ered
Ġconqu eror
Ġcondem ning
Ġcondem ned
Ġhover s
Ġhover ing
Ġprae ter
Ġprae ferre
Ġexcess es
Ġexcess ive
Ġnotic ing
Ġnotic ed
Ġlust ful
Ġforfe it
Ġforfe its
irre concilable
irre coverably
Ġgout y
perform ances
Ġallot ment
Ġallure ment
Ġallure ments
emin ence
consol ing
consol ation
Ġdefe at
Ġdefe ats
Ġunw aver
Ġunw onted
Ġuntr ained
Ġuntr avelled
Ġ(* )
Ġspher ical
Ġspher oid
tranqu il
tranqu ility
Ġmel ius
Ġmel anch
Ġtranqu il
Ġtranqu ility
Ġpervert s
Ġabsol ves
Ġabsol uta
exto lling
exto lled
exert ions
Ġaccru ing
Ġaccru ed
acid s
acknowled ged
acknowled ges
unceasing ly
Ġdisappro ved
Ġdisappro val
Ġpreponder ate
Ġpreponder ance
Ġyaw n
Ġyaw ning
preponder ate
preponder ance
ĠIncl ination
ĠIncl uded
Ġplun ge
Ġplun ges
Theoretical ly
Ġcommend able
Ġextol s
Ġextingu ished
Ġextingu ishing
weak ens
weak nesses
ĠEs se
ĠEs sential
Ġoutwe ighed
Ġoutwe ighs
ĠDON ATIONS
Ġimpair s
fulfil s
fulfil ment
Ġconcur rence
Ġconcur rently
contrast ed
ĠLI ABILITY
ĠLI FE
accompl ish
accompl ishment
Ġcloud ed
display ing
redistrib ution
redistrib uting
Ġacknowled ged
Ġacknowled ges
Ġcoar se
Ġcoar ser
Ġcool ness
Ġharsh ness
Ġmischief s
Ġawa it
Ġawa its
short est
short ening
remo ves
remo ving
Ġcheer ful
Ġcheer fulness
Ġinterrog ation
Ġinterrog ate
ruin ous
Ġbenef ited
Ġbenef iting
superior ity
Ġcommunic ates
Ġcommunic ating
mock ing
mock ed
Ġsympath ize
Ġsympath izing
Ġsympat hetic
Ġsympat hetically
ĠPerfect ion
Ġvex ing
Ġvex ed
Ġdeceit fully
symbol ical
Ġflatten ing
Ġflatten ed
Ġdepict s
Ġdepict ed
Ġtorment ed
Ġtorment est
Ġwretched ness
Ġeulog ies
Ġeulog ize
condemn ation
Ġimpregn ation
Ġimpregn able
ĠPHILOSOPH Y
ĠPHILOSOPH ICAL
ĠKNOW LED
100 00
BE FORE
Bole yn
Cr usius
CON CLUSION
Do es
Dem ocritus
Dak ota
Det ection
Del aware
DON ATIONS
DIS TRIBUTION
DES IRE
Hold ing
Hypothe ses
Hamps hire
Ind iana
Imag ination
Look ing
Mich igan
Mand eville
Mast ers
Mont aign
Nat ural
Nol int
Neg ative
Ok lah
Ox ford
Object s
Ont ologia
Pre cepts
Pun ishment
Post ing
PAR TICULAR
Sh ould
Sat irae
Sim ply
Scept icism
Sol ones
Tem pus
Vari ety
Wel come
Wiz enman
ban ished
bur st
burd ensome
benevol ent
cans on
cens ura
dr iven
dise ase
eth ical
fle eting
fol k
fide lity
frequ ently
foc us
fool ish
fri endship
gard ly
gra fted
hast y
htm l
harm less
ju beo
kak ov
lax er
laud atur
mar vellous
mel ior
moun tains
narr ower
nob ler
obe y
pher s
pover ty
rav ages
rip ened
royal ties
rho pon
sink ing
swe et
slight est
salt s
saf ed
soft ware
spirit ual
vig orously
viol ates
war ning
Ġener gy
Ġtem ere
Ġtac itly
Ġtute lary
Ġtong ues
Ġtort uous
Ġtang ible
Ġtild e
head er
Ġaer umnosique
Ġale theian
Ġast erisk
Ġaqu am
Ġade pts
Ġaud ience
Ġauth rhopon
Ġavers amur
inex orable
insp ire
inconce ivabilities
instill ing
incompar ably
inhab its
instrum entality
Ġtheat re
Ġtheosoph ic
rece iving
reward ing
revere ntial
enem ies
attr actions
Ġcul pable
Ġcree p
Ġcover ing
Ġcrow ning
Ġcert ify
Ġcitab ere
Ġwind y
Ġsal utary
Ġsar castic
Ġsore ly
Ġscan ning
Ġsche me
Ġsatir ical
Ġpiv ot
Ġpil grimage
Ġpum ice
Ġpall iatives
Ġpud ori
Ġpop ulation
Ġinse ct
Ġinext inguishable
Ġinconsider ateness
Ġinconsist encies
Ġincul cate
Ġinco herent
Ġinappro priate
Ġinhab ited
Ġinaccess ible
Ġingen ious
Ġinadequ acy
Ġinoff ensive
Ġble mish
Ġbul warks
Ġbun gles
Ġbast ard
Ġbiog raphies
Ġboister ous
escap ed
Ġthir ty
Ġthrif ty
Ġtoll ens
Ġmess age
Ġmonstr osities
Ġmild est
Ġmalle ability
Ġmicros cope
Ġfond ness
Ġfost ers
Ġfath om
Ġfool ed
Ġfores ight
Ġnig gardly
Ġnour ishing
Ġeur hioko
Ġeffici ency
Ġebull itions
Ġisland ers
Ġrepr inted
Ġresem bles
Ġresear ches
leag ued
Ġitem s
Ġconstr aining
Ġcongr uent
Ġconquest s
Ġcongrat ulate
Ġdab ble
Ġdig ressions
Ġdang ers
Ġdra ughts
Ġbeckon ing
Ġbefit ting
stud y
stee led
entang le
Ġhur tful
Ġassem bled
theolog ians
theosoph ists
immeasur ably
Ġexpos ure
Ġanch or
Ġangu ish
Ġanatom ist
Ġlog ician
Ġlad der
Ġlun ar
Ġlik ed
Ġlift s
Ġloft iness
Ġlaug hed
Ġsusp ension
Ġgallow s
Ġgestic ulate
ĠImit ation
ĠIdent ification
respon sibilities
Ġproclaim ed
ĠTex as
ĠTyp ic
ĠText s
ĠTrade Mark
ĠTenn essee
veget able
condu ce
charm ing
challen ge
Ġintus susceptionem
Ġdebat able
ambig uity
Ġunass ailable
Ġunten able
Ġungr ateful
Ġunatt ended
Ġuncomp romising
Ġunthink ingly
Ġunsatisf actorily
Ġunri pe
Ġunutter able
Ġuneduc ated
Ġunhes itatingly
Ġuntou ched
Ġunintention al
Ġuneas iness
Ġunwarrant able
Ġunprot ected
Ġunskill ful
depre ciation
delight s
develop ment
degrad ed
minuend ae
Ġcomfor ting
trad es
Ġrout e
Ġrud eness
Ġrick tig
Ġunderto ok
Ġtrail er
Ġvivid ly
Ġvenge ance
Ġvouch safed
Ġpersec ute
Ġpersever ance
Ġimprud ent
Ġimmeasur able
Ġabund antly
Ġabhor rence
prae ceptivae
Ġsyncret istic
Ġheark ened
adminis ters
possident is
suff er
supre mum
indescrib ably
Ġkins folk
ĠFollow ing
ĠFrequ ent
ĠFals us
ĠFlor ida
ĠFranc is
ĠFonten elle
Ġshun ned
Ġshoot s
Ġshrew dness
Ġrelie ving
Ġrelativ a
Ġstag gered
Ġstret ches
pharm acop
Ġconscient iousness
Ġconserv ative
Ġevok ed
Ġjoc ose
Ġjeal ous
Ġjew el
ĠAlex ander
Ġmanufact ures
uncor rupted
uninter ruptedly
unanim ity
unrecogn izable
unyield ingly
Ġadmis sibility
Ġadminis tering
Ġdissol ves
Ġdissim ulation
Ġdisconc ert
Ġdiseng age
Ġdishon est
Ġdisinher it
ĠPOP ULAR
ĠPrep ared
ĠPenn sylvan
ĠPursu ing
Ġpredile ction
Ġprecipit ated
ĠThousand s
Ġchican es
Ġarbit er
Ġarmist ice
ĠSpect ators
ĠSocr ates
solip sismus
Ġphthis is
ĠNev ada
ĠOreg on
elabor ation
elucid ate
elench i
prejud ice
ĠIncert aeque
Ġplast er
ĠWoh l
ĠWyom ing
ĠWalhall a
ĠWashing ton
ĠCoun sels
ĠColumb ia
Ġgrav itation
ĠGeorg ia
serious ly
Ġdespond ing
Ġdespot ic
Ġdesider atum
proxim ate
Ġindefat igably
Ġextrem es
Ġextremit ies
Ġpock et
ĠHob bes
ĠHOP E
Ġenlight enment
Ġenric hed
parallel ism
ĠRATION AL
ĠEduc ation
Ġrealissim a
Ġoutbre ak
synony mous
Ġterrestr ial
Ġamaz ement
ĠDemonstr ations
consentient ia
consummat um
Ġenthus iasm
Ġinvinc ible
necessitat em
Ġheredit ary
Ġheretof ore
Ġinflict s
Ġinflam mable
ĠReven ue
ĠRequire ment
ĠMON EY
ĠMont ana
ĠMED IUM
ĠMOD ALITY
ĠMAD E
ĠMoh ammed
ĠMassachusett s
Ġstrik ingly
Ġstratag em
Ġindustr ious
Ġindulg ent
ĠLeg al
Ġrespond ed
ĠUta h
ĠUndoubted ly
ĠConsid ered
Inno cence
relinqu ish
subreption is
chemist ry
monogram ma
Ġantip athy
Ġantagon ism
Ġcoars est
Ġovergr own
Ġoverbal ance
Ġoverfl ow
Ġovertur ning
ĠAssoci ation
Ġmisfortun es
Ġmiscarri age
ĠAnnihil ate
ĠAnax agoras
Ġsuperfici ality
Ġsuperann uated
Ġbrigh ter
philosoph ize
Allgem einheit
noolog ists
brief ly
ĠUnquestion ably
legitim ation
Ġinsurmount able
Ġfrug ality
Ġfratern al
Ġsurveill ance
ĠVau canson
ĠVermon t
ĠVolta ire
invalid ity
inviol able
ĠKentuck y
Ġgeogra phers
Ġdispassion ate
Ġscru ple
Ġscrup ulousness
confront s
Ġpropaed eutic
Ġindissolu bly
guarante es
Ġadmixt ures
Ġirref utable
inflex ible
Ġglimm er
Ġglimps es
Ġguardians hip
Ġ750 175
Ġcalumni ators
interpol ation
Ġprotuber ance
ĠINCI DENTAL
coacerv atio
Ġhydro chloric
Ġverbi age
Ġanthropomor phists
Ġanthropomorph ically
Ġirrevoc ably
ĠNewslet ters
Ġlaboure rs
Ġlabyrin th
micros copical
ĠIllino is
Ġanimadvers ions
Ġmarionet te
sympat hetic
Ġshipwre ck
Ġtraduc ers
ĠOTHERWIS E
Cheseld en
asympt otic
philaut ia
ĠDEFIN ITION
Ġturbul ent
Ġmillenni um
Ġeffemin ate
Ġunwaver ing
Ġmelanch oly
ĠKNOWLED GE
Montaign e
Oklah oma
Wizenman n
Ġaerumnosique Solones
pharmacop oeia
ĠPennsylvan ia
