{"":0,"\"":1,"!":2,"#":3,"$":4,"%":5,"&":6,"'":7,"(":8,")":9,"*":10,"+":11,",":12,"-":13,".":14,"/":15,"0":16,"1":17,"2":18,"3":19,"4":20,"5":21,"6":22,"7":23,"8":24,"9":25,":":26,";":27,"<":28,"=":29,">":30,"?":31,"@":32,"A":33,"B":34,"C":35,"D":36,"E":37,"F":38,"G":39,"H":40,"I":41,"J":42,"K":43,"L":44,"M":45,"N":46,"O":47,"P":48,"Q":49,"R":50,"S":51,"T":52,"U":53,"V":54,"W":55,"X":56,"Y":57,"Z":58,"[":59,"\\":60,"]":61,"^":62,"_":63,"`":64,"a":65,"b":66,"c":67,"d":68,"e":69,"f":70,"g":71,"h":72,"i":73,"j":74,"k":75,"l":76,"m":77,"n":78,"o":79,"p":80,"q":81,"r":82,"s":83,"t":84,"u":85,"v":86,"w":87,"x":88,"y":89,"z":90,"{":91,"|":92,"}":93,"~":94,"¡":95,"¢":96,"£":97,"¤":98,"¥":99,"¦":100,"§":101,"¨":102,"©":103,"ª":104,"«":105,"¬":106,"®":107,"¯":108,"°":109,"±":110,"²":111,"³":112,"´":113,"µ":114,"¶":115,"·":116,"¸":117,"¹":118,"º":119,"»":120,"¼":121,"½":122,"¾":123,"¿":124,"À":125,"Á":126,"Â":127,"Ã":128,"Ä":129,"Å":130,"Æ":131,"Ç":132,"È":133,"É":134,"Ê":135,"Ë":136,"Ì":137,"Í":138,"Î":139,"Ï":140,"Ð":141,"Ñ":142,"Ò":143,"Ó":144,"Ô":145,"Õ":146,"Ö":147,"×":148,"Ø":149,"Ù":150,"Ú":151,"Û":152,"Ü":153,"Ý":154,"Þ":155,"ß":156,"à":157,"á":158,"â":159,"ã":160,"ä":161,"å":162,"æ":163,"ç":164,"è":165,"é":166,"ê":167,"ë":168,"ì":169,"í":170,"î":171,"ï":172,"ð":173,"ñ":174,"ò":175,"ó":176,"ô":177,"õ":178,"ö":179,"÷":180,"ø":181,"ù":182,"ú":183,"û":184,"ü":185,"ý":186,"þ":187,"ÿ":188,"Ā":189,"ā":190,"Ă":191,"ă":192,"Ą":193,"ą":194,"Ć":195,"ć":196,"Ĉ":197,"ĉ":198,"Ċ":199,"ċ":200,"Č":201,"č":202,"Ď":203,"ď":204,"Đ":205,"đ":206,"Ē":207,"ē":208,"Ĕ":209,"ĕ":210,"Ė":211,"ė":212,"Ę":213,"ę":214,"Ě":215,"ě":216,"Ĝ":217,"ĝ":218,"Ğ":219,"ğ":220,"Ġ":221,"ġ":222,"Ģ":223,"ģ":224,"Ĥ":225,"ĥ":226,"Ħ":227,"ħ":228,"Ĩ":229,"ĩ":230,"Ī":231,"ī":232,"Ĭ":233,"ĭ":234,"Į":235,"į":236,"İ":237,"ı":238,"Ĳ":239,"ĳ":240,"Ĵ":241,"ĵ":242,"Ķ":243,"ķ":244,"ĸ":245,"Ĺ":246,"ĺ":247,"Ļ":248,"ļ":249,"Ľ":250,"ľ":251,"Ŀ":252,"ŀ":253,"Ł":254,"ł":255,"Ń":256,"Ġt":257,"he":258,"Ġa":259,"on":260,"in":261,"Ġo":262,"Ġthe":263,"re":264,"it":265,"Ġof":266,"is":267,"en":268,"at":269,"Ġc":270,"er":271,"Ġw":272,"ion":273,"Ġs":274,"Ġp":275,"Ġin":276,"al":277,"ic":278,"nd":279,"Ġb":280,"es":281,"Ġth":282,"or":283,"Ġto":284,"Ġm":285,"ce":286,"ct":287,"Ġf":288,"ing":289,"an":290,"ed":291,"Ġn":292,"Ġe":293,"se":294,"ou":295,"Ġis":296,"ly":297,"Ġre":298,"le":299,"Ġand":300,"Ġit":301,"ĠĠ":302,"Ġcon":303,"Ġd":304,"Ġbe":305,"st":306,"om":307,"ent":308,"Ġwh":309,"ot":310,"ar":311,"ich":312,"as":313,"ut":314,"ect":315,"Ġh":316,"Ġas":317,"Ġpr":318,"ll":319,"Ġwhich":320,"the":321,"Ġthat":322,"Ġu":323,"iv":324,"ition":325,"im":326,"ation":327,"os":328,"ity":329,"Ġex":330,"Ġan":331,"Ġon":332,"Ġnot":333,"ical":334,"Ġl":335,"pt":336,"ĠĠĠĠ":337,"ject":338,"Ġthis":339,"ess":340,"ow":341,"Ġwe":342,"Ġfor":343,"ith":344,"bject":345,"id":346,"cept":347,"ence":348,"Ġsu":349,"ib":350,"ter":351,"ir":352,"ure":353,"ld":354,"Ġg":355,"Ġwith":356,"th":357,"ĠI":358,"ur":359,"ci":360,"og":361,"qu":362,"ver":363,"ception":364,"res":365,"ist":366,"Ġor":367,"ive":368,"ay":369,"ere":370,"Ġcan":371,"ason":372,"gh":373,"ain":374,"âĢ":375,"and":376,"if":377,"Ġby":378,"ec":379,"sel":380,"per":381,"sib":382,"Ġall":383,"rom":384,"Ġpro":385,"em":386,"ul":387,"Ġobject":388,"pp":389,"ĠT":390,"Ġare":391,"ate":392,"Ġreason":393,"ve":394,"con":395,"ch":396,"Ġfrom":397,"Ġint":398,"hen":399,"ust":400,"end":401,"ore":402,"Ġde":403,"ther":404,"il":405,"Ġbut":406,"ple":407,"Ġal":408,"ossib":409,"us":410,"Ġconception":411,"Ġits":412,"act":413,"Ġha":414,"nder":415,"dition":416,"Ġonly":417,"âĢĶ":418,"am":419,"Ġun":420,"ill":421,"pl":422,"ough":423,"ab":424,"ould":425,"self":426,"aw":427,"de":428,"ans":429,"Ġca":430,"Ġat":431,"ol":432,"Ġ(":433,"ig":434,"um":435,"inci":436,"tain":437,"Ġthere":438,"Ġour":439,"ĠĠĠĠĠĠĠĠ":440,"ies":441,"min":442,"termin":443,"Ġmust":444,"Ġsp":445,"resent":446,"Ġcom":447,"not":448,"tr":449,"Ġlaw":450,"cc":451,"of":452,"Ġpossib":453,"ality":454,"ous":455,"Ġem":456,"ecess":457,"est":458,"Ġr":459,"Ġprinci":460,"Ġexist":461,"Ġunder":462,"Ġso":463,"ience":464,"Ġpure":465,"Ġother":466,"her":467,"Ġme":468,"Ġwor":469,"ide":470,"perience":471,"stand":472,"Ġhave":473,"ime":474,"Ġsen":475,"ogn":476,"omen":477,"Ġdetermin":478,"Ġtr":479,"Ġdo":480,"Ġmere":481,"henomen":482,"Ġcondition":483,"fore":484,"ction":485,"ĠThe":486,"ĠB":487,"use":488,"standing":489,"Ġv":490,"Ġitself":491,"very":492,"ary":493,"Ġnecess":494,"ori":495,"od":496,"ge":497,"Ġper":498,"Ġany":499,"Ġthem":500,"ak":501,"Ġform":502,"uition":503,"Ġwill":504,"Ġmay":505,"Ġno":506,"ound":507,"all":508,"Ġim":509,"Ġthing":510,"pir":511,"Ġtime":512,"Ġab":513,"pr":514,"Ġthey":515,"ard":516,"Ġnat":517,"Ġsy":518,"Ġhe":519,"ad":520,"pos":521,"Ġexperience":522,"ame":523,"pirical":524,"su":525,"iori":526,"Ġreg":527,"ility":528,"ever":529,"able":530,"ace":531,"Ġus":532,"ose":533,"ind":534,"ant":535,"endent":536,"Ġk":537,"ations":538,"Ġcogn":539,"Ġphenomen":540,"ĠF":541,"art":542,"present":543,"Ġcannot":544,"Ġif":545,"Ġsh":546,"ff":547,"out":548,"ex":549,"Ġrel":550,"Ġintuition":551,"Ġqu":552,"ome":553,"Ġse":554,"Ġthese":555,"ĠBut":556,"Ġbeing":557,"Ġpossible":558,"Ġhas":559,"ves":560,"ud":561,"Ġone":562,"Ġst":563,"ph":564,"Ġgiv":565,"ord":566,"Ġpriori":567,"Ġcons":568,"Ġev":569,"Ġide":570,"wh":571,"ance":572,"Ġempirical":573,"actical":574,"Ġj":575,"ĠA":576,"ght":577,"Ãł":578,"Ġman":579,"ansc":580,"Ġacc":581,"our":582,"now":583,"ac":584,"ire":585,"thing":586,"ult":587,"Ġunderstanding":588,"Ġnature":589,"ative":590,"Ġtherefore":591,"one":592,"Ġconceptions":593,"anscendent":594,"Ġapp":595,"nthe":596,"Ġmor":597,"ples":598,"ement":599,"Ġwould":600,"sequ":601,"Ġtheir":602,"Ġsuch":603,"Ġcognition":604,"Ġexistence":605,"ite":606,"ĠÃł":607,"Ġgiven":608,"ca":609,"ĠFor":610,"pon":611,"Ġsubject":612,"selves":613,"position":614,"un":615,"Ġregard":616,"Ġobjects":617,"ute":618,"anscendental":619,"for":620,"ently":621,"Ġad":622,"ally":623,"to":624,"Ġprinciple":625,"Ġdis":626,"ĠP":627,"),":628,"Ġrepresent":629,"ers":630,"Ġmerely":631,"Ġphenomena":632,"Ġpractical":633,"so":634,"which":635,"Ġworld":636,"Ġpre":637,"ong":638,"tical":639,"Ġpart":640,"et":641,"fere":642,"Ġknow":643,"ĠTh":644,"here":645,"Ġwithout":646,"ener":647,"ight":648,"Ġch":649,"Ġy":650,"Ġsynthe":651,"te":652,"feren":653,"tern":654,"str":655,"ment":656,"ions":657,"ict":658,"Ġthings":659,"Ġsame":660,"Ġsome":661,"sis":662,"ertain":663,"ought":664,"Ġmeans":665,"Ġle":666,"cl":667,"gement":668,"sequently":669,"Ġevery":670,"ces":671,"Ġprinciples":672,"hing":673,"Ġar":674,"Ġunity":675,"ake":676,"sp":677,"atter":678,"ĠS":679,"ated":680,"ording":681,"ise":682,"ternal":683,"Ġhow":684,"ress":685,"sol":686,"Ġwhat":687,"ĠĠĠĠĠĠĠĠĠĠĠĠĠĠĠĠ":688,"Ġmy":689,"Ġnecessary":690,"ie":691,"Ġmoral":692,"udgement":693,"ays":694,"Ġsub":695,"Ġwho":696,"Ġph":697,"Ġeven":698,"ppos":699,"led":700,"ens":701,"Ġcase":702,"cause":703,"Ġser":704,"fin":705,"ness":706,"ĠN":707,"that":708,"eneral":709,"ĠO":710,"el":711,"Ġrelation":712,"though":713,"oy":714,"Ġthan":715,"imit":716,"phy":717,"int":718,"possib":719,"Ġhis":720,"ag":721,"Ġmore":722,"mat":723,"Ġcontain":724,"pre":725,"condition":726,"solute":727,"op":728,"ced":729,"Ġlaws":730,"Ġne":731,"Ġtranscendental":732,"Ġidea":733,"nect":734,"ree":735,"Ġbecause":736,"Ġdif":737,"ĠIn":738,"Ġconditions":739,"Ġfar":740,"Ġpresent":741,"Ġdoes":742,"Ġalso":743,"ways":744,"du":745,"Ġupon":746,"Ġnothing":747,"Ġcomple":748,"iz":749,"Ġcertain":750,"Ġaction":751,"ecul":752,"Ġpl":753,"Ġma":754,"ledge":755,"be":756,"Ġcont":757,"Ġcaus":758,"Ġjudgement":759,"oll":760,"Ġpossibility":761,"ilos":762,"Ġbel":763,"ollow":764,"ĠIt":765,"ulty":766,"cious":767,"ber":768,"ogical":769,"Ġproposition":770,"hether":771,"ond":772,"Ġaccording":773,"Ġinto":774,"Ġspace":775,"ĠW":776,"Ġsense":777,"Ġcause":778,"gor":779,"ategor":780,"Ġnever":781,"ort":782,"ffect":783,"Ġwhen":784,"Ġuse":785,"Ġgeneral":786,"reat":787,"Ġmo":788,"ue":789,"Ġconsequently":790,"Ġthen":791,"ploy":792,"Ġthought":793,"ĠC":794,"Ġcontr":795,"irst":796,"Ġgr":797,"The":798,"Ġabsolute":799,"Ġalone":800,"uch":801,"Ġend":802,"Ġlimit":803,"Ġseries":804,"ĠG":805,"conception":806,"ational":807,"old":808,"rit":809,"Ġproper":810,"Ġthemselves":811,"Ġalways":812,"ign":813,"Ġconnect":814,"ither":815,"ates":816,"ial":817,"ism":818,"Ġfound":819,"ast":820,"Ġfac":821,"Ġrequ":822,"ser":823,"Ġsay":824,"stem":825,"Ġfollow":826,"Ġpos":827,"form":828,"Ġob":829,"possible":830,"are":831,"Ġgo":832,"Ġdist":833,"ivers":834,"Ġcould":835,"Ġow":836,"me":837,"Ġcomm":838,"Ġhim":839,"ari":840,"Ġknowledge":841,"âĢľ":842,"âĢĿ":843,"Ġshould":844,"Ġalthough":845,"Ġown":846,"Ġemploy":847,"Ġquest":848,"Ġdes":849,"com":850,"Ġcall":851,"pro":852,"Ġfirst":853,"fect":854,"Ġphilos":855,"Ġdifferen":856,"Ġobjective":857,"Ġwas":858,"other":859,"Ġbeen":860,"Ġconsid":861,"Ġrem":862,"ink":863,"ish":864,"spect":865,"ach":866,"ĠNow":867,"Ġsynthesis":868,"Ġcomplete":869,"ici":870,"with":871,"Ġdisc":872,"Ġrespect":873,"reed":874,"Ġexam":875,"ered":876,"Ġinde":877,"ine":878,"Ġcategor":879,"Ġpur":880,"reedom":881,"Ġwhether":882,"Ġext":883,"ied":884,"Ġthus":885,"Ġfaculty":886,"Ġrational":887,"suous":888,"Ġbelong":889,"ĠâĢľ":890,"der":891,"Ġpo":892,"ĠThis":893,"ĠH":894,"ro":895,"we":896,"Ġreality":897,"Ġformer":898,"Ġsystem":899,"uth":900,"dic":901,"Ġact":902,"under":903,"ination":904,"Ġsomething":905,"sess":906,"Ġvery":907,"Ġhapp":908,"Ġval":909,"Ġorder":910,"ciousness":911,"Ġsci":912,"Ġplace":913,"Ġlatter":914,"Ġmake":915,"Ġfe":916,"Ġwere":917,"Ġhowever":918,"eculative":919,"Ġground":920,"less":921,"Ġag":922,"mit":923,"over":924,"med":925,"uman":926,"Ġwhole":927,"stit":928,"by":929,"Ġthose":930,"Ġcausality":931,"Ġeffect":932,"Ġen":933,"Ġnecessity":934,"par":935,"Ġfind":936,"pose":937,"xim":938,"iness":939,"Ġthink":940,"adict":941,"Ġunivers":942,"object":943,"ĠR":944,"wo":945,"Ġquestion":946,"aly":947,"Ġpres":948,"exist":949,"ell":950,"ics":951,"rough":952,"Ġfreedom":953,"igin":954,"ĠE":955,"Ġyou":956,"ha":957,"Ġreal":958,"Ġout":959,"Ġsensib":960,"sy":961,"Ġpossess":962,"Ġgood":963,"Ġrepresentation":964,"Ġsubst":965,"Ġappl":966,"Ġexp":967,"Ġter":968,"Ġam":969,"Ġprodu":970,"ke":971,"ear":972,"ty":973,"ual":974,"ile":975,"Ġhuman":976,"Ġmanif":977,"ophy":978,"Ġsynthetical":979,"Ġmind":980,"Ġjust":981,"ogit":982,"arily":983,"reason":984,"Ġsensuous":985,"ĠIf":986,"Ġperfect":987,"man":988,"Ġsim":989,"Ġdetermined":990,"Ġass":991,"Ġcrit":992,"ove":993,"Ġdifferent":994,"Ġpow":995,"Ġdut":996,"preme":997,"av":998,"this":999,"Ġtwo":1000,"Ġatt":1001,"Ġinternal":1002,"Ġmat":1003,"edu":1004,"Ġperception":1005,"sen":1006,"ceed":1007,"Ġyet":1008,"ication":1009,"Ġmaxim":1010,"Ġsphere":1011,"ible":1012,"phys":1013,"Ġname":1014,"Ġthrough":1015,"ident":1016,"ural":1017,"ĠD":1018,"ule":1019,"ory":1020,"Ġvalid":1021,"hemat":1022,"oun":1023,"Ġgreat":1024,"Ġfact":1025,").":1026,"Ġspeculative":1027,"Ġideas":1028,"conditioned":1029,"ble":1030,"ike":1031,"ang":1032,"ological":1033,"understanding":1034,"Ġsec":1035,"lect":1036,"lf":1037,"ishe":1038,"Ġscience":1039,"ived":1040,"Ġorigin":1041,"Ġbas":1042,"uten":1043,"cogn":1044,"Ġshall":1045,"iew":1046,"determin":1047,"Ġdetermination":1048,"cons":1049,"Ġent":1050,"ffici":1051,"berg":1052,"Ġcalled":1053,"utenberg":1054,"Ġ_":1055,"ass":1056,"Ġword":1057,"ok":1058,"ince":1059,"Ġimp":1060,"erest":1061,"aract":1062,"Ġself":1063,"yond":1064,"ution":1065,"aracter":1066,"Ġcor":1067,"finite":1068,"ange":1069,"there":1070,"ular":1071,"Ġphenomenon":1072,"ĠWe":1073,"Ġduty":1074,"Ġconstit":1075,"princi":1076,"Ġexample":1077,"Ġmode":1078,"usion":1079,"Ġrule":1080,"Ġconsciousness":1081,"Ġexternal":1082,"Ġwork":1083,"Ġinv":1084,"Ġsubjective":1085,"ook":1086,"Ġview":1087,"Ġincl":1088,"Th":1089,"Ġeach":1090,"ĠPro":1091,"Ġcogit":1092,"Ġquant":1093,"Ġabsolutely":1094,"Ġhig":1095,"Ġphilosophy":1096,"ark":1097,"Ġmanifold":1098,"oth":1099,"Ġpoint":1100,"Ġpurpose":1101,"rib":1102,"necess":1103,"ice":1104,"ful":1105,"ved":1106,"Ġimpossible":1107,"Ġnatural":1108,"Ġhere":1109,"Ġstill":1110,"Ġsens":1111,"yp":1112,"Ġanother":1113,"ogy":1114,"iate":1115,"Ġnecessarily":1116,"ents":1117,"Ġfeel":1118,"can":1119,"ner":1120,"Ġconnection":1121,"Ġcategories":1122,"Ġshow":1123,"Ġbet":1124,"Ġwhile":1125,"sion":1126,"ted":1127,"Ġdetermine":1128,"Ġexpl":1129,"experience":1130,"Ġbeyond":1131,"Ġinf":1132,"ccess":1133,"ern":1134,"Ġquite":1135,"Ġadmit":1136,"action":1137,"eci":1138,"aphys":1139,"Ġcontains":1140,"Ġap":1141,"phenomen":1142,"wise":1143,"ating":1144,"Ġnor":1145,"Ġleast":1146,"Ġuniversal":1147,"Ġlike":1148,"Ġpower":1149,"ances":1150,"Ġintell":1151,"Ġstate":1152,"ĠRe":1153,"Ġintellig":1154,"Ġgive":1155,"Ġway":1156,"Ġrequire":1157,"Ġhimself":1158,"ires":1159,"Ġest":1160,"Ġeither":1161,"Ġrepresentations":1162,"Ġwell":1163,"Ġourselves":1164,"irect":1165,"Ġkind":1166,"Ġhand":1167,"gin":1168,"Ġanaly":1169,"Ġlimits":1170,"Ġconsider":1171,"Ġdem":1172,"Ġcharacter":1173,"Ġindeed":1174,"Ġproceed":1175,"Ġinterest":1176,"Ġappear":1177,"ught":1178,"Ġconc":1179,"Ġactions":1180,"abl":1181,"Ġnamely":1182,"ĠM":1183,"Ġwhere":1184,"ĠProject":1185,"ingu":1186,"Ġdiv":1187,"age":1188,"atis":1189,"its":1190,"Ġrest":1191,"Ġfollows":1192,"Ġstr":1193,"Ġdetermining":1194,"ize":1195,"much":1196,"pposition":1197,"conceptions":1198,"Ġterm":1199,"Ġcontrary":1200,"But":1201,"tic":1202,"Ġref":1203,"Ġdedu":1204,"Ġmatter":1205,"ys":1206,"Ġconcl":1207,"empt":1208,"Ġcontradict":1209,"existence":1210,"ĠGutenberg":1211,"Ġparts":1212,"app":1213,"ĠThus":1214,"Ġsensibility":1215,"Ġproof":1216,"Ġhappiness":1217,"Ġcommon":1218,"Ġsubstance":1219,"ished":1220,"fficient":1221,"Ġtruth":1222,"atisf":1223,"reg":1224,"ences":1225,"Ġremain":1226,"Ġsecond":1227,"Ġind":1228,"Ġadv":1229,"Ġboth":1230,"othe":1231,"gum":1232,"ference":1233,"Ġcomp":1234,"Ġsee":1235,"ology":1236,"Ġbegin":1237,"akes":1238,"mediate":1239,"Ġlogical":1240,".,":1241,"Ġassum":1242,"Ġnotion":1243,"Ġsum":1244,"contr":1245,"Ġtrue":1246,"Ġdec":1247,"ĠL":1248,"intuition":1249,"ypothe":1250,"pendent":1251,"Ġmet":1252,"Ġmorality":1253,"Ġtot":1254,"asmuch":1255,"Ġmanner":1256,"Ġfree":1257,"Ġpresu":1258,"from":1259,"fter":1260,"Ġought":1261,"Ġtake":1262,"represent":1263,"Ġdistin":1264,"ĠReason":1265,"ably":1266,"ev":1267,"Ġpredic":1268,"lu":1269,"icular":1270,"Ġregards":1271,"ring":1272,"Ġcontent":1273,"Ġquantity":1274,"ceive":1275,"Ġhad":1276,"ious":1277,"ra":1278,"ween":1279,"ten":1280,"osm":1281,"Ġconsist":1282,"Ġexpress":1283,"stru":1284,"icism":1285,"Ġres":1286,"lear":1287,"Ġunconditioned":1288,"Ġmost":1289,"fic":1290,"Ġ1":1291,"Ġsupreme":1292,"Ġfoundation":1293,"ĠU":1294,"sible":1295,"Ġill":1296,"irm":1297,"Ġfeeling":1298,"ited":1299,"Ġmight":1300,"Ġbefore":1301,"Ġconf":1302,"Ġconditioned":1303,"Ġmade":1304,"Ġjudgements":1305,"ĠCon":1306,"Ġmuch":1307,"Ġregarded":1308,"Ġaff":1309,"Ġconsidered":1310,"und":1311,"ogic":1312,"aid":1313,"Ġmathemat":1314,"ost":1315,"oid":1316,"onstr":1317,"Ġsince":1318,"Ġdiscover":1319,"but":1320,"Ġattain":1321,"ision":1322,"ceived":1323,"Ġsupp":1324,"Ġsuccess":1325,"Ġexists":1326,"empirical":1327,"pond":1328,"ER":1329,"Ġnow":1330,"Ġaim":1331,"estig":1332,"ĠAnd":1333,"respond":1334,"Ġbeings":1335,"unction":1336,"In":1337,"ving":1338,"ives":1339,"pposed":1340,"Ġphys":1341,"ĠOf":1342,"Ġ[":1343,"Ġregress":1344,"pend":1345,"hest":1346,"rel":1347,"Ġdirect":1348,"Ġabove":1349,"ĠOn":1350,"Ġbetween":1351,"Ġsimple":1352,"Ġmot":1353,"ma":1354,"lement":1355,"Ġproble":1356,"perception":1357,"Ġpropositions":1358,"acc":1359,"Ġargum":1360,",âĢĿ":1361,"Ġdeg":1362,"Ġcl":1363,"ules":1364,"Ġstand":1365,"Ġable":1366,"Ġhypothe":1367,"cise":1368,"ward":1369,"Ġothers":1370,"know":1371,"Ġthough":1372,"Ġconform":1373,"ized":1374,"ene":1375,"Ġchange":1376,"oub":1377,"Ġcognitions":1378,"ĠPure":1379,"ialect":1380,"Ġclear":1381,"pable":1382,"ning":1383,"only":1384,"sert":1385,"cognition":1386,"sub":1387,"Ġarr":1388,"iqu":1389,"Ġup":1390,"them":1391,"aken":1392,"Ġset":1393,"atic":1394,"Ġsatisf":1395,"principle":1396,"Ġconcept":1397,"Ġsour":1398,"Ġinasmuch":1399,"Ġimag":1400,"nat":1401,"ath":1402,"Ġocc":1403,"Ġinfinite":1404,"Ġmany":1405,"Ġextend":1406,"phenomena":1407,"tm":1408,"asure":1409,"theless":1410,"Ġcompletely":1411,"sw":1412,"son":1413,"Ġansw":1414,"EN":1415,"OO":1416,"wor":1417,"Ġrules":1418,"Ġestabl":1419,"utes":1420,"matical":1421,"Ġemployed":1422,"Ġbased":1423,"read":1424,"Ġdefin":1425,"Ġagain":1426,"Ġpresented":1427,"Ġcauses":1428,"Ġdistingu":1429,"omy":1430,"ignif":1431,"Ġnum":1432,"being":1433,"crib":1434,"Ġright":1435,"Ġconcern":1436,"Ġder":1437,"Ġmyself":1438,"certain":1439,"Ġhighest":1440,"dis":1441,"ique":1442,"thod":1443,"odu":1444,"Ġanything":1445,"ection":1446,"Ġsole":1447,"Ġafter":1448,"Ġconsequ":1449,"therefore":1450,"Ġworth":1451,"opher":1452,"Ġentire":1453,"Ġmetaphys":1454,"TI":1455,"Ġobser":1456,"red":1457,"Ġbelongs":1458,"Ġple":1459,"Ġparticular":1460,"Ġmod":1461,"Ġel":1462,"Ġimmediate":1463,"ON":1464,"Ġexer":1465,"oretical":1466,"Ġconnected":1467,"ount":1468,"ude":1469,"ental":1470,"practical":1471,"Ġintuitions":1472,"Ġseem":1473,"Ġdesire":1474,"ather":1475,"Ġemployment":1476,"avour":1477,"che":1478,"Ġapplication":1479,"necessary":1480,"It":1481,"must":1482,"ife":1483,"Ġconting":1484,"Ġtotality":1485,"raph":1486,"tle":1487,"ention":1488,"Ġrequires":1489,"Ġvalidity":1490,"Ġindic":1491,"agraph":1492,"Ġresult":1493,"ps":1494,"Ġeverything":1495,"Ġneed":1496,"Ġreally":1497,"Ġlogic":1498,"Ġaccord":1499,"law":1500,"Ġimper":1501,"Ġleg":1502,"Ġgu":1503,"trib":1504,"mon":1505,"Ġac":1506,"Ġwant":1507,"mere":1508,"Ġfur":1509,"luence":1510,"Ġbod":1511,"ĠGod":1512,"Ġattempt":1513,"Ġcontained":1514,"Ġgrounds":1515,"ourse":1516,"Ġfin":1517,"Ġneg":1518,"hence":1519,"conditions":1520,"Ġinvestig":1521,"oul":1522,"Ġcorrespond":1523,"err":1524,"cont":1525,"cy":1526,"transcendental":1527,"possibility":1528,"ides":1529,"Ġperson":1530,"subject":1531,"irt":1532,"Ġremark":1533,"Ġlife":1534,"ĠĠĠĠĠĠĠĠĠĠĠĠĠĠĠĠĠĠĠĠĠĠĠĠ":1535,"Ġintelligible":1536,"Ġrelations":1537,"Ġperman":1538,"Ġelement":1539,"Ġassert":1540,"Ġmaxims":1541,"contradict":1542,"itself":1543,"Ġmean":1544,"without":1545,"Ġdegree":1546,"how":1547,"mum":1548,"Ġmain":1549,"unity":1550,"Ġnew":1551,"ane":1552,"come":1553,"Ġant":1554,"ĠTH":1555,"This":1556,"Ġsenses":1557,"Ġrather":1558,"part":1559,"Ġthereby":1560,"OOK":1561,"ctr":1562,"synthe":1563,"mis":1564,"onum":1565,"Ġnon":1566,"Ġeas":1567,"Ġsystematic":1568,"Ġside":1569,"oubt":1570,"Ġco":1571,"ogress":1572,"Ġends":1573,"Ġwords":1574,");":1575,"raw":1576,"Ġread":1577,"Ġdemonstr":1578,"aim":1579,"ĠThat":1580,"ase":1581,"Ġmethod":1582,"Ġabstr":1583,"ension":1584,"Ġimport":1585,"Ġphilosopher":1586,"If":1587,"lig":1588,"Ġanswer":1589,"We":1590,"do":1591,"Ġsignif":1592,"Ġotherwise":1593,"BOOK":1594,"Ġdog":1595,"Ġformal":1596,"Ġremains":1597,"ready":1598,"ep":1599,"pect":1600,"aking":1601,"Â§":1602,"duct":1603,"bec":1604,"Ġcop":1605,"Ġthinking":1606,"Ġperfectly":1607,"go":1608,"Ġlong":1609,"Ġneither":1610,"Ġentirely":1611,"Ġmem":1612,"Ġbelie":1613,"AL":1614,"erial":1615,"ranscendental":1616,"Ġsoul":1617,"Ġphysical":1618,"ily":1619,"Ġsol":1620,"Ġerr":1621,"Ġnumber":1622,"arr":1623,"Ġhence":1624,"Ġvirt":1625,"Ġcontin":1626,"ities":1627,"ises":1628,"Ġless":1629,"osmological":1630,"Ġ\"":1631,"Ġequ":1632,"hension":1633,"Ġideal":1634,"Ġindependent":1635,"anation":1636,"Ġproblem":1637,"ided":1638,"ĠHence":1639,"'s":1640,"isl":1641,"Ġbasis":1642,"Ġaccordance":1643,"iar":1644,"Ġover":1645,"atever":1646,"Ġattrib":1647,"AP":1648,"although":1649,"Ġexcept":1650,"Ġgives":1651,"Ġcommand":1652,"Ġbonum":1653,"Ġhold":1654,"priori":1655,"Ġcogitated":1656,"Ġmen":1657,"comple":1658,"bit":1659,"Ġappre":1660,"Ġsaid":1661,"ĠThere":1662,"Ġproperly":1663,"CH":1664,"men":1665,"Ġspeci":1666,"ency":1667,"mall":1668,"Ġbound":1669,"ĠII":1670,"Ġpreced":1671,"Ġdiffic":1672,"Ġpost":1673,"nature":1674,"ause":1675,"ually":1676,"Ġinqu":1677,"Ġbeginning":1678,"Ġbecome":1679,"ĠPr":1680,"Ġexplain":1681,"Ġprev":1682,"ov":1683,"Ġinfluence":1684,"Ġever":1685,"Ġalready":1686,"Ġforms":1687,"Ġher":1688,"Ġsufficient":1689,"eculiar":1690,"Ġdistinction":1691,"Ġident":1692,"Ġtoo":1693,"Ġdialect":1694,"Ġtaken":1695,"ĠSu":1696,"ĠOF":1697,"Ġdeduction":1698,"time":1699,"rect":1700,"Ġpass":1701,"lectual":1702,"TER":1703,"Ġrender":1704,"ases":1705,"Ġaccount":1706,"paragraph":1707,"Ġexercise":1708,"Ġdetermines":1709,"Ġapply":1710,"Ġconduct":1711,"pure":1712,"any":1713,"uthor":1714,"objects":1715,"consequently":1716,"ĠAs":1717,"cedure":1718,"Ġtheoretical":1719,"Ġprogress":1720,"Ġlimited":1721,".âĢĿ":1722,"mor":1723,"Ġ^":1724,"Ġ{":1725,"Ġdoubt":1726,"Ġsummum":1727,"ck":1728,"consciousness":1729,"Ġpredicate":1730,"Ġinst":1731,"Ġcognize":1732,"Ġchang":1733,"ail":1734,"Ġden":1735,"ĠBe":1736,"Ġconstru":1737,"Ġaffect":1738,"dom":1739,"Ġprove":1740,"Ġmaterial":1741,"Ġelse":1742,"Now":1743,"Ġconsists":1744,"APTER":1745,"Ġcourse":1746,"Ġlies":1747,"Ġsensible":1748,"Ġproduce":1749,"Ġvirtue":1750,"ob":1751,"up":1752,"Ġess":1753,"Ġhar":1754,"Ġnevertheless":1755,"will":1756,"ulties":1757,"Ġexpect":1758,"Ġimagination":1759,"Ġapplied":1760,"cannot":1761,"ode":1762,"Ġlook":1763,"Ġprov":1764,"Ġpeculiar":1765,"Ġmis":1766,"Ġhop":1767,"pposite":1768,"because":1769,"Ġerror":1770,"_,":1771,"Ġfall":1772,"ĠĠĠ":1773,"these":1774,"Ġconscious":1775,"Ġ2":1776,"Ġabout":1777,"itive":1778,"Ġgener":1779,"Ġdivision":1780,"Ġpleasure":1781,"ctrine":1782,"Ġoblig":1783,"Ġmakes":1784,"regard":1785,"CHAPTER":1786,"uted":1787,"irc":1788,"Ġquestions":1789,"sych":1790,"Ġargument":1791,"ĠTHE":1792,"dist":1793,"they":1794,"Ġvari":1795,"Ġsolely":1796,"Ġallow":1797,"Ġdepend":1798,"Ġexisting":1799,"Ġut":1800,"inations":1801,"ability":1802,"Ġhigher":1803,"merely":1804,"For":1805,"Ġaffirm":1806,"gr":1807,"ties":1808,"Ġdifference":1809,"antage":1810,"Ġop":1811,"ogism":1812,"ppose":1813,"Ġcapable":1814,"have":1815,"Ġhappens":1816,"principles":1817,"Ġdraw":1818,"oundation":1819,"Book":1820,"Ġfal":1821,"Ġconj":1822,"Ġassume":1823,"Ġunderstand":1824,"Ġfollowing":1825,"overed":1826,"Ġwhose":1827,"dequ":1828,"ext":1829,"Ġshown":1830,"Ġaw":1831,"connect":1832,"Ġexplanation":1833,"Ġcontradiction":1834,"Ġaid":1835,"chema":1836,"Ġmaintain":1837,"sensible":1838,"absolute":1839,"ĠAn":1840,"ont":1841,"Ġprom":1842,"Ġpurely":1843,"Ġaddition":1844,"Ġrepresented":1845,"ield":1846,"Ġcategory":1847,"teness":1848,"Ġillusion":1849,"oumen":1850,"Ġsuper":1851,"Ġreference":1852,"Ġwithin":1853,"Ġspe":1854,"Ġevident":1855,"Ġanalytical":1856,"Ġpermanent":1857,"Ġwhatever":1858,"ĠĠĠĠĠĠĠĠĠĠĠĠĠĠĠĠĠĠĠĠĠĠĠĠĠĠĠĠĠĠĠĠĠĠĠĠĠĠĠĠ":1859,"io":1860,"would":1861,"inte":1862,"Ġintel":1863,"Ġeffects":1864,"Ġpath":1865,"Ġprocedure":1866,"Ġcertainly":1867,"dif":1868,"some":1869,"ined":1870,"imate":1871,"wards":1872,"ĠBeing":1873,"Ġsmall":1874,"their":1875,"Ġcogitate":1876,"whether":1877,"Ġadd":1878,"objective":1879,"Ġsubstances":1880,"Ġimperative":1881,"Ġlegisl":1882,"Ġcopy":1883,"Ġtermed":1884,"ave":1885,"ĠTranscendental":1886,"Ġsensation":1887,"giv":1888,"sim":1889,"Ġende":1890,"Ġfalse":1891,"bl":1892,"dequate":1893,"Ġes":1894,"Ġcirc":1895,"Ġdid":1896,"Ġrelate":1897,"relation":1898,"Ġharmon":1899,"Ġperceptions":1900,"representations":1901,"according":1902,"Ġcontingent":1903,"Ġi":1904,"onic":1905,"requ":1906,"Ġsource":1907,"ne":1908,"Ġwish":1909,"Ġund":1910,"every":1911,"ia":1912,"ulative":1913,"Ġempirically":1914,"hib":1915,"Ġbr":1916,"Ġyour":1917,"Ġinclinations":1918,"Ġhypothesis":1919,"ull":1920,"Ġintellectual":1921,"**":1922,"Ġfunction":1923,"posed":1924,"ĠSupreme":1925,"Ġopposite":1926,"what":1927,"haps":1928,"Ġimmediately":1929,"orough":1930,"Ġdeterminations":1931,"ĠTo":1932,"ĠThey":1933,"strict":1934,"Ġextension":1935,"Ġconclusion":1936,"Ġav":1937,"Ġschema":1938,"usions":1939,"proposition":1940,"Ġdemand":1941,"categor":1942,"Ġagainst":1943,"cing":1944,"ni":1945,"yn":1946,"Ġsing":1947,"ack":1948,"Ġnegative":1949,"Ġapprehension":1950,"sist":1951,"Ġtreat":1952,"imes":1953,"pposes":1954,"Ġapperception":1955,"oment":1956,"poses":1957,"determination":1958,"cor":1959,"Ġdone":1960,"Ġdefinition":1961,"Ġhope":1962,"amental":1963,"ritique":1964,"undamental":1965,"ĠÂ§":1966,"ential":1967,"Ġrelates":1968,"sensuous":1969,"Ġseek":1970,"complete":1971,"lar":1972,"ting":1973,"Ġcertainty":1974,"Ġmathematics":1975,"Ġconsequence":1976,"Ġfurther":1977,"Ġinquir":1978,"Ġjud":1979,"Ġworks":1980,"themselves":1981,"judgement":1982,"Ġthereof":1983,"things":1984,"Ġthree":1985,"etaphys":1986,"Ġjustif":1987,"philos":1988,"Ġbody":1989,"Ġchanges":1990,"Ġoper":1991,"ĠeBook":1992,"Ġintr":1993,"Ġintu":1994,"ĠAll":1995,"Ġinclination":1996,"ĠConsequently":1997,"Ġconformity":1998,"Ġendeavour":1999,"RE":2000,"reement":2001,"idence":2002,"Ġseems":2003,"ittle":2004,"erse":2005,"Ġamong":2006,"les":2007,"Ġevent":2008,"Ġproperties":2009,"ignor":2010,"disc":2011,"ĠY":2012,"onomy":2013,"urn":2014,"Ġcriter":2015,"Ġclaim":2016,"Ġbring":2017,"ird":2018,"consid":2019,"Ġdistinct":2020,"Ġmathematical":2021,"knowledge":2022,".[":2023,"limit":2024,"right":2025,"Ġfut":2026,"lection":2027,"ogene":2028,"Ġabs":2029,"Ġaccordingly":2030,"Ġproperty":2031,"happ":2032,"Ġpossesses":2033,"lectr":2034,"Ġadvantage":2035,"Ġeasily":2036,"ix":2037,"Ġlie":2038,"own":2039,"Ġcorrect":2040,"Ġrests":2041,"Ġvol":2042,"hat":2043,"Ġce":2044,"Ġthorough":2045,"Ġconv":2046,"Ġdiscovered":2047,"ynam":2048,"ses":2049,"ption":2050,"call":2051,"Ġanal":2052,"such":2053,"Ġpret":2054,"Ġserve":2055,"even":2056,"Ġsuccession":2057,"All":2058,"ead":2059,"ply":2060,"ache":2061,"Ġobtain":2062,"Ġextent":2063,"Ġperfection":2064,"subst":2065,"moral":2066,"ised":2067,"Ġbelonging":2068,"ether":2069,"gan":2070,"ior":2071,"no":2072,"tog":2073,"Ġdynam":2074,"Ġvalue":2075,"together":2076,"nt":2077,"oph":2078,"llig":2079,"Ġante":2080,"Ġcriticism":2081,"Ġinfin":2082,"Ġdoctrine":2083,"ared":2084,"ishes":2085,"Ġcontinu":2086,"given":2087,"inde":2088,"Ġnoumen":2089,"imal":2090,"Ġte":2091,"Ġmoment":2092,"ivid":2093,"Ġspring":2094,"Ġinvestigation":2095,"AN":2096,"ood":2097,"Ġdeterminate":2098,"Ġinvol":2099,"ap":2100,"fer":2101,"always":2102,"uded":2103,"Ġexpression":2104,"Ġmember":2105,"Ġcases":2106,"Ġcompar":2107,"ensive":2108,"proc":2109,"hil":2110,"llogism":2111,"Ġdynamical":2112,"Ġignor":2113,"esides":2114,"asion":2115,"Ġlittle":2116,"Ġactual":2117,"Ġinfer":2118,"Ġconceive":2119,"ĠThese":2120,"Ġcho":2121,"ĠHe":2122,"Ġcritical":2123,"Ġproved":2124,"aces":2125,"Ġfuture":2126,"br":2127,"Ġhaving":2128,"Ġdisposition":2129,"Ġpowers":2130,"Ġderived":2131,"Ġdifficulty":2132,"Ġmed":2133,"Ġspont":2134,"Ġknown":2135,"Ġlead":2136,"Ġsuccessive":2137,"Ġdistinguish":2138,"bitr":2139,"Ġspontane":2140,"00":2141,"EC":2142,"Ġnay":2143,"exam":2144,"Ġelements":2145,"hend":2146,"Ġagreement":2147,"may":2148,"where":2149,"Ġpar":2150,"ordin":2151,"Ġask":2152,"iverse":2153,"ĠIde":2154,"Ġconstitutes":2155,"Ġanalysis":2156,"Ġstrict":2157,"world":2158,"Ġmetaphysics":2159,"does":2160,"Ġsolution":2161,"Ġauthor":2162,"ferent":2163,"Ġrequis":2164,"Ġdistrib":2165,"ĠEx":2166,"Ġterms":2167,"lectronic":2168,"atement":2169,"Ġcorresponding":2170,"intellig":2171,"Ġanteced":2172,"Ġcognized":2173,"Ġapart":2174,"ĠUn":2175,"peci":2176,"Ġcompleteness":2177,"ĠĠĠĠĠĠĠĠĠĠĠĠĠĠĠĠĠĠĠĠĠĠĠĠĠĠĠĠĠĠĠĠĠĠĠĠĠĠĠĠĠ":2178,"pres":2179,"sh":2180,"inomy":2181,"Ġsupposed":2182,"ended":2183,"Ġarises":2184,"Ġestablished":2185,"Ġprevious":2186,"representation":2187,"nit":2188,"pens":2189,"Ġsch":2190,"Ġexhib":2191,"ilar":2192,"Ġsources":2193,"IS":2194,"ower":2195,"ĠFoundation":2196,"however":2197,"ech":2198,"Ġarguments":2199,"Ġestablish":2200,"Ġpreceding":2201,"Ġtoge":2202,"Ġfield":2203,"sufficient":2204,"synthetical":2205,"Ġtogether":2206,"Ġcomb":2207,"Ġregulative":2208,"Ġdogmatical":2209,"Ġsingle":2210,"never":2211,"Ġcosmological":2212,"Ġprof":2213,"Ġpresents":2214,"Ġcategorical":2215,"Ġrequired":2216,"Ġsupport":2217,"Ġmeaning":2218,"ividual":2219,"des":2220,"just":2221,"ĠCritique":2222,"Ġdiscus":2223,"general":2224,"Ġconceived":2225,"Ġexcl":2226,"quest":2227,"Ġtrans":2228,"Ġaims":2229,"Ġoccup":2230,"Ġdialectical":2231,"AR":2232,"Ġful":2233,"ask":2234,"Ġvain":2235,"ety":2236,"ĠĠĠĠĠĠĠĠĠĠĠĠĠĠĠĠĠĠĠĠ":2237,"Ġuniversality":2238,"bel":2239,"itum":2240,"Ġcompre":2241,"ĠSuch":2242,"Ġrecogn":2243,"leg":2244,"Ġperhaps":2245,"Thus":2246,"Ġabstract":2247,"Ġthird":2248,"Ġopposition":2249,"Ġet":2250,"Ġfaculties":2251,"TION":2252,"rational":2253,"nothing":2254,"Ġlikewise":2255,"Ġbecom":2256,"Ġvoid":2257,"space":2258,"Ġenough":2259,"Section":2260,"pur":2261,"Ġins":2262,"ivity":2263,"Ġsupposition":2264,"Ġproduced":2265,"Ġconstruct":2266,"sychology":2267,"ogeneous":2268,"follow":2269,"rem":2270,"Ġfr":2271,"iving":2272,"istic":2273,"who":2274,"caus":2275,"elled":2276,"Ġobserv":2277,"fe":2278,"ising":2279,"arn":2280,"Ġhel":2281,"Ġregarding":2282,"Ġrequisite":2283,"row":2284,"inion":2285,"Ġonce":2286,"Ġarise":2287,"proper":2288,"appl":2289,"appear":2290,"Ġmotive":2291,"Ġconjunction":2292,"most":2293,"Ġtakes":2294,"Ġpain":2295,"Ġsur":2296,"Ġconstitution":2297,"II":2298,"ft":2299,"Ġ3":2300,"thought":2301,"ĠSp":2302,"Ġdesign":2303,"sense":2304,"Ġappearance":2305,"Ġdirectly":2306,"nihil":2307,"ophical":2308,"Ġcome":2309,"Ġcritique":2310,"Ġaffected":2311,"Ġintrodu":2312,"Ġbl":2313,"Ġaltogether":2314,"abour":2315,"Ġstates":2316,"ĠSection":2317,"eculation":2318,"Ġmanifest":2319,"Ġintelligence":2320,"Ġpredicates":2321,"Ġreader":2322,"ctive":2323,"Ġapode":2324,"Ġabstraction":2325,"bers":2326,"respect":2327,"Ġgreatest":2328,"Ġsuppose":2329,"called":2330,"name":2331,"icable":2332,"ific":2333,"ccording":2334,"ensions":2335,"Ġbetter":2336,"ĠConception":2337,"something":2338,"ines":2339,"Ġfore":2340,"Ġline":2341,"atively":2342,"means":2343,"Ġdestr":2344,"Ġrefer":2345,"Ġimportance":2346,"Ġcriterion":2347,"att":2348,"determined":2349,"phenomenon":2350,"ĠPrinci":2351,"dem":2352,"oc":2353,"quant":2354,"Ġorgan":2355,"Ġmoreover":2356,"Ġsatisfaction":2357,"Ġsort":2358,"Ġey":2359,"Ġrestrict":2360,"Ġexact":2361,"ciproc":2362,"Ġdel":2363,"ometr":2364,"ĠAr":2365,"Ġpursu":2366,"Ġappears":2367,"Ġadvance":2368,"contradiction":2369,"Ġsignific":2370,"Ġharmony":2371,"Ġoften":2372,"uting":2373,"Ġevil":2374,"capable":2375,"comm":2376,"known":2377,"atum":2378,"separ":2379,"Ġunless":2380,"system":2381,"Ġaway":2382,"Ġsupersensible":2383,"has":2384,"sum":2385,"Ġra":2386,"ictic":2387,"Ġoriginal":2388,"Ġconstitute":2389,"Ġadmitted":2390,"Ġbounds":2391,"igh":2392,"ĠV":2393,"ison":2394,"ingdom":2395,"Ġlast":2396,"pty":2397,"Ġsoon":2398,"Ġke":2399,"Ġappro":2400,"Ġhumanity":2401,"Ġdecl":2402,"synthesis":2403,"Ġfull":2404,"sibility":2405,"Ġtranscendent":2406,"produ":2407,"Ġgreater":2408,"Ġfinite":2409,"Ġessential":2410,"ĠJ":2411,"incl":2412,"ense":2413,"alone":2414,"imp":2415,"oriz":2416,"Ġarbitr":2417,"Ġcircum":2418,"latter":2419,"Ġadequate":2420,"ically":2421,"Ġdon":2422,"pter":2423,"Ġro":2424,"Ġobjectively":2425,"Ġattribute":2426,"Ġidentical":2427,"distingu":2428,"hetic":2429,"employ":2430,"uding":2431,"Ġlet":2432,"icip":2433,"categories":2434,"consider":2435,"reto":2436,"vel":2437,"ĠBy":2438,"Ġplaced":2439,"consist":2440,"necessity":2441,"pecially":2442,"ubl":2443,"Ġ5":2444,"Ġfundamental":2445,"Ġascrib":2446,"ENT":2447,"laws":2448,"Ġutter":2449,"ium":2450,"Ġtask":2451,"Ġelectronic":2452,"place":2453,"Ġsepar":2454,"Ġleave":2455,"Ġconsideration":2456,"Ġpresuppose":2457,"Ġfurn":2458,"Ġavoid":2459,"Ġhelp":2460,"reality":2461,"itle":2462,"Ġwit":2463,"idance":2464,"urd":2465,"contain":2466,"Ġuniverse":2467,"iction":2468,"mathemat":2469,"formation":2470,"namely":2471,"RAN":2472,"Ġtest":2473,"constit":2474,"Ġcare":2475,"Ġperceive":2476,"univers":2477,"Ġprecept":2478,"ments":2479,"Ġdeduced":2480,"Ġpostul":2481,"IN":2482,"cience":2483,"Ġactually":2484,"Ġspeak":2485,"pe":2486,"inv":2487,"Ġkingdom":2488,"Ġevents":2489,"ages":2490,"Ġsimply":2491,"Ġbelief":2492,"Ġetc":2493,"ES":2494,"Ġpositive":2495,"Ġagree":2496,"Ġpresupposes":2497,"Ġindicates":2498,"Ġimportant":2499,"Ġphilosophers":2500,"Every":2501,"There":2502,"metaphys":2503,"ĠK":2504,"Ġche":2505,"perfect":2506,"Ġindividual":2507,"Ġbrought":2508,"ool":2509,"ying":2510,"cede":2511,"ote":2512,"then":2513,"nderstanding":2514,"posite":2515,"Ġsciences":2516,"Ġdistinguished":2517,"Ġbodies":2518,"?âĢĿ":2519,"Ġ*":2520,"Ġear":2521,"utive":2522,"ula":2523,"phist":2524,"Ġdeser":2525,"osmical":2526,"Ġstands":2527,"Ġclearly":2528,"div":2529,"etermin":2530,"Ġunable":2531,"ously":2532,"Ġleft":2533,"Ġantinomy":2534,"Ġvolition":2535,"upon":2536,"Ġinev":2537,"change":2538,"Ġstatement":2539,"series":2540,"comp":2541,"alytic":2542,"Ġattention":2543,"Ġmotion":2544,"Ġinevit":2545,"fac":2546,"Ġdeterminable":2547,"echan":2548,"Ġcarr":2549,"utonomy":2550,"Ġempty":2551,"possess":2552,"unconditioned":2553,"Ġconcepts":2554,"Ġaccept":2555,"iber":2556,"Ġuseful":2557,"Ġfounded":2558,"Ġposition":2559,"Ġcommunity":2560,"mitted":2561,"Ġconsequences":2562,"Ġvarious":2563,"ground":2564,"iter":2565,"Ġoff":2566,"Ġge":2567,"ourselves":2568,"Ġexamination":2569,"ĠRE":2570,"Ġresults":2571,"Ġclaims":2572,"freedom":2573,"Ġsyllogism":2574,"Ġlearn":2575,"speculative":2576,"RO":2577,"cogit":2578,"love":2579,"ata":2580,"Ġsuffici":2581,"olly":2582,"Ġlimitation":2583,"connection":2584,"Ġbecomes":2585,"TH":2586,"my":2587,"po":2588,"Ġscept":2589,"urs":2590,"igure":2591,"Ġdisp":2592,"Ġsignificance":2593,"ishing":2594,"Ġcreat":2595,"alid":2596,"Ġfa":2597,"Ġspeculation":2598,"ffort":2599,"Ġproblematical":2600,"Ġhypothetical":2601,"Ġacqu":2602,"Ġeyes":2603,"stood":2604,"think":2605,"ending":2606,"Ġenable":2607,"Ġpossession":2608,"worth":2609,"lict":2610,"Ġ4":2611,"inction":2612,"ren":2613,"Ġphenomenal":2614,"Ġinterests":2615,"Ġconcreto":2616,"Ġmotives":2617,"Ġindicate":2618,"tot":2619,"Ġsc":2620,"Ġsure":2621,"Ġdirected":2622,"Ġattempts":2623,"Ġobliged":2624,"Ġjudge":2625,"ublic":2626,"Ġmental":2627,"Ġgen":2628,"ends":2629,"avoid":2630,"Ġwhereby":2631,"Ġreflection":2632,"Ġconcerns":2633,"Ġdrawn":2634,"absolutely":2635,"question":2636,"Ġapodeictic":2637,"opt":2638,"ĠÃ":2639,"conf":2640,"Ġadopt":2641,"END":2642,"contradictory":2643,"Ġdogmat":2644,"Ġcircumst":2645,"ins":2646,"Ġwis":2647,"arch":2648,"Ġgain":2649,"Ġexamples":2650,"Ġmodes":2651,"Ġinstead":2652,"happiness":2653,"Ġschool":2654,"Ġarbitrary":2655,"more":2656,"Ġopposed":2657,"Ġwhom":2658,"Ġlight":2659,"Ġguidance":2660,"presu":2661,"CE":2662,"pic":2663,"Ġcre":2664,"Ġput":2665,"Ġfavour":2666,"Ġprior":2667,"Ġforce":2668,"Ġacting":2669,"Ġdepends":2670,"Ġgeometr":2671,"him":2672,"ug":2673,"ven":2674,"Ġexisted":2675,"Ġaccom":2676,"Ġbelieve":2677,"Ġespecially":2678,"Ġinsight":2679,"xi":2680,"ĠSt":2681,"Ġsimilar":2682,"Ġoccasion":2683,"Ġextended":2684,"Ġassertions":2685,"Ġcopyright":2686,"Ġfunctions":2687,"Ġjustified":2688,"philosophy":2689,"ip":2690,"into":2691,"Ġwholly":2692,"Ġmorals":2693,"ĠWhen":2694,"arent":2695,"substance":2696,"When":2697,"cre":2698,"either":2699,"sens":2700,"Ġtimes":2701,"Ġopp":2702,"Ġtheology":2703,"rees":2704,"used":2705,"success":2706,"Ġrespecting":2707,"Ġhappen":2708,"Ġprescrib":2709,"eduction":2710,"sensibility":2711,"Ġcontingency":2712,"Ġidentity":2713,"Ġlegislation":2714,"ached":2715,"Ġinfinity":2716,"faculty":2717,"Ġcosmical":2718,"analy":2719,"Ġconver":2720,"ume":2721,"predic":2722,"pendence":2723,"Ġarrive":2724,"Ġeasy":2725,"his":2726,"same":2727,"Ġed":2728,"Ġreach":2729,"ured":2730,"emark":2731,"Ġsubordin":2732,"ortion":2733,"Ġderive":2734,"intelligible":2735,"etermined":2736,"Ġens":2737,"Ġsought":2738,"origin":2739,"iment":2740,"impossible":2741,"Ġprop":2742,"Ġconclusions":2743,"Ġindis":2744,"mission":2745,"whole":2746,"Ġdestroy":2747,"Ġutterly":2748,"satisf":2749,"Ġtable":2750,"internal":2751,"Ġannihil":2752,"ately":2753,"conform":2754,"Ġdefinite":2755,"Ġtherein":2756,"izing":2757,"Ġdesires":2758,"belong":2759,"ENTAL":2760,"Ġinter":2761,"Ġwhy":2762,"Ġexper":2763,"Ġlay":2764,"Ġphilosophical":2765,"Ġindependently":2766,"different":2767,"Ġcomparison":2768,"free":2769,"lt":2770,"tun":2771,"Ġcol":2772,"Ġforth":2773,"than":2774,"udes":2775,"speci":2776,"Ġmembers":2777,"ĠYou":2778,"To":2779,"kind":2780,"ms":2781,"Ġbesides":2782,"aint":2783,"character":2784,"Ġcomposite":2785,"Ġregion":2786,"case":2787,"stratum":2788,"Ġsecure":2789,"Ġfinally":2790,"SC":2791,"aight":2792,"sc":2793,"Ġtheory":2794,"angement":2795,"omogeneous":2796,"Ġsequ":2797,"Ġuniversally":2798,"Ġcompelled":2799,"Ġgenerally":2800,"Ġinquiry":2801,"Ġchoice":2802,"greg":2803,"atives":2804,"Ġmaking":2805,"Ġfill":2806,"Ġhigh":2807,"usory":2808,"Ġperceived":2809,"external":2810,"Ġsubtle":2811,"interest":2812,"content":2813,"Ġconstruction":2814,"Ġprimal":2815,"ĠĠĠĠĠĠĠ":2816,"anted":2817,"ĠAN":2818,"pposing":2819,"Ġpurposes":2820,"Ġcontradictory":2821,"Ġcommands":2822,"ĠIII":2823,"Ġopinion":2824,"should":2825,"causality":2826,"Ġwisdom":2827,"ged":2828,"also":2829,"cipl":2830,"Ġfinds":2831,"Ġproduces":2832,"Ġsubjectively":2833,"purpose":2834,"cipline":2835,"could":2836,"real":2837,"Ġeffort":2838,"Ġreciproc":2839,"Ġdire":2840,"ibility":2841,"ĠWith":2842,"itherto":2843,"existent":2844,"Ġstraight":2845,"Ġconflict":2846,"ĠConceptions":2847,"Ġdirection":2848,"Ġta":2849,"Ġmag":2850,"asing":2851,"those":2852,"abstr":2853,"Ġpoints":2854,"contrary":2855,"good":2856,"Ġspontaneity":2857,"Ġfully":2858,"Ġinevitably":2859,"iterary":2860,"IC":2861,"cess":2862,"science":2863,"Ġwise":2864,"Ġincapable":2865,"ively":2866,"hensible":2867,"fully":2868,"enetr":2869,"Ġdialectic":2870,"ĠAnalytic":2871,"limited":2872,"ltimate":2873,"far":2874,"jud":2875,"matter":2876,"Ġold":2877,"eriori":2878,"Ġmechan":2879,"arge":2880,"Ġexposition":2881,"Ġlabour":2882,"iding":2883,"Ġmaj":2884,"Ġproduct":2885,"necessarily":2886,"Ġassumed":2887,"Ġtotal":2888,"iang":2889,"non":2890,"Ġcoun":2891,"Ġconce":2892,"imin":2893,"Ġtransc":2894,"Ġequal":2895,"Ġsufficiently":2896,"isible":2897,"Ġpsychology":2898,"icense":2899,"Ġmark":2900,"Ġdown":2901,"sthetic":2902,"ars":2903,"Ġlos":2904,"Ġdependent":2905,"Ġrise":2906,"Ġmeet":2907,"ĠWhat":2908,"ĠUnderstanding":2909,"demonstr":2910,"Gutenberg":2911,"How":2912,"like":2913,"rop":2914,"Ġpe":2915,"Ġfigure":2916,"Ġredu":2917,"Ġcanon":2918,"chive":2919,"been":2920,"ĠHow":2921,"struction":2922,"ĠSpace":2923,"Ġsake":2924,"ings":2925,"Ġdom":2926,"Ġheter":2927,"Ġaccident":2928,"Ġkinds":2929,"Ġattained":2930,"Ġclass":2931,"correspond":2932,"Ġcomprehend":2933,"Ġkeep":2934,"gu":2935,"mort":2936,"oly":2937,"itable":2938,"Ġbor":2939,"Ġfour":2940,"immediate":2941,"ante":2942,"Ġevidence":2943,"acy":2944,"former":2945,"manent":2946,"ounce":2947,"subsist":2948,"Ġoperations":2949,"ĠPrinciples":2950,"Pro":2951,"oin":2952,"Ġsever":2953,"Ġnotions":2954,"Ġuncondition":2955,"Ġunited":2956,"idea":2957,"ĠAccording":2958,"Ġsubstratum":2959,"anger":2960,"That":2961,"Ġpresupposed":2962,"Ġarrangement":2963,"Ġsignification":2964,"Ġdeny":2965,"Ġignorance":2966,"Ġcheck":2967,"What":2968,"Ġautonomy":2969,"ash":2970,"ists":2971,"Ġdef":2972,"expl":2973,"Ġpractically":2974,"ferences":2975,"Ġeveryone":2976,"Ġart":2977,"Ġmetaphysic":2978,"Ġspecial":2979,"discover":2980,"Ġnoumenon":2981,"cceed":2982,"first":2983,"when":2984,"erit":2985,"Ġtowards":2986,"Ġfan":2987,"lying":2988,"Ġhon":2989,"urally":2990,"olution":2991,"piricism":2992,"ĠGeneral":2993,"ckon":2994,"Ġintuited":2995,"Ġpretensions":2996,"xiom":2997,"IT":2998,"eib":2999,"path":3000,"times":3001,"Ġexception":3002,"ification":3003,"Ġprob":3004,"usiness":3005,"Ġsophist":3006,"Ġimpl":3007,"Ġcontem":3008,"Ġanalog":3009,"nitz":3010,"universal":3011,"Ġcarry":3012,"eibnitz":3013,"light":3014,"alent":3015,"Ġnone":3016,"actions":3017,"elf":3018,"Ġduties":3019,"Ġundetermined":3020,"Ġcease":3021,"Ġnoumena":3022,"pensable":3023,"investig":3024,"point":3025,"avoidable":3026,"itude":3027,"Ġdivers":3028,"ief":3029,"Ġplain":3030,"hapter":3031,"Ġmetaphysical":3032,"Ġassertion":3033,"Ġdemonstrate":3034,"ĠTherefore":3035,"Ġanalogy":3036,"Ġdonations":3037,"iangle":3038,"Project":3039,"Ġseveral":3040,")âĢĶ":3041,"Re":3042,"crit":3043,"great":3044,"hig":3045,"ru":3046,"valid":3047,"Ġ=":3048,"Ġtitle":3049,"Ġunknown":3050,"Ġcomposition":3051,"Ġstep":3052,"Ġgiving":3053,"compre":3054,"Ġstandard":3055,"Ġopen":3056,"propositions":3057,"Ġpreviously":3058,"UT":3059,"effect":3060,"Ġconfin":3061,"conce":3062,"ĠFrom":3063,"Ġcontaining":3064,"âĢĿ;":3065,"prov":3066,"certainty":3067,"Ġlonger":3068,"Ġprevent":3069,"Ġabsurd":3070,"quantity":3071,"ian":3072,"ww":3073,"ret":3074,"ites":3075,"Ġpast":3076,"ifice":3077,"ĠAt":3078,"Ġadm":3079,"soci":3080,"Ġpartly":3081,"ĠSy":3082,"ression":3083,"determining":3084,"Ġobserve":3085,"ixed":3086,"iberty":3087,"Ġschools":3088,"AS":3089,"Ġback":3090,"Ġasc":3091,"Ġaccess":3092,"Ġmorally":3093,"Ġpresence":3094,"Ġproceeds":3095,"ĠLiterary":3096,"Ġpermanence":3097,"ĠPractical":3098,"hand":3099,"vious":3100,"Ġshe":3101,"Ġmention":3102,"Ġrec":3103,"Ġhitherto":3104,"Ġpriv":3105,"adv":3106,"Ġpurity":3107,"manif":3108,"Ġwhereas":3109,"relate":3110,"Ġprovided":3111,"Ġobligation":3112,"Ġmajor":3113,"power":3114,"lev":3115,"Ġprocess":3116,"Ġreasoning":3117,"sphere":3118,"Ġplan":3119,"Ġfear":3120,"Ġafford":3121,"RANSC":3122,"ENDENTAL":3123,"Ġcircumstances":3124,"RANSCENDENTAL":3125,"ially":3126,"side":3127,"iting":3128,"ater":3129,"Ġpublic":3130,"Ġfail":3131,"Ġassoci":3132,"Ġprud":3133,"Ġweight":3134,"Ġsucceed":3135,"ures":3136,"ĠIm":3137,"ĠOur":3138,"Ġenlar":3139,"Ġjustice":3140,"Ġquantities":3141,"missible":3142,"den":3143,"Ġsight":3144,"Ġreceived":3145,"irmed":3146,"through":3147,"oretic":3148,"Ġdefect":3149,"Ġheld":3150,"Ġquality":3151,"withstanding":3152,"Ġassign":3153,"struct":3154,"Ġattributes":3155,"ĠeBooks":3156,"Ġthoroughly":3157,"ĠArchive":3158,"OR":3159,"occ":3160,"Ġ9":3161,"attain":3162,"Ġsk":3163,"Ġrece":3164,"opular":3165,"uthoriz":3166,"Ġdecide":3167,"Ġantit":3168,"obser":3169,"mortality":3170,"since":3171,"Ġir":3172,"Ġsa":3173,"Ġindu":3174,"Ġpract":3175,"Ġultimate":3176,"ceptivity":3177,"Ġformula":3178,"Ġchain":3179,"Ġobsc":3180,"Ġminds":3181,"angu":3182,"particular":3183,"example":3184,"Ġantecedent":3185,"Ġfurnish":3186,"ator":3187,"Ġdata":3188,"Ġdet":3189,"Ġvent":3190,"Ġnaturally":3191,"Ġproduction":3192,"Ġimperatives":3193,"Ġdemonstration":3194,"Ġexactly":3195,"eem":3196,"Ġinformation":3197,"org":3198,"Ġlove":3199,"amed":3200,"ounded":3201,"ĠCosmological":3202,"proceed":3203,"Ġfeelings":3204,"natural":3205,"contin":3206,"Ġproblems":3207,"connected":3208,"Ġdemands":3209,"Ġdiscuss":3210,"Ġobservation":3211,"distinguish":3212,"reng":3213,"Ġborrow":3214,"apt":3215,"adequate":3216,"ild":3217,"lat":3218,"uit":3219,"uous":3220,"conc":3221,"ustr":3222,"truth":3223,"Ġunderstood":3224,"Ġsubsum":3225,"izes":3226,"ization":3227,"Ġindif":3228,"TIC":3229,"Ġholds":3230,"Ġspecies":3231,"sychological":3232,"everything":3233,"Ġdiscussion":3234,"Ġoppon":3235,"air":3236,"itled":3237,"Ġbusiness":3238,"uty":3239,"Ġimage":3240,"Ġrelatively":3241,"claim":3242,"Ġcontrib":3243,"Ġoriginate":3244,"Ġdefined":3245,"Ġlegislative":3246,"Su":3247,"mot":3248,"say":3249,"Ġaxiom":3250,"Ġfirm":3251,"asant":3252,"ĠSo":3253,"Ġobst":3254,"Ġpresupposition":3255,"Ġsatisfied":3256,"Ġrenders":3257,"Ġdenied":3258,"Ġvariety":3259,"Ġparagraph":3260,"Wh":3261,"_.":3262,"look":3263,"Ġturn":3264,"Ġwrit":3265,"Ġhum":3266,"ired":3267,"ignity":3268,"Ġadmits":3269,"aches":3270,"velop":3271,"OU":3272,"Ġpossibly":3273,"Ġused":3274,"Ġapparent":3275,"ĠOR":3276,"well":3277,"Ġpreser":3278,"Ġapplies":3279,"Ġadmitting":3280,"Ġconclude":3281,"Ġsecondly":3282,"Ġillusory":3283,"Ġworthy":3284,"Ġabsence":3285,"Ġignorant":3286,"On":3287,"Pr":3288,"inf":3289,"eness":3290,"atio":3291,"Ġinsepar":3292,"Ġelev":3293,"entific":3294,"Ġscientific":3295,"Ġanalytic":3296,"ialectic":3297,"Ġdemonstrated":3298,"Ġsmallest":3299,"Ġadded":3300,"Ġscepticism":3301,"manifold":3302,"nex":3303,"rest":3304,"Ġmist":3305,"least":3306,"theoretical":3307,"urity":3308,"seless":3309,"Ġafterwards":3310,"Ġprovide":3311,"Ġspeaking":3312,"Ġforeign":3313,"By":3314,"after":3315,"gest":3316,"ks":3317,"post":3318,"als":3319,"Ġlost":3320,"uring":3321,"ified":3322,"actory":3323,"mind":3324,"ademark":3325,"Ġstud":3326,"ĠNay":3327,"aged":3328,"before":3329,"Ġdiscern":3330,"Ġconcerned":3331,"completely":3332,"Ġinquiries":3333,"Ġauthority":3334,"ĠUnited":3335,"Transcendental":3336,"Ġbene":3337,"Ġdest":3338,"Ġdanger":3339,"Ġnecessit":3340,"Ġrepresents":3341,"imitive":3342,"Ġaggreg":3343,"Ġeng":3344,"regress":3345,"Ġcoexistence":3346,"attempt":3347,"mathematics":3348,"ĠÃ¦":3349,"ople":3350,"turn":3351,"Ġrep":3352,"ĠTime":3353,"ĠĠĠĠĠĠĠĠĠ":3354,"Ġextensive":3355,"Ġapplicable":3356,"ĠDe":3357,"Ġconstitutive":3358,"Ġdivided":3359,"Ġwants":3360,"Ġinstance":3361,"Ġexpected":3362,"***":3363,"Ġendeavours":3364,"Ġexhibit":3365,"Ġlearned":3366,"Ġloss":3367,"subsistent":3368,"ND":3369,"gl":3370,"joy":3371,"issim":3372,"Ġinference":3373,"stant":3374,"utation":3375,"Ġforces":3376,"Ġtriangle":3377,"Ġdisappear":3378,"Ġremo":3379,"Ġexamine":3380,"Ġdegrees":3381,"going":3382,"Ġsprings":3383,"ĠIdeas":3384,"Ġearth":3385,"Ġdomain":3386,"Ġdiversity":3387,".)":3388,"draw":3389,"jun":3390,"lies":3391,"inasmuch":3392,"Ġsent":3393,"Ġpun":3394,"another":3395,"Ġanci":3396,"Ġqual":3397,"ĠPh":3398,"Ġdeduce":3399,"accord":3400,"conting":3401,"Ġprecedes":3402,"Ġefforts":3403,"ert":3404,"Ġreceive":3405,"consequ":3406,"indic":3407,"ternally":3408,"arer":3409,"icians":3410,"ĠHere":3411,"Ġimpul":3412,"appre":3413,"Ġbegins":3414,"oubted":3415,"Ġnegation":3416,"Ġinvestigations":3417,"Ġequally":3418,"aff":3419,"oined":3420,"vere":3421,"Ġang":3422,"Ġlower":3423,"throp":3424,"Ġproves":3425,"play":3426,"igion":3427,"Ġperform":3428,"Ġimmortality":3429,"Ġseen":3430,"cisely":3431,"Ġcoexistent":3432,"Ġposteriori":3433,"Ġ200":3434,"neg":3435,"Ġinvolves":3436,"Ġraised":3437,"As":3438,"Ġauthoriz":3439,"Ġeth":3440,"Ġreckon":3441,"Ġintention":3442,"Ġcap":3443,"exp":3444,"maxim":3445,"subjective":3446,"Ġprofess":3447,"issimum":3448,"overy":3449,"Ġdignity":3450,"Ġusu":3451,"Ġgl":3452,"cies":3453,"oliness":3454,"Ġsubjects":3455,"ĠPU":3456,"again":3457,"physical":3458,"determine":3459,"Ġindirect":3460,"Ġexpressions":3461,"beings":3462,"Ġremarks":3463,"Ġcontinue":3464,"Ġallowed":3465,"Ġconviction":3466,"independent":3467,"worthy":3468,"ggest":3469,"Ġhomogeneous":3470,"thus":3471,"Ġtry":3472,"Ġshort":3473,"Ġstreng":3474,"ressions":3475,"ĠĠĠĠĠĠĠĠĠĠĠĠĠĠĠĠĠĠ":3476,"finitum":3477,"ĠNo":3478,"Ġplaces":3479,"Ġthinks":3480,"Ġreflect":3481,"Ġesca":3482,"Ġinfinitum":3483,"Ġinferred":3484,"nitude":3485,"Ġpostulate":3486,"Ġschemat":3487,"anguage":3488,"Hence":3489,"por":3490,"Ġbest":3491,"edience":3492,"irit":3493,"Ġspirit":3494,"expect":3495,"oney":3496,"ĠEm":3497,"Ġenter":3498,"Ġestim":3499,"Ġcontinuous":3500,"Ġascribe":3501,"Ġaccomp":3502,"ED":3503,"ges":3504,"take":3505,"hesis":3506,"Ġcr":3507,"Ġpay":3508,"ico":3509,"Ġmult":3510,"entially":3511,"Ġliberty":3512,"âĢĻ":3513,"umer":3514,"Ġempiricism":3515,"while":3516,"Ġfollowed":3517,"proof":3518,"Ġentitled":3519,"ĠLeibnitz":3520,"Ġexpresses":3521,"Ġobserved":3522,"Ġidealism":3523,"remain":3524,"Ġantithesis":3525,"ST":3526,"ares":3527,"two":3528,"Ġmerit":3529,"Ġfit":3530,"ased":3531,"Ġobjections":3532,"Ġdevelop":3533,"Ġhabit":3534,"plic":3535,"Ġprecede":3536,"ĠSolution":3537,"Ġcausal":3538,"Ġproceeding":3539,"Ġcommonly":3540,"Ġinquire":3541,"regards":3542,"Ġleads":3543,"totality":3544,"Ġindispensable":3545,"ae":3546,"vice":3547,"Ġpopular":3548,"sely":3549,"Ġcomes":3550,"ĠPRO":3551,"Ġsubl":3552,"Ġactivity":3553,"Ġrequirement":3554,"Ġhypotheses":3555,"cognitions":3556,"Ġerrors":3557,"Ġavail":3558,"Ġmediate":3559,"employment":3560,"Ġgeometry":3561,"himself":3562,"Ġsophistical":3563,"Con":3564,"oper":3565,"infinite":3566,"Ġmoney":3567,"ouble":3568,"Ġextr":3569,"istance":3570,"andon":3571,"ulate":3572,"orious":3573,"Ġforming":3574,"nthetical":3575,"Ġdifferences":3576,"Ġfew":3577,"ĠDiv":3578,"Ġproofs":3579,"Ġguard":3580,"Ġinvolved":3581,"Ġconstructed":3582,"Ġstatements":3583,"Ġproportion":3584,"Reason":3585,"JEC":3586,"gutenberg":3587,"itimate":3588,"Ġincre":3589,"Ġreceptivity":3590,"argum":3591,"Ġnotwithstanding":3592,"Ġunavoidable":3593,"notion":3594,"ideas":3595,"pri":3596,"Ġserves":3597,"conscious":3598,"Ġshows":3599,"Ġconsistent":3600,"Ġblind":3601,"Ġseparate":3602,"cogitate":3603,"Ġpeople":3604,",\"":3605,"From":3606,"PR":3607,"bid":3608,"human":3609,"you":3610,"Ġsign":3611,"Ġexec":3612,"Ġanimal":3613,"ember":3614,"cond":3615,"Ġheav":3616,"Ġattend":3617,"determines":3618,"Ġconstituted":3619,"Ġincluded":3620,"Ġassumption":3621,"Ġsatisfy":3622,"Ġoccur":3623,"Ġutility":3624,"feel":3625,"ĠStates":3626,"Ġexperiment":3627,"Ġprivate":3628,"ĠÃ¦sthetic":3629,"plicity":3630,"aves":3631,"Ġways":3632,"Ġwishes":3633,"imag":3634,"Ġexc":3635,"Ġones":3636,"ify":3637,"Ġformed":3638,"super":3639,"Ġsearch":3640,"exists":3641,"ĠDeduction":3642,"anged":3643,"Ġconsiderations":3644,"Ġfalls":3645,"substances":3646,"nevertheless":3647,"metaphysics":3648,"Ġsyllogisms":3649,"Ġsafe":3650,"Be":3651,"BER":3652,"Ġtw":3653,"ref":3654,"Ġbold":3655,"Ġreturn":3656,"Ġreasons":3657,"Ġdev":3658,"evertheless":3659,"solution":3660,"Ġplay":3661,"Ġdiscovery":3662,"ĠHume":3663,"Ġappearances":3664,"Ġguide":3665,"Ġpromise":3666,"Ġintroduce":3667,"BERG":3668,"foundation":3669,"tion":3670,"Ġ7":3671,"Ġom":3672,"alogism":3673,"assert":3674,"Ġanyone":3675,"order":3676,"Ġrespects":3677,"Ġrealissimum":3678,"ĠDo":3679,"ficial":3680,"Ġimagine":3681,"Ġcorresponds":3682,"judgements":3683,"legisl":3684,"follows":3685,"consistent":3686,"Ġgenu":3687,"investigation":3688,"concern":3689,"junctive":3690,"hypothe":3691,"ik":3692,"were":3693,"Ġtheoretic":3694,"ank":3695,"Ġren":3696,"Ġconstant":3697,"Ġholiness":3698,"depend":3699,"ĠĠĠĠĠĠĠĠĠĠĠĠ":3700,"Ġimmanent":3701,"exer":3702,"Ġaccur":3703,"Ġsubsist":3704,"ĠCh":3705,"Ġendless":3706,"Ġstrong":3707,"Ġaffirmed":3708,"ĠYOU":3709,"Ġoccupied":3710,"Ġfulf":3711,"ursive":3712,"corresponding":3713,"influence":3714,"IR":3715,"found":3716,"logical":3717,"til":3718,"tological":3719,"Ġbu":3720,"Ġbeh":3721,"Ġpros":3722,"Ġsuggest":3723,"ustom":3724,"Ġpersu":3725,"aching":3726,"Ġconcluded":3727,"Ġassuming":3728,"Ġillustr":3729,"OOF":3730,"regarded":3731,"Ġantecedes":3732,"application":3733,"Ġrecourse":3734,"PROOF":3735,"OG":3736,"signif":3737,"tt":3738,"Ġ6":3739,"Ġcal":3740,"Ġsays":3741,"Ġbad":3742,"lebr":3743,"Ġviz":3744,"Ġpermit":3745,"Ġpermission":3746,"Ġimpossibility":3747,"ads":3748,"presented":3749,"Ġdisplay":3750,"Ġleaves":3751,"Ġcomplex":3752,"Ġgoes":3753,"ician":3754,"Ġsubstant":3755,"determinations":3756,"ables":3757,"Ġderiv":3758,"Ġremarkable":3759,"parts":3760,"diffic":3761,"Ġadvanced":3762,"inclination":3763,"Ġmagnitude":3764,"Ġopponent":3765,"Ġaxioms":3766,"lebrated":3767,"line":3768,"inct":3769,"inary":3770,"itect":3771,"ndered":3772,"lease":3773,"Ġhist":3774,"Ġprim":3775,"Ġlines":3776,"owed":3777,"Ġdiscipline":3778,"Ġknows":3779,"Ġarising":3780,"pret":3781,"Ġgrad":3782,"Ġlimitations":3783,"ĠGUT":3784,"Ġsaying":3785,"Ġobedience":3786,"proble":3787,"ishment":3788,"Ġacts":3789,"Ġenjoy":3790,"ĠDI":3791,"ENBERG":3792,"Ġpersons":3793,"morality":3794,"Ġchoose":3795,"Ġcombination":3796,"Ġprecepts":3797,"division":3798,"Ġcreature":3799,"Ġsubordinate":3800,"immediately":3801,"Ġunconditional":3802,"conceit":3803,"contingent":3804,"Ġangles":3805,"JECT":3806,"ĠGUTENBERG":3807,".\"":3808,"Of":3809,"dog":3810,"llectual":3811,"vol":3812,"itas":3813,"Ġwond":3814,"Ġmin":3815,"second":3816,"oured":3817,"Ġaside":3818,"imer":3819,"ilst":3820,"addition":3821,"Ġreligion":3822,"Ġappe":3823,"fortun":3824,"etent":3825,"ĠNot":3826,"ĠInt":3827,"beyond":3828,"These":3829,"Ġfee":3830,"ĠEpic":3831,"Ġrefund":3832,"Ġconfess":3833,"Ġanticip":3834,"Ġcopies":3835,"oblig":3836,"Ġessentially":3837,"Ġpromot":3838,"intellectual":3839,"Ġconvin":3840,"Ġassociated":3841,"Ġengaged":3842,"apprehension":3843,"ient":3844,"pass":3845,"scept":3846,"tal":3847,"Ġproposed":3848,"conci":3849,"Ġunlimited":3850,"defin":3851,"ĠNat":3852,"ĠEvery":3853,"Ġattached":3854,"Ġcommonest":3855,"Ġattainment":3856,"Ġdefine":3857,"Ġdifficult":3858,"Ġaffirmative":3859,"Ġcircle":3860,"Ġmedium":3861,"Ġreciprocal":3862,"Ġmechanism":3863,"accordance":3864,"SE":3865,"Ġcost":3866,"Ġinferences":3867,"ors":3868,"Ġprimitive":3869,"Ġlist":3870,"Ġlanguage":3871,"Ġdoctr":3872,"ĠPhenomen":3873,"Ġparty":3874,"straint":3875,"ĠMor":3876,"considered":3877,"ART":3878,"Ġorganized":3879,"Ġascribed":3880,"Ġsequence":3881,"ITY":3882,"Ġventure":3883,"PL":3884,"fact":3885,"nor":3886,"rule":3887,"inqu":3888,"Ġcult":3889,"alt":3890,"Ġfrequ":3891,"Ġforward":3892,"ained":3893,"pleasure":3894,"deg":3895,"Ġspaces":3896,"Ġvan":3897,"Ġsometimes":3898,"preced":3899,"ĠEgo":3900,"Ġcharacteristic":3901,"ĠLicense":3902,"Ġwanting":3903,"Ġobtained":3904,"ĠIdea":3905,"applied":3906,"abstraction":3907,"Ġhonest":3908,"Ġimplies":3909,"highest":3910,"ĠSynthetical":3911,"lato":3912,"equ":3913,"find":3914,"rong":3915,"vation":3916,"Ġtal":3917,"inions":3918,"Ġwide":3919,"Ġpaid":3920,"leological":3921,"Ġwhilst":3922,"aries":3923,"Ġholy":3924,"ĠIV":3925,"establ":3926,"unte":3927,"ĠWh":3928,"ĠWhether":3929,"ĠDis":3930,"Ġfinal":3931,"Ġspecif":3932,"Ġmaterials":3933,"distinction":3934,"Ġaware":3935,"Ġprofound":3936,"ĠJudgement":3937,"Ġcarefully":3938,"Ġtax":3939,"Ġcontempl":3940,"ASON":3941,"Ġstudy":3942,"According":3943,"TR":3944,"dedu":3945,"opposition":3946,"yet":3947,"ream":3948,"ingly":3949,"step":3950,"Ġreasonable":3951,"Ġuntil":3952,"trodu":3953,"positive":3954,"Ġadapt":3955,"ĠIts":3956,"serted":3957,"Ġattack":3958,"Ġdeclar":3959,"intuitions":3960,"Ġconfused":3961,"Ġphysics":3962,"Ġequiv":3963,"Ġexplained":3964,"requires":3965,"philosopher":3966,"indeed":3967,"Ġtransg":3968,"Everything":3969,"analytical":3970,"Ġsubordinated":3971,"comprehensible":3972,"Ġinseparably":3973,"Ġschemata":3974,"iol":3975,"iences":3976,"mode":3977,"show":3978,"view":3979,"Ġtre":3980,"inter":3981,"Ġontological":3982,"Ġweak":3983,"ĠTO":3984,"olog":3985,"Ġmeasure":3986,"ĠBesides":3987,"supp":3988,"acity":3989,"soever":3990,"ĠSEC":3991,"begin":3992,"Ġhappy":3993,"Ġsecret":3994,"Ġinvestigate":3995,"require":3996,"Ġjustify":3997,"Ġoccupies":3998,"following":3999,"properly":4000,"systematic":4001,"Ġdeclared":4002,"Ġconversely":4003,"satisfaction":4004,"Ġpractice":4005,"Ġaggregate":4006,"And":4007,"EM":4008,"aen":4009,"ceasing":4010,"stead":4011,"entire":4012,"concept":4013,"Ġperi":4014,"Ġimit":4015,"Ġabandon":4016,"Ġusing":4017,"Ġrelated":4018,"Ġcha":4019,"Ġcharge":4020,"mention":4021,"ĠNO":4022,"Ġemploying":4023,"Ġdesc":4024,"ĠEven":4025,"cognize":4026,"Ġsensations":4027,"Ġcontradictions":4028,"Ġconfirm":4029,"Ġdiscovering":4030,"Ġdesired":4031,"Ġherself":4032,"Ġaffirmation":4033,"Ġpromote":4034,"Ġschol":4035,"ĠKant":4036,"changeable":4037,"succession":4038,"ĠWithout":4039,"aenomen":4040,"fall":4041,"fundamental":4042,"give":4043,"iating":4044,"labour":4045,"Ġtill":4046,"isibility":4047,"Ġpsychological":4048,"Ġinsufficient":4049,"Ġfive":4050,"Ġhind":4051,"Ġfortun":4052,"urality":4053,"urious":4054,"vey":4055,"conv":4056,"Ġcompl":4057,"Ġtrademark":4058,"ants":4059,"Ġaddu":4060,"Ġgranted":4061,"Ġgover":4062,"Ġcommence":4063,"Ġesteem":4064,"Ġmodality":4065,"Ġattributed":4066,"Ġ20":4067,"Ġconjoined":4068,"Ġsmaller":4069,"Ġoperation":4070,"Ġcelebrated":4071,"Ġdistribution":4072,"Ġreferred":4073,"ĠPrinciple":4074,"Ġraise":4075,"Ġroot":4076,"Ġdeserves":4077,"Ġprescribes":4078,"Ġsequel":4079,"Ġgenuine":4080,"Ġminor":4081,"aps":4082,"bod":4083,"each":4084,"Ġ0":4085,"itious":4086,"Ġforbid":4087,"among":4088,"Ġimposes":4089,"except":4090,"Ġmortal":4091,"ĠĠĠĠĠĠĠĠĠĠĠĠĠĠĠĠĠĠĠ":4092,"ĠObject":4093,"Ġthence":4094,"ĠCON":4095,"ĠDialectic":4096,"Ġ15":4097,"relations":4098,"Ġmoder":4099,"Ġfalla":4100,"Ġpathological":4101,"Ġcriteria":4102,"examination":4103,"ĠREASON":4104,"Ġcreation":4105,"Ġdefective":4106,"element":4107,"ging":4108,"pot":4109,"sing":4110,"really":4111,"ened":4112,"ery":4113,"Ġsound":4114,"Ġsac":4115,"Ġinj":4116,"orical":4117,"Ġisol":4118,"Ġexposed":4119,"Ġsuitable":4120,"vers":4121,"Ġrelating":4122,"Ġevid":4123,"Ġdisjunctive":4124,"Ġprep":4125,"Ġpremis":4126,"Ġprejud":4127,"Ġwhence":4128,"Ġobvious":4129,"Ġgoal":4130,"Ġcommun":4131,"common":4132,"existing":4133,"Ġconfidence":4134,"Ġacute":4135,"simple":4136,"Ġdefinitions":4137,"Ġforegoing":4138,"perfectly":4139,"total":4140,"conformity":4141,"Ġskill":4142,"Ġsigns":4143,"duty":4144,"mo":4145,"main":4146,"inity":4147,"restrict":4148,"ouse":4149,"Ġprot":4150,"Ġattr":4151,"umber":4152,"Ġheart":4153,"Ġstart":4154,"acing":4155,"Ġparties":4156,"oyal":4157,"Ġconnects":4158,"Ġindependence":4159,"ĠHis":4160,"ĠOnly":4161,"Ġdifficulties":4162,"Ġdoubts":4163,"Ġadditional":4164,"Ġfruit":4165,"import":4166,"orizon":4167,"contained":4168,"thinking":4169,"Ġborrowed":4170,"Ġdestination":4171,"Ġescape":4172,"ĠPROJECT":4173,"Ġperiod":4174,"big":4175,"Ġobe":4176,"isable":4177,"Ġwar":4178,"Ġwrong":4179,"Ġsides":4180,"ick":4181,"Ġreject":4182,"state":4183,"Ġlose":4184,"econd":4185,"ĠTRANSCENDENTAL":4186,"chitect":4187,"Ġalter":4188,"Ġalong":4189,"Ġprecisely":4190,"Ġpresenting":4191,"ĠCom":4192,"ĠChapter":4193,"otherwise":4194,"Ġincluding":4195,"Ġexpressed":4196,"made":4197,"Ġclose":4198,"ialectical":4199,"work":4200,"cribe":4201,"aneously":4202,"Ġsignifies":4203,"Ġgenera":4204,"Ġblame":4205,"sensation":4206,"predicate":4207,"abstract":4208,"Ġreduce":4209,"explanation":4210,"Ġanalogies":4211,"rupt":4212,"advantage":4213,"Ġprudence":4214,"unteers":4215,"ĠJudgements":4216,"An":4217,"ATION":4218,"ACE":4219,"both":4220,"dec":4221,"doubt":4222,"uct":4223,"uel":4224,"Ġthesis":4225,"attrib":4226,"Ġinstruction":4227,"Ġrendered":4228,"Ġdur":4229,"iments":4230,"Ġget":4231,"quite":4232,"Ġpropose":4233,"Ġtrouble":4234,"suffici":4235,"antages":4236,"ĠPR":4237,"ĠPlato":4238,"Ġchimer":4239,"Ġremove":4240,"Ġimpart":4241,"Ġinclude":4242,"ĠMetaphys":4243,"Ġdivine":4244,"Ġcompare":4245,"Ġsatisfactory":4246,"Ġconcerning":4247,"aneous":4248,"completeness":4249,"Ġapprehend":4250,"Ġtreats":4251,"ĠIdeal":4252,"Ġcombined":4253,"ARK":4254,"Ġgenus":4255,"ugment":4256,"Ġaccompl":4257,"Ġannihilated":4258,"anteced":4259,"ĠAccordingly":4260,"Ġconfine":4261,"Ġimpulses":4262,"IM":4263,"PRE":4264,"direct":4265,"reme":4266,"Ġsection":4267,"Ġslight":4268,"Ġpat":4269,"Ġdim":4270,"Ġsuff":4271,"Ġspect":4272,"true":4273,"Ġrid":4274,"Ġrank":4275,"Ġundert":4276,"Ġtrib":4277,"posing":4278,"Ġseat":4279,"unal":4280,"spic":4281,"Ġservice":4282,"ĠCategor":4283,"Ġrequirements":4284,"ĠLogic":4285,"Ġsett":4286,"Ġextending":4287,"certainly":4288,"Ġlegitimate":4289,"consideration":4290,"contains":4291,"ĠREM":4292,"predicates":4293,"Ġpreserve":4294,"exercise":4295,"Ġequivalent":4296,"IL":4297,"Let":4298,"With":4299,"make":4300,"Ġtast":4301,"itio":4302,"Ġefficient":4303,"statement":4304,"Ġhyp":4305,"Ġasserted":4306,"Ġled":4307,"Ġobjection":4308,"concl":4309,"Ġunceasing":4310,"above":4311,"umption":4312,"Ġpermitted":4313,"Ġimposed":4314,"progress":4315,"Ġsym":4316,"Ġhead":4317,"Ġste":4318,"Ġstated":4319,"Ġwhatsoever":4320,"ounces":4321,"evident":4322,"objectively":4323,"similar":4324,"Ġundoubted":4325,"ixt":4326,"Ġspontaneous":4327,"Ġdelusion":4328,"mathematical":4329,"Ġedifice":4330,"species":4331,"validity":4332,"Ġadmir":4333,"Ġomni":4334,"//":4335,"://":4336,"Chapter":4337,"dialectical":4338,"ee":4339,"iable":4340,"ox":4341,"Ġlying":4342,"atus":4343,"Ġcur":4344,"Ġpenetr":4345,"alog":4346,"Ġbre":4347,"orm":4348,"Ġfict":4349,"theology":4350,"imper":4351,"ĠIN":4352,"Ġord":4353,"ift":4354,"iform":4355,"Ġdeep":4356,"illusion":4357,"trans":4358,"Ġmeant":4359,"acher":4360,"Ġadmissible":4361,"ĠNe":4362,"ĠNevertheless":4363,"astic":4364,"Ġpossessed":4365,"Ġambig":4366,"ĠMy":4367,"ĠMat":4368,"Ġ10":4369,"empirically":4370,"Ġnumer":4371,"Ġrightly":4372,"Ġbringing":4373,"Ġteleological":4374,"Ġexhibits":4375,"Ġrecognize":4376,"ĠSpeculative":4377,"Ġapproxim":4378,"grounds":4379,"Ġannihilate":4380,"Ġcounter":4381,"Ġheteronomy":4382,"Ġobstac":4383,"affirm":4384,"ĠPURE":4385,"Ġoneself":4386,"Ġchapter":4387,"Ġgovern":4388,"maintain":4389,"cul":4390,"face":4391,"gain":4392,"ling":4393,"Ġair":4394,"itate":4395,"ictical":4396,"set":4397,"Ġdr":4398,"Ġdict":4399,"utions":4400,"supposition":4401,"Ġsubjected":4402,"Ġgrant":4403,"manner":4404,"avoured":4405,"Ġdistinguishing":4406,"ailed":4407,"Ġharmonize":4408,"correct":4409,"Ġseeking":4410,"Ġexcluded":4411,"ĠĠĠĠĠĠĠĠĠĠĠĠĠĠĠĠĠĠĠĠĠĠĠ":4412,"Ġroom":4413,"occup":4414,"ĠPhenomena":4415,"degree":4416,"aenomenon":4417,"Ġduration":4418,"Ex":4419,"deduction":4420,"ger":4421,"might":4422,"nce":4423,"reciproc":4424,"Ġcle":4425,"Ġbook":4426,"anations":4427,"itions":4428,"Ġloc":4429,"Ġlarge":4430,"Ġability":4431,"Ġshap":4432,"Ġstop":4433,"Ġideality":4434,"ĠPer":4435,"Ġcompletion":4436,"Ġthoughts":4437,"serve":4438,"Ġenables":4439,"Ġsynthetically":4440,"Ġoriginated":4441,"Ġcorrelate":4442,"Ġadvantages":4443,"Ġcompared":4444,"Ġbeforehand":4445,"Ġpasses":4446,"Ġutmost":4447,"Ġmaintained":4448,"Ġcorrectness":4449,"Ġstrictly":4450,"Ġorganon":4451,"Ġpursue":4452,"distinguished":4453,"Ġadopted":4454,"Ġtranscend":4455,"Ġheterogeneous":4456,"Ġmentioned":4457,"Ġreceiving":4458,"Ġstrength":4459,"hypothesis":4460,"Accordingly":4461,"author":4462,"co":4463,"clear":4464,"fit":4465,"psychology":4466,"sour":4467,"uity":4468,"Ġdream":4469,"ected":4470,"Ġhy":4471,"Ġhard":4472,"Ġsuspic":4473,"person":4474,"pleasant":4475,"ofold":4476,"Ġprefer":4477,"ternity":4478,"Ġconsiders":4479,"Ġencl":4480,"Ġcogitating":4481,"Ġillusions":4482,"Ġclearness":4483,"Ġsets":4484,"Ġanswered":4485,"Ġattempted":4486,"Ġprogression":4487,"extension":4488,"difference":4489,"limits":4490,"Ġmomenta":4491,"ĠJust":4492,"presupposes":4493,"belonging":4494,"Ġindifference":4495,"Ġdisappears":4496,"against":4497,"depends":4498,"Ġbehind":4499,"Ġdoctrines":4500,"Ġcultiv":4501,"Ġtaste":4502,"ixture":4503,"Ġsuspicion":4504,"AM":4505,"Here":4506,"cosmological":4507,"iance":4508,"member":4509,"nay":4510,"number":4511,"oot":4512,"Ġtell":4513,"Ġtyp":4514,"Ġtaking":4515,"atur":4516,"Ġinward":4517,"Ġresol":4518,"Ġbear":4519,"still":4520,"Ġhid":4521,"theological":4522,"Ġlaid":4523,"construction":4524,"ilis":4525,"usive":4526,"Ġunion":4527,"answ":4528,"orily":4529,"sole":4530,"ĠSince":4531,"Ġnearer":4532,"Ġoutward":4533,"Ġoutside":4534,"Ġgoodness":4535,"Ġpeculiarity":4536,"Ġdependence":4537,"Ġteach":4538,"Ġparalogism":4539,"Ġdistribute":4540,"Ġdistributing":4541,"ĠĠĠĠĠĠĠĠĠĠĠĠĠĠĠĠĠĠĠĠĠ":4542,"Ġrecognized":4543,"summum":4544,"Ġdogmatic":4545,"senses":4546,"Ġcolour":4547,"Ġprobably":4548,"Ġobscurity":4549,"Ġremoved":4550,"Ġfulfil":4551,"ttp":4552,"inquir":4553,"Ġtreated":4554,"AC":4555,"ius":4556,"Ġaugment":4557,"erable":4558,"Ġmon":4559,"Ġrecomm":4560,"Ġdimin":4561,"utable":4562,"Ġintended":4563,"Ġdepr":4564,"abs":4565,"Ġthereto":4566,"ĠBoth":4567,"Ġanywhere":4568,"phism":4569,"Ġjoin":4570,"Ġarchitect":4571,"ope":4572,"compar":4573,"Ġproducing":4574,"manuel":4575,"Ġdecided":4576,"Ġexerc":4577,"Ġerrone":4578,"Ġpreceded":4579,"anything":4580,"obtain":4581,"Ġopinions":4582,"Ġdrawing":4583,"Ġpromises":4584,"Ġteaches":4585,"Ġasked":4586,"ĠExperience":4587,"Ġcomprehensible":4588,"myself":4589,"ashion":4590,"ĠImmanuel":4591,"drawn":4592,"Ġethics":4593,"Ġindirectly":4594,"Ġadapted":4595,"God":4596,"TRANSCENDENTAL":4597,"col":4598,"mod":4599,"opposite":4600,"render":4601,"reference":4602,"enlar":4603,"Ġreached":4604,"ivable":4605,"Ġlink":4606,"ibly":4607,"ĠTot":4608,"conceived":4609,"Ġalleg":4610,"Ġunworthy":4611,"Ġrange":4612,"ĠFreedom":4613,"ĠApp":4614,"uncondition":4615,"unless":4616,"resses":4617,"ĠOr":4618,"els":4619,"Ġdiscursive":4620,"understood":4621,"ĠProble":4622,"Ġestimate":4623,"Ġdivisible":4624,"appro":4625,"Ġdecom":4626,"ĠLet":4627,"Ġregressive":4628,"Ġchangeable":4629,"Ġelaps":4630,"Ġexpectation":4631,"regarding":4632,"Ġanalytically":4633,"neither":4634,"ogeneity":4635,"apperception":4636,"ordinated":4637,"ĠExposition":4638,"ĠVII":4639,"Ġdeclares":4640,"including":4641,"constitute":4642,"ĠÃĨ":4643,"successive":4644,"Ġdirections":4645,"Ġhonour":4646,"Ġcontempor":4647,"Ġindifferent":4648,"expected":4649,"Ġaccompan":4650,"ĠDivision":4651,"Ġbuild":4652,"Ġslightest":4653,"Ġelapsed":4654,"80":4655,"af":4656,"ier":4657,"was":4658,"Ġtend":4659,"Ġinhere":4660,"Ġinadequate":4661,"Ġmund":4662,"anthrop":4663,"ott":4664,"iring":4665,"anded":4666,"Ġproving":4667,"ĠTr":4668,"Ġintensive":4669,"oreover":4670,"Ġdepart":4671,"Ġuncertain":4672,"Ġexistences":4673,"Ġwills":4674,"admissible":4675,"ĠAuthor":4676,"Ġchance":4677,"ĠSto":4678,"ĠSelf":4679,"ressed":4680,"ĠON":4681,"Ġplurality":4682,"Ġactive":4683,"Ġenounce":4684,"ĠEBOOK":4685,"Ġincludes":4686,"Ġquantum":4687,"ĠUse":4688,"Ġexert":4689,"Ġdoubtful":4690,"Ġallowable":4691,"ĠUnity":4692,"constitutive":4693,"insic":4694,"negative":4695,"Ġavailable":4696,"imagination":4697,"ĠĠĠĠĠĠĠĠĠĠĠĠĠ":4698,"Ġhistory":4699,"ĠIntuition":4700,"important":4701,"Ġtribunal":4702,"Ġhyper":4703,"Qu":4704,"VE":4705,"iality":4706,"long":4707,"lied":4708,"word":4709,"Ġcent":4710,"Ġwater":4711,"Ġeternity":4712,"sec":4713,"Ġreplace":4714,"Ġconstraint":4715,"arante":4716,"osed":4717,"Ġdeath":4718,"ili":4719,"transcendent":4720,"Ġdoll":4721,"Ġformat":4722,"pright":4723,"ading":4724,"anticip":4725,"ĠFirst":4726,"Ġdisclaim":4727,"Ġsomewhat":4728,"else":4729,"Ġemploys":4730,"procedure":4731,"Ġremote":4732,"Ġcomply":4733,"Ġconfusion":4734,"Ġattaining":4735,"Ġpleasant":4736,"Ġpersonal":4737,"Ġholding":4738,"purely":4739,"ĠAnt":4740,"Ġsingular":4741,"discovered":4742,"Ġestablishment":4743,"ARRAN":4744,"Ġdestru":4745,"cogitated":4746,"Ġsceptical":4747,"Ġreduced":4748,"Ġaccidents":4749,"Ġaccidental":4750,"Ġunconditionally":4751,"Ġfirmly":4752,"Ġusual":4753,"Ġmultitude":4754,"Ġgradually":4755,"ĠNature":4756,"mentioned":4757,"body":4758,"OM":4759,"fers":4760,"gener":4761,"homogeneous":4762,"noumen":4763,"Ġtalent":4764,"inc":4765,"isions":4766,"Ġmut":4767,"Ġfl":4768,"Ġfashion":4769,"Ġreve":4770,"entia":4771,"arbitr":4772,"Ġann":4773,"Ġforced":4774,"term":4775,"urther":4776,"urus":4777,"istics":4778,"Ġalmost":4779,"Ġspite":4780,"Ġembr":4781,"Ġratio":4782,"prop":4783,"nowledge":4784,"etween":4785,"Ġviewed":4786,"Ġadvisable":4787,"Ġarranged":4788,"Ġextends":4789,"cribed":4790,"Ġready":4791,"doctrine":4792,"Ġcontinued":4793,"Ġteacher":4794,"questions":4795,"ĠĠĠĠĠĠĠĠĠĠĠĠĠĠĠĠĠĠĠĠĠĠ":4796,"causes":4797,"ĠKnowledge":4798,"Ġdeserve":4799,"critical":4800,"Ġancients":4801,"ertitude":4802,"IRST":4803,"Ġwonder":4804,"Ġisolated":4805,"FACE":4806,"flu":4807,"iology":4808,"ri":4809,"rist":4810,"small":4811,"inally":4812,"eng":4813,"Ġinstit":4814,"see":4815,"Ġrepro":4816,"Ġrepe":4817,"Ġexpose":4818,"Ġpropri":4819,"Ġunnecessary":4820,"Ġuniform":4821,"Ġhear":4822,"Ġarche":4823,"method":4824,"comb":4825,"Ġindetermin":4826,"Ġextreme":4827,"Ġassured":4828,"Ġoriginally":4829,"cognized":4830,"Ġentered":4831,"Ġremaining":4832,"undred":4833,"Ġrights":4834,"Ġindicating":4835,"Ġreadily":4836,"Ġchanged":4837,"Ġseeks":4838,"Ġintuitive":4839,"limitation":4840,"synthetically":4841,"Ġgained":4842,"special":4843,"Ġhighly":4844,"Ġmagn":4845,"Ġproducts":4846,"ĠHowever":4847,"higher":4848,"Ġheaven":4849,"Ġappeal":4850,"definition":4851,"entirely":4852,"Ġfortune":4853,"Ġwarning":4854,"PREFACE":4855,"ĠREMARK":4856,"Ġarchety":4857,"78":4858,";_":4859,"QU":4860,"junction":4861,"prom":4862,"way":4863,"Ġver":4864,"hed":4865,"aticism":4866,"Ġinstruct":4867,"alf":4868,"alth":4869,"Ġnull":4870,"Ġpra":4871,"Ġuseless":4872,"ciation":4873,"construct":4874,"ilities":4875,"âĢĶâĢľ":4876,"illed":4877,"Ġ(Â§":4878,"esty":4879,"Ġrelative":4880,"proved":4881,"Ġindefinite":4882,"understand":4883,"Ġproductive":4884,"ĠProof":4885,"Ġpowerful":4886,"Ġconsidering":4887,"ĠMe":4888,"Ġwherein":4889,"Ġmatters":4890,"perceptions":4891,"ĠTHIS":4892,"Ġoverstep":4893,"Ġfallacy":4894,"grad":4895,"need":4896,"categorical":4897,"happens":4898,"independence":4899,"Ġexhibited":4900,"metaphysic":4901,"Ġdispute":4902,"Ġfaith":4903,"Ġgeometrical":4904,"demonstration":4905,"observation":4906,"Supreme":4907,"Ġobstin":4908,"Ġancient":4909,"arguments":4910,"legislation":4911,"problematical":4912,"ĠDiscipline":4913,"econdly":4914,"Ġsettled":4915,"ĠTotality":4916,"Ġcontemporaneously":4917,"AG":4918,"CI":4919,"Our":4920,"cases":4921,"electronic":4922,"ned":4923,"pore":4924,"Ġ-":4925,"Ġtheological":4926,"Ġinc":4927,"Ġbase":4928,"anim":4929,"Ġconject":4930,"Ġdam":4931,"Ġdays":4932,"Ġdatur":4933,"asis":4934,"Ġhorizon":4935,"Ġwelf":4936,"Ġgift":4937,"result":4938,"istinction":4939,"Ġunb":4940,"abled":4941,"Ġration":4942,"adistinction":4943,"Ġquar":4944,"ĠAl":4945,"ĠPossib":4946,"ĠHim":4947,"Ġsystems":4948,"Ġenabled":4949,"manence":4950,"Ġexplanations":4951,"Ġdecision":4952,"luences":4953,"Ġsetting":4954,"Ġseemed":4955,"ched":4956,"Ġguarante":4957,"irtue":4958,"Ġvirtuous":4959,"Ġcommanded":4960,"Ġboundaries":4961,"Ġconducted":4962,"distrib":4963,"Ġtreatise":4964,"Ġobservations":4965,"Ġdisputes":4966,"Ġcreated":4967,"Ġhappened":4968,"ĠANY":4969,"Ġreciprocally":4970,"Ġchecks":4971,"ĠSystem":4972,"nexion":4973,"consequences":4974,"Ġcapacity":4975,"ĠEmpirical":4976,"Ġtwofold":4977,"Ġenjoyment":4978,"Ġvanity":4979,"imperative":4980,"Ġshape":4981,"Ġdollars":4982,"poreal":4983,"Ġwelfare":4984,",[":4985,"DU":4986,"affect":4987,"coun":4988,"ole":4989,"pet":4990,"ativ":4991,"Ġwid":4992,"Ġthreat":4993,"cell":4994,"Ġfiction":4995,"Ġfoot":4996,"Ġerect":4997,"Ġhouse":4998,"imental":4999,"Ġsuscept":5000,"ainted":5001,"conduct":5002,"Ġimprov":5003,"Ġsubmit":5004,"material":5005,"Ġcompleted":5006,"ortunity":5007,"Ġmov":5008,"Ġgrounded":5009,"syllogism":5010,"anges":5011,"Ġimpressions":5012,"Ġmodel":5013,"Ġshowing":5014,"Ġseeing":5015,"Ġplease":5016,"pecial":5017,"Ġexclude":5018,"Ġbecoming":5019,"Ġsurface":5020,"Ġdesignate":5021,"Ġsorts":5022,"Ġacquainted":5023,"Ġcollection":5024,"Ġmechanical":5025,"Ġpeace":5026,"points":5027,"Ġaffords":5028,"Ġassigned":5029,"vereign":5030,"Consequently":5031,"ĠEpicurus":5032,"Ġpremisses":5033,"AT":5034,"au":5035,"barr":5036,"oice":5037,"vari":5038,"Ġage":5039,"Ġinner":5040,"search":5041,"Ġday":5042,"omp":5043,"Ġhundred":5044,"ains":5045,"Ġdeal":5046,"ĠĠĠĠĠĠĠĠĠĠĠ":5047,"Ġrad":5048,"individual":5049,"sophist":5050,"agree":5051,"Ġendowed":5052,"Ġposited":5053,"formal":5054,"Ġexamined":5055,"Ġagent":5056,"Ġenumer":5057,"lective":5058,"determinate":5059,"Ġcogitable":5060,"Ġproceeded":5061,"Ġpresupposing":5062,"Ġ12":5063,"Ġsupply":5064,"OND":5065,"Ġimperfect":5066,"Ġpersonality":5067,"Ġmisunderstanding":5068,"Ġsuperior":5069,"new":5070,"Ġbrings":5071,"ĠExist":5072,"intelligence":5073,"remark":5074,"applicable":5075,"Ġadvancement":5076,"Ġpostulates":5077,"enetrability":5078,"Ġascending":5079,"ĠPhilos":5080,"ĠPhys":5081,"Ġsublime":5082,"ustomed":5083,"obligation":5084,"sufficiency":5085,"barrass":5086,"AB":5087,"SI":5088,"Ġcred":5089,"Ġwa":5090,"Ġfix":5091,"Ġreconci":5092,"Ġdue":5093,"otle":5094,"Ġpride":5095,"Ġanthrop":5096,"ury":5097,"Ġunchangeable":5098,"abor":5099,"Ġrash":5100,"Ġprincip":5101,"Ġviol":5102,"add":5103,"admit":5104,"indis":5105,"ements":5106,"etch":5107,"Ġyear":5108,"Ġsynthetic":5109,"solu":5110,"Ġyouth":5111,"Ġamount":5112,"Ġsimplicity":5113,"aving":5114,"Ġmaximum":5115,"ostat":5116,"Ġconforms":5117,"Ġarrange":5118,"contradictions":5119,"Ġoverlook":5120,"Ġexplaining":5121,"Ġapplying":5122,"Ġessence":5123,"Ġlooked":5124,"Ġfalsely":5125,"apode":5126,"Ġtransition":5127,"possesses":5128,"Ġdogmatism":5129,"Ġconflicting":5130,"Ġconceal":5131,"Ġanalogous":5132,"effects":5133,"Ġprudent":5134,"Ġirre":5135,"Ġdevelopment":5136,"Ġexecution":5137,"feeling":5138,"Ġconvinced":5139,"Ġcommencement":5140,"Ġsacr":5141,"Ġhypostat":5142,"Ġbreak":5143,"Ġerroneous":5144,"fluous":5145,"\";":5146,"?\"":5147,"SIS":5148,"Understanding":5149,"based":5150,"cid":5151,"cop":5152,"limin":5153,"oast":5154,"pperception":5155,"viz":5156,"itative":5157,"Ġthy":5158,"ories":5159,"Ġfile":5160,"sem":5161,"omor":5162,"armon":5163,"Ġur":5164,"Ġupright":5165,"ogicians":5166,"verse":5167,"perhaps":5168,"Ġpropens":5169,"ende":5170,"igur":5171,"Ġtherewith":5172,"ĠĠĠĠĠĠĠĠĠĠĠĠĠĠĠ":5173,"esteem":5174,"supreme":5175,"ĠFOR":5176,"Ġphaenomenon":5177,"Ġgrand":5178,"arest":5179,"Ġindefinitum":5180,"Ġextinction":5181,"Ġinfall":5182,"Ġcompens":5183,"Ġaffinity":5184,"Ġsupplied":5185,"Ġregressus":5186,"Ġarriving":5187,"Ġoccurs":5188,"Ġanswers":5189,"TITH":5190,"ALEC":5191,"Ġlooking":5192,"ĠTHESIS":5193,"Ġconjoin":5194,"philosophical":5195,"Ġvolunteers":5196,"Ġobtaining":5197,"Ġmomentum":5198,"Ġdistributed":5199,"Ġapodeictical":5200,"produce":5201,"Ġ50":5202,"INCI":5203,"ESIS":5204,"Ġoffice":5205,"Ġfault":5206,"ĠANAL":5207,"pathological":5208,"Ġconfined":5209,"www":5210,"Ġobscure":5211,"Ġsubsumption":5212,"Ġelevated":5213,"Ġpunishment":5214,"Ġusually":5215,"independently":5216,"remains":5217,"Ġmediately":5218,"supersensible":5219,"Ġprospect":5220,"Ġsubstantial":5221,"difficulties":5222,"ĠDIALEC":5223,"Ġcompliance":5224,"antecedent":5225,"Ġadmiration":5226,"Ġdecomposition":5227,"ĠÃĨsthetic":5228,"TITHESIS":5229,"ĠDIALECTIC":5230,"UL":5231,"Whether":5232,"basis":5233,"ores":5234,"opp":5235,"virtue":5236,"Ġmid":5237,"Ġbea":5238,"osen":5239,"Ġannex":5240,"plex":5241,"Ġsophism":5242,"prof":5243,"Ġcognizing":5244,"fered":5245,"Ġchosen":5246,"ĠĠĠĠĠĠĠĠĠĠĠĠĠĠĠĠĠ":5247,"intu":5248,"Ġmoon":5249,"âĢĿâĢĶ":5250,"Ġformerly":5251,"ĠEither":5252,"Ġpossessing":5253,"Ġattended":5254,"Ġentitle":5255,"thereby":5256,"phenomenal":5257,"ĠMan":5258,"Ġdivisibility":5259,"Ġstrug":5260,"Ġdirects":5261,"Ġconformably":5262,"Ġparticularly":5263,"Ġprovince":5264,"category":5265,"Ġintuite":5266,"Ġspontaneously":5267,"appearance":5268,"Ġrestricted":5269,"Ġpursuit":5270,"produced":5271,"Ġaccepted":5272,"Ġcircumstance":5273,"Ġlabours":5274,"Ġfourth":5275,"While":5276,"Ġaccurately":5277,"OGY":5278,"signification":5279,"beginning":5280,"Ġscholastic":5281,"Ġfallacious":5282,"Ġevidently":5283,"Ġspectator":5284,"ĠCategories":5285,"Ġhidden":5286,"Ġquarter":5287,"TY":5288,"cour":5289,"gives":5290,"wish":5291,"Ġtech":5292,"Ġaf":5293,"inom":5294,"isen":5295,"Ġflatter":5296,"Ġsupposing":5297,"ifies":5298,"ulg":5299,"taining":5300,"Ġsovereign":5301,"Ġvis":5302,"Ġwilling":5303,"Ġshare":5304,"Ġchar":5305,"aggreg":5306,"Ġfarther":5307,"Ġgrow":5308,"Ġgroundless":5309,"ĠEX":5310,"lected":5311,"Ġoriginating":5312,"Ġcogitates":5313,"Ġfeels":5314,"account":5315,"Ġclos":5316,"Ġimaginary":5317,"ches":5318,"Ġindication":5319,"ĠĠĠĠĠĠĠĠĠĠĠĠĠĠĠĠĠĠĠĠĠĠĠĠĠĠĠĠ":5320,"Ġelementary":5321,"Ġantinom":5322,"Ġdenom":5323,"Ġgenerated":5324,"Ġtreating":5325,"Ġpretended":5326,"universality":5327,"ING":5328,"Ġpositively":5329,"confidence":5330,"ĠStill":5331,"analysis":5332,"Ġexperiences":5333,"continu":5334,"motion":5335,"motive":5336,"Ġdangerous":5337,"Ġethical":5338,"Ġpersuasion":5339,"deduced":5340,"philosophers":5341,"veyed":5342,"Ġundoubtedly":5343,"Ġflow":5344,"ength":5345,"Ġreproach":5346,"Ġtechn":5347,"ITI":5348,"No":5349,"furn":5350,"hood":5351,"ihil":5352,"val":5353,"Ġz":5354,"inal":5355,"insepar":5356,"itles":5357,"erci":5358,"Ġsite":5359,"Ġinconsistent":5360,"Ġbott":5361,"espect":5362,"ancing":5363,"omogeneity":5364,"Ġonline":5365,"irth":5366,"empl":5367,"try":5368,"Ġroyal":5369,"Ġformation":5370,"Ġshar":5371,"exper":5372,"Ġsubjecting":5373,"Ġworlds":5374,"speculation":5375,"ĠĠĠĠĠĠĠĠĠĠĠĠĠĠĠĠĠĠĠĠĠĠĠĠĠĠĠĠĠĠĠĠ":5376,"ieve":5377,"Ġbelow":5378,"Ġcontrast":5379,"ĠGree":5380,"Ġdesp":5381,"Ġentertain":5382,"Ġimply":5383,"ĠMoreover":5384,"Ġdivide":5385,"apply":5386,"regulative":5387,"Ġcompetent":5388,"evol":5389,"Ġpredicated":5390,"Ġmodern":5391,"Ġelabor":5392,"Ġindicated":5393,"Ġbelieves":5394,"Ġsolid":5395,"Ġpassing":5396,"Ġmaintains":5397,"Ġcontinuity":5398,"Ġdispositions":5399,"000":5400,"Ġcombat":5401,"desire":5402,"justice":5403,"Ġrecognizes":5404,"employed":5405,"Ġwitness":5406,"perfection":5407,"satisfactory":5408,"Ġmarked":5409,"Ġkeeping":5410,"Ġfanaticism":5411,"Ġassociation":5412,"Ġreceives":5413,"posteriori":5414,"Ġmulti":5415,"Ġincrease":5416,"Ġconstantly":5417,"Ġaccurate":5418,"Ġprimary":5419,"dogmat":5420,"Ġfrequent":5421,"Ġtalents":5422,"ĠNew":5423,"Ġindeterminate":5424,"Ġheavenly":5425,"soluble":5426,"Ġbottom":5427,"68":5428,"CL":5429,"ael":5430,"bound":5431,"circ":5432,"sus":5433,"Ġ8":5434,"icated":5435,"ichael":5436,"utter":5437,"Ġascertain":5438,"Ġprint":5439,"imity":5440,"Ġlur":5441,"owers":5442,"Ġsun":5443,"ters":5444,"emonstr":5445,"ulation":5446,"ulates":5447,"Ġaltern":5448,"usively":5449,"Ġours":5450,"Ġrun":5451,"ideal":5452,"Ġnoble":5453,"pract":5454,"cap":5455,"unavoidable":5456,"Ġadmission":5457,"Ġmach":5458,"Ġcontact":5459,"Ġcontempt":5460,"ĠWARRAN":5461,"Ġrequiring":5462,"forms":5463,"formed":5464,"others":5465,"within":5466,"ĠHart":5467,"Ġfees":5468,"Ġpresumption":5469,"many":5470,"Ġselfish":5471,"Ġcomput":5472,"Ġfreely":5473,"Ġphysico":5474,"Ġarrived":5475,"works":5476,"Ġmethods":5477,"become":5478,"Ġsolve":5479,"arrow":5480,"Ġequip":5481,"Ġposted":5482,"Ġtheoretically":5483,"Ġadditions":5484,"Ġoperating":5485,"Ġconven":5486,"Ġcomparative":5487,"brought":5488,"Ġexclusively":5489,"Ġ30":5490,"Ġpursues":5491,"Ġkey":5492,"Ġseparated":5493,"Ġpostulated":5494,"Ġmarks":5495,"ITED":5496,"pathy":5497,"Ġenlargement":5498,"Ġformulae":5499,"Ġdiscussions":5500,"indicate":5501,"Ġauthorize":5502,"Ġaccompany":5503,"Ġsublimity":5504,"argument":5505,"Being":5506,"ĠChrist":5507,"ĠNothing":5508,"preceding":5509,"Ġconfirmation":5510,"elements":5511,"Ġprejudic":5512,"IMITED":5513,"ILITY":5514,"Ġomnipot":5515,"ĠMathemat":5516,"AMAG":5517,"solely":5518,"Ġrationis":5519,"critique":5520,"mong":5521,"rust":5522,"uly":5523,"rept":5524,"itation":5525,"Ġincomplete":5526,"Ġincomp":5527,"icability":5528,"Ġboast":5529,"Ġtopic":5530,"Ġmixed":5531,"Ġnamed":5532,"Ġexcell":5533,"Ġnotice":5534,"Ġliving":5535,"Ġlater":5536,"thics":5537,"throw":5538,"embr":5539,"Ġunf":5540,"olf":5541,"igination":5542,"tains":5543,"Ġtried":5544,"Ġvac":5545,"Ġvice":5546,"ultaneous":5547,"ĠPart":5548,"Ġeverywhere":5549,"Ġmoving":5550,"Ġlimiting":5551,"formula":5552,"mell":5553,"composition":5554,"Ġenounces":5555,"avid":5556,"assum":5557,"thereof":5558,"Ġinvalid":5559,"Ġinfluences":5560,"accident":5561,"Ġnumbers":5562,"Ġresulting":5563,"Ġcoinc":5564,"Ġreaders":5565,"upil":5566,"Ġharm":5567,"extent":5568,"Ġmaintaining":5569,"Ġpaths":5570,"Ġadds":5571,"Ġtreatment":5572,"Ġjudging":5573,"Ġintuiting":5574,"Ġcorrectly":5575,"Ġsupported":5576,"appears":5577,"Ġavoided":5578,"Ġdogmatist":5579,"Ġopportunity":5580,"greater":5581,"Ġenlarge":5582,"attainable":5583,"distinguishable":5584,"Ġsubsumed":5585,"Ġqualitative":5586,"assertions":5587,"concerned":5588,"ologia":5589,"Ġinjurious":5590,"source":5591,"Ġwonderful":5592,"liminary":5593,"Ġapodeictically":5594,"OL":5595,"mist":5596,"mechan":5597,"public":5598,"psychological":5599,"rather":5600,"heres":5601,"rent":5602,"Ġcour":5603,"Ġsil":5604,"Ġtouch":5605,"Ġnext":5606,"Ġeternal":5607,"Ġego":5608,"seen":5609,"lex":5610,"oted":5611,"oses":5612,"Ġexempt":5613,"Ġexternally":5614,"Ġsuit":5615,"resist":5616,"permanent":5617,"ĠTake":5618,"Ġdetr":5619,"ament":5620,"notions":5621,"ecessity":5622,"hering":5623,"get":5624,"suppose":5625,"exception":5626,"Ġqua":5627,"Ġmankind":5628,"Ġarisen":5629,"ĠSome":5630,"enses":5631,"finally":5632,"Ġlimitative":5633,"Ġeffected":5634,"Ġjustly":5635,"educ":5636,"Ġconstituting":5637,"fulness":5638,"ĠConcl":5639,"Ġattains":5640,"Ġinfinitely":5641,"Ġneeds":5642,"Ġspecific":5643,"Ġelsewhere":5644,"Ġjudged":5645,"Ġcomparing":5646,"deser":5647,"Ġexcludes":5648,"Ġroad":5649,"presupposed":5650,"original":5651,"belongs":5652,"Ġtaught":5653,"Ġdefend":5654,"criticism":5655,"rests":5656,"Ġnecessitated":5657,"Ġauthorized":5658,"Ġreckoned":5659,"expression":5660,"Ġspiritual":5661,"ĠSECTION":5662,"Ġenclosed":5663,"ativum":5664,"Ġradical":5665,"ĠPhilosophy":5666,"CTION":5667,"LI":5668,"Leibnitz":5669,"OD":5670,"ORE":5671,"Such":5672,"TRO":5673,"],":5674,"ault":5675,"lo":5676,"rog":5677,"rance":5678,"sed":5679,"want":5680,"Ã¦":5681,"onically":5682,"infin":5683,"rection":5684,"itates":5685,"atory":5686,"Ġwww":5687,"Ġportion":5688,"Ġinternally":5689,"Ġreaction":5690,"ston":5691,"Ġlic":5692,"Ġlength":5693,"Ġgave":5694,"ifferent":5695,"ender":5696,"acting":5697,"aded":5698,"exposition":5699,"Ġaccustomed":5700,"unt":5701,"Ġsubstit":5702,"ĠNor":5703,"Ġdistance":5704,"lessness":5705,"alytical":5706,"Ġrealization":5707,"Ġassent":5708,"Ġassure":5709,"Ġassistance":5710,"ableness":5711,"yss":5712,"osmology":5713,"Ġ19":5714,"Ġconformed":5715,"disposition":5716,"Ġantecedently":5717,"Ġabstracted":5718,"production":5719,"consistency":5720,"metaphysical":5721,"Ġearly":5722,"Ġinevitable":5723,"Ġacquired":5724,"Ġclasses":5725,"corresponds":5726,"Ġascend":5727,"Ġwriting":5728,"ĠDoctrine":5729,"ikes":5730,"Ġcalcul":5731,"Ġforbids":5732,"Ġmoderate":5733,"Ġprepare":5734,"ATIONS":5735,"Ġlinks":5736,"DUCTION":5737,"Ġmovements":5738,"Ġsacrifice":5739,"TRODUCTION":5740,"EAS":5741,"Per":5742,"SEC":5743,"aper":5744,"apon":5745,"aseless":5746,"came":5747,"don":5748,"hope":5749,"logic":5750,"pgl":5751,"powers":5752,"rules":5753,"schema":5754,"yright":5755,"Ġtitles":5756,"Ġofficial":5757,"Ġpaper":5758,"Ġinability":5759,"Ġinsoluble":5760,"Ġbirth":5761,"aning":5762,"ancy":5763,"Ġconnexion":5764,"Ġdate":5765,"Ġbears":5766,"Ġbecame":5767,"utic":5768,"utility":5769,"Ġhalf":5770,"Ġprime":5771,"Ġexposing":5772,"ifying":5773,"uses":5774,"about":5775,"Ġhes":5776,"ĠFIRST":5777,"Ġsees":5778,"whose":5779,"previous":5780,"Ġdiffer":5781,"ĠInformation":5782,"Ġpresently":5783,"Ġconnecting":5784,"meaning":5785,"Ġowner":5786,"ĠHuman":5787,"Ġassist":5788,"physico":5789,"Ġgreatly":5790,"ĠWeb":5791,"Ġadvancing":5792,"rase":5793,"accomp":5794,"Ġmodific":5795,"Ġsolic":5796,"Ġholder":5797,"Ġpassed":5798,"Ġrendering":5799,"Ġinstinct":5800,"Ġchanging":5801,"required":5802,"Ġintrinsic":5803,"Ġamongst":5804,"Ġmediating":5805,"command":5806,"ĠVI":5807,"inclinations":5808,"Ġfair":5809,"presupposition":5810,"ICT":5811,"Ġfigures":5812,"Ġexceptions":5813,"Ġimplied":5814,"Ġ90":5815,"Ġsketch":5816,"Ġcontributes":5817,"Ġimpulse":5818,"maxims":5819,"ĠDivine":5820,"Ġderivative":5821,"Ġcosts":5822,"ĠMorality":5823,"PLES":5824,"Ġfrequently":5825,"established":5826,"shown":5827,"ĠSECOND":5828,"Ġlocated":5829,"Ġtype":5830,"Ġalleged":5831,"Ġbuilding":5832,"Ġreplacement":5833,"ĠExistence":5834,"INCIPLES":5835,"ĠGreek":5836,"utterly":5837,"Ġequipment":5838,"ĠChristian":5839,"apons":5840,"pglaf":5841,"Ġmodifications":5842,"Metaphys":5843,"Sp":5844,"Secondly":5845,"cent":5846,"figure":5847,"ii":5848,"makes":5849,"soul":5850,"uality":5851,"Ġomit":5852,"Ġoppose":5853,"Ġsalt":5854,"Ġpupil":5855,"Ġinadmissible":5856,"Ġband":5857,"annihil":5858,"Ġnarrow":5859,"leads":5860,"Ġbetr":5861,"stone":5862,"impossibility":5863,"essential":5864,"ĠIs":5865,"istotle":5866,"Ġproposes":5867,"emper":5868,"dev":5869,"Ġtherefrom":5870,"adly":5871,"admitted":5872,"adox":5873,"excl":5874,"Ġpreliminary":5875,"Ġknowing":5876,"class":5877,"ortions":5878,"Ġgoing":5879,"prove":5880,"Ġrationalis":5881,"Ġfell":5882,"Ġthinker":5883,"ĠDavid":5884,"Ġimped":5885,"Ġshowed":5886,"Ġconformable":5887,"Ġsettle":5888,"Ġdistinguishes":5889,"cribes":5890,"Ġdemonstrations":5891,"examples":5892,"belief":5893,"pursu":5894,"Ġframe":5895,"Ġintroduction":5896,"Ġintroducing":5897,"ĠAristotle":5898,"commun":5899,"invol":5900,"interests":5901,"nony":5902,"Ġcomprehends":5903,"Ġfancy":5904,"Ġprobability":5905,"comprehend":5906,"observed":5907,"Ġinseparable":5908,"pretensions":5909,"dogmatical":5910,"fortunately":5911,"convin":5912,"Ġridic":5913,"Ġsteps":5914,"secure":5915,"apodeictic":5916,"armony":5917,"oresaid":5918,"Ġbetray":5919,"..":5920,"41":5921,"Pure":5922,"Tr":5923,"ade":5924,"further":5925,"gle":5926,"ry":5927,"treat":5928,"volution":5929,"yllogism":5930,"hes":5931,"ony":5932,"inst":5933,"instead":5934,"receive":5935,"Ġoffer":5936,"Ġinex":5937,"ctory":5938,"Ġfigur":5939,"oments":5940,"Ġlot":5941,"termed":5942,"urean":5943,"three":5944,"ura":5945,"qual":5946,"conjunction":5947,"Ġcompr":5948,"Ġtrust":5949,"Ġtrying":5950,"Ġabide":5951,"Ġheight":5952,"Ġseven":5953,"ĠAb":5954,"ĠApperception":5955,"ponent":5956,"universe":5957,"Ġdisse":5958,"Ġdissimilar":5959,"Ġrepresenting":5960,"Ġmyst":5961,"Ġserved":5962,"ĠIntrodu":5963,"composite":5964,"inev":5965,"Ġthinkers":5966,"haust":5967,"Ġsensuously":5968,"Ġviews":5969,"ĠLogical":5970,"ĠLOG":5971,"Ġdirecting":5972,"Ġestablishes":5973,"ĠĠĠĠĠĠĠĠĠĠĠĠĠĠĠĠĠĠĠĠĠĠĠĠĠĠĠĠĠĠĠ":5974,"Ġideals":5975,"Ġessay":5976,"extensive":5977,"Ġawaken":5978,"process":5979,"Ġinferring":5980,"Ġstrictest":5981,"property":5982,"Ġeye":5983,"Ġrestrictions":5984,"Ġpursued":5985,"Ġdeclare":5986,"considerations":5987,"Ġfurnished":5988,"Ġsufficiency":5989,"Ġfilling":5990,"Ġtranscends":5991,"powerful":5992,"Ġirresist":5993,"Ġindubit":5994,"Ġcontribute":5995,"Whatever":5996,"Ġbenefit":5997,"Ġdeveloped":5998,"Ġexecuted":5999,"Ġheavy":6000,"Before":6001,"iking":6002,"ĠObjects":6003,"Ġattraction":6004,"Ġpatient":6005,"Ġdimensions":6006,"Ġapproximate":6007,"Ġobstacle":6008,"Ġdreams":6009,"Ġarchitectonic":6010,"Ġmundus":6011,"Ġdestruction":6012,"ription":6013,"Ġpropriety":6014,"Ġconjecture":6015,"Ġgifts":6016,"Ġsophisms":6017,"ĠLOGIC":6018,"Gr":6019,"St":6020,"cision":6021,"gulative":6022,"life":6023,"moment":6024,"pute":6025,"spon":6026,"Ġve":6027,"Ġ***":6028,"ĠQu":6029,"Ġten":6030,"Ġbind":6031,"especially":6032,"organ":6033,"Ġfat":6034,"Ġfixed":6035,"Ġnihil":6036,"Ġlab":6037,"cil":6038,"ifference":6039,"Ġdece":6040,"Ġunit":6041,"away":6042,"defect":6043,"Ġspurious":6044,"troy":6045,"Ġdeterminative":6046,"Ġtrack":6047,"Ġvoice":6048,"Ġperplex":6049,"Ġimpose":6050,"sual":6051,"presentation":6052,"Ġstead":6053,"unable":6054,"opinion":6055,"Ġcontrover":6056,"ĠGr":6057,"ĠGer":6058,"Ġphilosoph":6059,"Ġagrees":6060,"ĠRemark":6061,"Ġinvisible":6062,"ĠRegulative":6063,"Ġintelligent":6064,"Ġintelligences":6065,"Ġstrike":6066,"Ġdeducing":6067,"Ġcompass":6068,"Ġreside":6069,"Ġphysiology":6070,"ĠĠĠĠĠĠĠĠĠĠĠĠĠĠĠĠĠĠĠĠĠĠĠĠĠĠ":6071,"aneity":6072,"Ġsolved":6073,"ĠAnalytical":6074,"Ġlegislating":6075,"simply":6076,"Ġinquiring":6077,"destroy":6078,"Ġrestriction":6079,"productive":6080,"Ġdeserving":6081,"Ġfavourable":6082,"Ġprescribed":6083,"freely":6084,"Ġsecurely":6085,"Ġfilled":6086,"Ġopponents":6087,"Ġparagraphs":6088,"Ġwritten":6089,"Ġqualities":6090,"Ġpaying":6091,"Ġrenounce":6092,"Ġsubsists":6093,"Ġderivation":6094,"Ġanticipate":6095,"precedes":6096,"Ġtransgression":6097,"Ġadduced":6098,"Ġclosely":6099,"Ġsuffer":6100,"Ġundertaking":6101,"Ġfictions":6102,"Ġambiguity":6103,"Ġcultivation":6104,"ĠStoics":6105,"Ġembrace":6106,"Ġrepeated":6107,"Ġimprovement":6108,"Ġcloser":6109,"Ġantinomies":6110,"Ġdenomin":6111,"Ġtechnical":6112,"Ġmultiplicity":6113,"infinity":6114,"spont":6115,"!\"":6116,"CT":6117,"Please":6118,"PART":6119,"UND":6120,"cult":6121,"did":6122,"iability":6123,"liberty":6124,"mic":6125,"oint":6126,"peculiar":6127,"infinitum":6128,"enevol":6129,"Ġcat":6130,"ero":6131,"ale":6132,"already":6133,"Ġmine":6134,"Ġelectr":6135,"seem":6136,"let":6137,"Ġhttp":6138,"Ġhomogeneity":6139,"theoretic":6140,"osing":6141,"Ġlicense":6142,"Ġweal":6143,"ĠIll":6144,"ciated":6145,"Ġdeceived":6146,"ush":6147,"using":6148,"definite":6149,"deutic":6150,"trademark":6151,"Ġvict":6152,"arying":6153,"geometr":6154,"Ġstatus":6155,"ĠAfter":6156,"unknown":6157,"Ġparticip":6158,"herence":6159,"Ġchild":6160,"Ġarose":6161,"spe":6162,"iece":6163,"Ġsubter":6164,"oping":6165,"Ġmast":6166,"Ġrealized":6167,"Ġattach":6168,"ĠDIS":6169,"ĠDAMAG":6170,"ounced":6171,"Ġconsiderable":6172,"Ġcharacteristics":6173,"ĠMOR":6174,"ĠMichael":6175,"Ġstrange":6176,"Ġcompels":6177,"evil":6178,"Ġcontentment":6179,"Ġresistance":6180,"Ġdiscoverable":6181,"Ġobserving":6182,"Ġlegal":6183,"Ġreadable":6184,"Ġequality":6185,"APH":6186,"Ġproviding":6187,"Ġ25":6188,"Ġendeavoured":6189,"bles":6190,"shall":6191,"Ġoccupation":6192,"Ġframed":6193,"Ġobservance":6194,"attention":6195,"ocke":6196,"Ġdeliber":6197,"separate":6198,"impenetrability":6199,"compelled":6200,"Ġoffers":6201,"CEP":6202,"Ġedition":6203,"Ġcountry":6204,"However":6205,"likewise":6206,"Ġdefici":6207,"explain":6208,"Ġfancies":6209,"Ġadmixture":6210,"Ġsucceeded":6211,"Ġhumili":6212,"Ġmistakes":6213,"ĠDeity":6214,"Ġ2002":6215,"reflection":6216,"Ġdisplaying":6217,"Ġobey":6218,"icked":6219,"declar":6220,"Ġsympathy":6221,"occupied":6222,"answer":6223,"absurd":6224,"ĠAntinomy":6225,"indispensable":6226,"Ġyears":6227,"Ġurged":6228,"Ġpropensity":6229,"aggregate":6230,"experiences":6231,"Ã¦deutic":6232,"Ġelectronically":6233,"ĠDAMAGES":6234,"ĠMORAL":6235,"Ġhumiliation":6236,"16":6237,"He":6238,"Not":6239,"So":6240,"course":6241,"eed":6242,"na":6243,"said":6244,"uge":6245,"Ġtext":6246,"introdu":6247,"erity":6248,"Ġsize":6249,"Ġincomprehensible":6250,"ndeed":6251,"Ġtook":6252,"Ġdark":6253,"ste":6254,"Ġsust":6255,"Ġsupposes":6256,"Ġarena":6257,"actual":6258,"Ġcomposed":6259,"Ġembarrass":6260,"Ġround":6261,"Ġsoever":6262,"Ġconditionally":6263,"Ġperce":6264,"Ġsynony":6265,"posit":6266,"Ġsevere":6267,"unciation":6268,"Ġyield":6269,"Ġleaving":6270,"prev":6271,"ĠWhere":6272,"ritical":6273,"serves":6274,"Ġdistant":6275,"arium":6276,"icious":6277,"ĠDes":6278,"Ġcorporeal":6279,"Ġanalysing":6280,"Ġdiverse":6281,"Ġstrives":6282,"Ġcontradicts":6283,"Ġremained":6284,"Ġadvances":6285,"Ġlogically":6286,"lucid":6287,"Ġ178":6288,"Ġarrog":6289,"ENCE":6290,"Ġseemingly":6291,"Ġacknowledge":6292,"Ġattempting":6293,"contempl":6294,"becom":6295,"Ġcontinually":6296,"Ġpassive":6297,"Ġinstances":6298,"Ġdenies":6299,"Ġaffects":6300,"Ġexpectations":6301,"Ġsuperfluous":6302,"Ġespecial":6303,"Ġyourself":6304,"Ġthoroughness":6305,"Ġobtains":6306,"Ġinvolving":6307,"Ġabstracto":6308,"Ġconstructing":6309,"consists":6310,"constitution":6311,"Therefore":6312,"grounded":6313,"THE":6314,"Ġproblematically":6315,"Ġacquire":6316,"Ġprescribe":6317,"Ġconceivable":6318,"Ġmeets":6319,"greatest":6320,"Ġascent":6321,"ĠImpossibility":6322,"attained":6323,"Ġdetailed":6324,"Produ":6325,"consequence":6326,"Ġestimated":6327,"Ġconvincing":6328,"Ġtalk":6329,"Ġwidely":6330,"establish":6331,"support":6332,"EMENT":6333,"Ġfruitful":6334,"Ġalteration":6335,"rupted":6336,"ĠPRINCIPLES":6337,"Without":6338,"statements":6339,"Ġfictitious":6340,"transition":6341,"Ġgovernment":6342,"authority":6343,"Ġaccompanied":6344,"Ġexertions":6345,"ĠAlthough":6346,"Ġsusceptible":6347,"endeavour":6348,"inseparably":6349,"Ġincompetent":6350,"Ġexcellent":6351,"accompan":6352,"15":6353,"UD":6354,"bal":6355,"dialectic":6356,"hab":6357,"ians":6358,"mixed":6359,"ton":6360,"Ġid":6361,"heter":6362,"Ġtheories":6363,"reckon":6364,"Ġwished":6365,"Ġinsist":6366,"Ġincor":6367,"aled":6368,"Ġfate":6369,"Ġease":6370,"Ġretain":6371,"Ġrestr":6372,"Ġreview":6373,"Ġbegan":6374,"arise":6375,"ivil":6376,"Ġexag":6377,"Ġlate":6378,"perceive":6379,"umb":6380,"transc":6381,"Ġru":6382,"Ġvag":6383,"exc":6384,"exhib":6385,"whatever":6386,"forth":6387,"Ġdispens":6388,"elt":6389,"Ġnear":6390,"Ġplacing":6391,"Ġgrat":6392,"Ġdescribe":6393,"Ġcalling":6394,"prob":6395,"Ġencour":6396,"ĠEnd":6397,"assign":6398,"Ġquanta":6399,"Ġrefuse":6400,"Ġdecides":6401,"Ġaccords":6402,"Ġneglect":6403,"aims":6404,"Ġbelieved":6405,"Ġspecially":6406,"accordingly":6407,"Ġbran":6408,"discus":6409,"Ġconvince":6410,"Ġinvolve":6411,"ferred":6412,"design":6413,"justified":6414,"Ġfri":6415,"Ġsurpr":6416,"ocation":6417,"Ġorganization":6418,"Ġapproach":6419,"Ġdecline":6420,"Ġadequately":6421,"insight":6422,"Ġprobable":6423,"Ġinduce":6424,"Ġwritings":6425,"Ġmistaken":6426,"Ġescap":6427,"operation":6428,"Ġdevoted":6429,"difficulty":6430,"supply":6431,"Ġhinder":6432,"Analytic":6433,"Ġimpartial":6434,"Ġaccomplished":6435,"Ġserviceable":6436,"Ġdeeply":6437,"Ġobstacles":6438,"inquiry":6439,"inquiries":6440,"Ġdeprive":6441,"unconditionally":6442,"ĠMethod":6443,"Ġthreaten":6444,"Ġaforesaid":6445,"embracing":6446,"Metaphysic":6447,"Ġirresistible":6448,"Ġexagger":6449,"Ar":6450,"FL":6451,"General":6452,"IB":6453,"ION":6454,"RITI":6455,"VIS":6456,"You":6457,"_âĢĶ":6458,"access":6459,"bol":6460,"day":6461,"dated":6462,"merit":6463,"numer":6464,"oad":6465,"text":6466,"uary":6467,"void":6468,"incre":6469,"receptivity":6470,"itful":6471,"icate":6472,"Ġburd":6473,"anci":6474,"Ġred":6475,"Ġrevolution":6476,"oss":6477,"Ġanim":6478,"Ġlest":6479,"Ġlogicians":6480,"jected":6481,"Ġweb":6482,"iboly":6483,"thorough":6484,"ĠID":6485,"uries":6486,"Ġorigination":6487,"permanence":6488,"empiricism":6489,"chain":6490,"active":6491,"Ġunits":6492,"Ġunavoid":6493,"Ġunexpected":6494,"Ġcast":6495,"oft":6496,"Ġrace":6497,"Ġtrace":6498,"Ġdoing":6499,"Ġvit":6500,"Ġperpet":6501,"Ġabyss":6502,"primitive":6503,"adm":6504,"antly":6505,"Ġquoad":6506,"phiboly":6507,"poned":6508,"Ġdisgu":6509,"),âĢĿ":6510,"Ġprecision":6511,"Ġchief":6512,"Ġaround":6513,"ĠScience":6514,"agreement":6515,"ĠCRITI":6516,"ĠGood":6517,"iversal":6518,"Ġcalls":6519,"ĠRational":6520,"Ġrealize":6521,"Ġsimultaneous":6522,"Ġcritic":6523,"Ġentity":6524,"Ġconcluding":6525,"Ġconsistency":6526,"accur":6527,"Ġsatisfies":6528,"Ġmodi":6529,"Ġmodest":6530,"subjectively":6531,"misunderstanding":6532,"arrant":6533,"completed":6534,"Ġprogressus":6535,"Ġallows":6536,"Ġjustifies":6537,"ANTITHESIS":6538,"Ġdistinguishable":6539,"pensably":6540,"III":6541,"Ġmanifestations":6542,"ocr":6543,"divisibility":6544,"Ġoffender":6545,"Ġacquaint":6546,"moreover":6547,"Ġdefinitely":6548,"realization":6549,"Ġconceiving":6550,"guard":6551,"Ġdefence":6552,"advance":6553,"Ġfailed":6554,"Ġultimately":6555,"ators":6556,"proceeds":6557,"Suppose":6558,"Princi":6559,"Ġperforms":6560,"Ġestimating":6561,"Ġdisplayed":6562,"ĠDIVIS":6563,"fortune":6564,"Ġcontemplation":6565,"Ġimitated":6566,"Ġhindrance":6567,"attribute":6568,"ĠMetaphysic":6569,"Ġaccomplish":6570,"proportion":6571,"QUE":6572,"Ġpraise":6573,"ĠPossibility":6574,"ausible":6575,"Ġprincipal":6576,"ercium":6577,"mechanism":6578,"rogative":6579,"Ġfatal":6580,"Ġunavoidably":6581,"ĠCRITIQUE":6582,"ĠDIVISION":6583,"AD":6584,"De":6585,"ETH":6586,"GRE":6587,"Ide":6588,"METH":6589,"Since":6590,"See":6591,"ax":6592,"autonomy":6593,"bits":6594,"bonum":6595,"done":6596,"eBook":6597,"effort":6598,"hon":6599,"http":6600,"ipp":6601,"last":6602,"popular":6603,"sight":6604,"tent":6605,"uent":6606,"varying":6607,"ĉĉ":6608,"Ġastr":6609,"Ġaston":6610,"onations":6611,"encies":6612,"Ġcertitude":6613,"Ġinconsistency":6614,"alle":6615,"Ġbon":6616,"Ġthou":6617,"Ġfil":6618,"Ġelective":6619,"lemic":6620,"entity":6621,"Ġprag":6622,"ibilis":6623,"third":6624,"cient":6625,"que":6626,"istrib":6627,"aining":6628,"uler":6629,"ĠThen":6630,"conceive":6631,"changes":6632,"ames":6633,"illion":6634,"det":6635,"Ġemail":6636,"Ġruler":6637,"Ġconditional":6638,"Ġheat":6639,"Ġhealth":6640,"Ġregular":6641,"Ġuser":6642,"antinomy":6643,"ĠFundamental":6644,"artes":6645,"ĠASC":6646,"ĠAgain":6647,"ĠAGRE":6648,"Ġprepar":6649,"ets":6650,"etary":6651,"ĠSat":6652,"Ġphrase":6653,"ĠWill":6654,"ĠCogn":6655,"Ġcontradistinction":6656,"Ġrequest":6657,"Ġdistress":6658,"Ġpolemic":6659,"ĠRel":6660,"Ġsensibly":6661,"Ġsimpl":6662,"anging":6663,"Ġanalyse":6664,"ĠMon":6665,"ĠMis":6666,"Ġrefers":6667,"Ġcomplying":6668,"ĠLaw":6669,"ĠLIMITED":6670,"knows":6671,"Ġestablishing":6672,"Ġworthiness":6673,"TIES":6674,"practically":6675,"Ġremarked":6676,"ĠPrint":6677,"Ġmission":6678,"Ġaffirmations":6679,"granted":6680,"Ġcopying":6681,"giving":6682,"Ġfalsehood":6683,"*****":6684,"Ġdemanding":6685,"Ġpretend":6686,"Ġrequisites":6687,"Ġrecognise":6688,"purposes":6689,"Ġhelps":6690,"Ġintroduced":6691,"Ġdelusive":6692,"impressions":6693,"Ġdonate":6694,"Ġletter":6695,"Ġfurnishes":6696,"constitutes":6697,"divided":6698,"Ġcreator":6699,"Ġcreating":6700,"Ġcreatures":6701,"Ġeditions":6702,"specif":6703,"Ġfills":6704,"Ġcounsel":6705,"demonstrated":6706,"guidance":6707,"discoverable":6708,"investigations":6709,"Ġdetected":6710,"TICAL":6711,"Ġdiscerned":6712,"Ġbeneficial":6713,"Ġsentiment":6714,"Ġsentiments":6715,"Ġpunct":6716,"Ġ2001":6717,"Ġstrengthen":6718,"Ġpayments":6719,"Ġmeritorious":6720,"Ġfitness":6721,"assertion":6722,"Ġfulfilled":6723,"Ġhistorical":6724,"Ġprimarily":6725,"problems":6726,"Ġpromotion":6727,"Ġpromoting":6728,"Ġspecified":6729,"Ġattacks":6730,"Ġweakness":6731,"concepts":6732,"ĠNOT":6733,"Ġesteemed":6734,"ĠObjective":6735,"Ġfallacies":6736,"Ġobeying":6737,"ĠPRAC":6738,"Ġchimera":6739,"Ġpenetrate":6740,"alogue":6741,"reciprocal":6742,"Ġdiminished":6743,"Ġexercises":6744,"obtained":6745,"unconditional":6746,"Ġtendency":6747,"generally":6748,"noumena":6749,"Ġmutually":6750,"Ġwidest":6751,"sophistical":6752,"ABILITY":6753,"Ġrashly":6754,"omorph":6755,"Ġuprightness":6756,"Ġannexed":6757,"Ġzero":6758,"ĠĠĠĠĠĠĠĠĠĠĠĠĠĠĠĠĠĠĠĠĠĠĠĠĠĠĠĠĠĠĠĠĠĠĠĠĠĠĠĠĠĠĠĠĠĠĠĠĠĠ":6759,"ĠWARRANTY":6760,"Ġcomputer":6761,"OLOGY":6762,"ODOLOGY":6763,"Ġcontroversy":6764,"enevolence":6765,"METHODOLOGY":6766,"ĠASCII":6767,"ĠPRACTICAL":6768,"At":6769,"Some":6770,"Un":6771,"bar":6772,"cin":6773,"certitude":6774,"ego":6775,"field":6776,"fuge":6777,"had":6778,"ken":6779,"little":6780,"ng":6781,"ram":6782,"sch":6783,"Ġtheore":6784,"itiz":6785,"isk":6786,"encing":6787,"Ġwicked":6788,"anc":6789,"Ġreply":6790,"Ġreserve":6791,"Ġconcede":6792,"Ġdatum":6793,"ptions":6794,"ldom":6795,"ogram":6796,"resh":6797,"iful":6798,"permitted":6799,"Ġprolong":6800,"Ġunite":6801,"Ġuncertainty":6802,"Ġunattainable":6803,"del":6804,"dependent":6805,"ansition":6806,"minis":6807,"triangle":6808,"Ġdeterminability":6809,"piric":6810,"presents":6811,"Ġselect":6812,"Ġseldom":6813,"Ġstage":6814,"teaches":6815,"ĠSe":6816,"Ġsubdivision":6817,"ĠNeither":6818,"agon":6819,"ĠInstead":6820,"Ġgroping":6821,"ishments":6822,"roken":6823,"Ġfeet":6824,"ĠEach":6825,"Ġyoung":6826,"Ġrealities":6827,"avity":6828,"avag":6829,"Ġthroughout":6830,"ĠDetermin":6831,"Ġoriginates":6832,"therein":6833,"Ġstruct":6834,"Ġtotally":6835,"evidence":6836,"tenance":6837,"Ġ13":6838,"undetermined":6839,"Ġmathematicians":6840,"Ġnowhere":6841,"maj":6842,"Ġcontingently":6843,"Ġcorrespondence":6844,"contest":6845,"party":6846,"Ġdemonstrating":6847,"Ġsignify":6848,"ĠSubject":6849,"Ġconducts":6850,"Ġmisunderstood":6851,"Ġfallen":6852,"Ġgeneration":6853,"extend":6854,"bling":6855,"Ġdemanded":6856,"irdly":6857,"Ġabsent":6858,"Ġceasing":6859,"Ġleading":6860,"legitimate":6861,"Ġintroduces":6862,"Ġmanifests":6863,"ifices":6864,"demanded":6865,"quantities":6866,"Ġlastly":6867,"Ġsooner":6868,"Ġdispense":6869,"rence":6870,"confirm":6871,"presuppose":6872,"Ġtaut":6873,"conceivable":6874,"Ġdiscussing":6875,"Why":6876,"Ġremoving":6877,"indicates":6878,"feelings":6879,"Ġsafely":6880,"IRD":6881,"ĠNatural":6882,"Ġdeclaring":6883,"Ġdescending":6884,"Ġadduce":6885,"Ġexercised":6886,"Ġaccompanies":6887,"noumenon":6888,"Ġratiocin":6889,"Ġarchetyp":6890,"Ġarchetype":6891,"Ġreconciled":6892,"added":6893,"Ġoverlooked":6894,"semble":6895,"profess":6896,"Ġsaltus":6897,"convinced":6898,"Ġsubterfuge":6899,"22":6900,"50":6901,"?âĢĶ":6902,"Both":6903,"IES":6904,"Nevertheless":6905,"acious":6906,"bed":6907,"between":6908,"joined":6909,"lable":6910,"oose":6911,"oved":6912,"ries":6913,"sur":6914,"sort":6915,"test":6916,"uum":6917,"xis":6918,"your":6919,"Ġaxis":6920,"intr":6921,"insufficient":6922,"isive":6923,"enable":6924,"Ġsl":6925,"Ġsaw":6926,"Ġpol":6927,"Ġpubl":6928,"Ġparent":6929,"Ġmar":6930,"Ġmass":6931,"Ġfelt":6932,"oud":6933,"asions":6934,"Ġlime":6935,"Ġweaken":6936,"ĠIndeed":6937,"ulous":6938,"ulated":6939,"ulsion":6940,"actorily":6941,"amples":6942,"Ġunsuccess":6943,"Ġspecul":6944,"estim":6945,"Ġrare":6946,"Ġtruly":6947,"allow":6948,"priate":6949,"ĠAmong":6950,"Ġappell":6951,"soon":6952,"Ġprecise":6953,"Ġpartial":6954,"etic":6955,"Ġarms":6956,"ĠST":6957,"ĠCan":6958,"derived":6959,"Ġvalu":6960,"elling":6961,"Ġrealizing":6962,"reasons":6963,"aved":6964,"physics":6965,"Ġsecurity":6966,"Ġinvent":6967,"appe":6968,"Ġcompares":6969,"Ġdeciding":6970,"Ġdecisive":6971,"ĠUltimate":6972,"ĠUSE":6973,"Ġsuccessful":6974,"relatively":6975,"Ġclue":6976,"Ġarrives":6977,"Ġimagin":6978,"Ġderives":6979,"error":6980,"Ġsouls":6981,"Ġexplains":6982,"Ġhopes":6983,"discursive":6984,"Ġthoroughgoing":6985,"Ġoccupy":6986,"Ġappropri":6987,"produces":6988,"compared":6989,"picion":6990,"Ġprescribing":6991,"satisfied":6992,"Ġconflicts":6993,"Ġlosing":6994,"Ġprevented":6995,"Ġenlarged":6996,"occur":6997,"occasion":6998,"Ġantithetic":6999,"observ":7000,"proceeding":7001,"concreto":7002,"claims":7003,"postulates":7004,"Ġcrude":7005,"Ġincreased":7006,"hypothetical":7007,"obliged":7008,"ĠMoral":7009,"equiv":7010,"Ġdeclaration":7011,"Ġdeclarations":7012,"Ġmoderation":7013,"Ġprejudice":7014,"Ġobviously":7015,"Ġcurrent":7016,"Ġpenetration":7017,"Ġdiminish":7018,"ĠVIII":7019,"Ġdepartment":7020,"Ġreveals":7021,"Ġextremely":7022,"affected":7023,"Ġinfallibly":7024,"Ġstruggle":7025,"suspicion":7026,"emonstrable":7027,"Ġprejudicial":7028,"Ġsynonym":7029,"prevent":7030,"becomes":7031,"Ġdispensed":7032,"discussion":7033,"Ġunsuccessful":7034,"Em":7035,"OP":7036,"PO":7037,"Ph":7038,"Respect":7039,"bring":7040,"cr":7041,"dle":7042,"favour":7043,"founded":7044,"harmony":7045,"mag":7046,"making":7047,"net":7048,"Ġeduc":7049,"recogn":7050,"itory":7051,"enough":7052,"erms":7053,"Ġwarn":7054,"Ġsw":7055,"Ġsave":7056,"Ġpress":7057,"altogether":7058,"Ġaspect":7059,"Ġlow":7060,"irable":7061,"Ġwithdraw":7062,"version":7063,"Ġprohib":7064,"pping":7065,"Ġdead":7066,"amp":7067,"Ġunfortunately":7068,"Ġric":7069,"Ġundertake":7070,"Ġvision":7071,"Ġvisible":7072,"prud":7073,"Ġreluct":7074,"Ġconsult":7075,"Ġdissatisfaction":7076,"Ġprerogative":7077,"Ġlevel":7078,"ĠSU":7079,"fined":7080,"precept":7081,"precisely":7082,"Ġpresentation":7083,"ĠWolf":7084,"Ġposit":7085,"objections":7086,"Ġimpression":7087,"Ġhereafter":7088,"Ġstrikes":7089,"Ġrespon":7090,"Ġmathematician":7091,"Ġsupplies":7092,"Ġsatisfying":7093,"Ġdefines":7094,"Ġconsequent":7095,"Ġmodification":7096,"Ġseeming":7097,"Ġpostponed":7098,"Ġmisconception":7099,"Ġdepending":7100,"Ġharmonious":7101,"Ġnegatively":7102,"Ġjudges":7103,"Ġjustification":7104,"happy":7105,"Ġpretension":7106,"Ġteaching":7107,"Ġchooses":7108,"Ġparadox":7109,"Ġstrictness":7110,"desires":7111,"Ġtransitory":7112,"Ġobservable":7113,"properties":7114,"demand":7115,"Ġrestricting":7116,"Ġrestrictive":7117,"Ġexactness":7118,"Ġlasting":7119,"Ġarbitrarily":7120,"Ġchem":7121,"Ġaccepting":7122,"Ġfacil":7123,"Ġputting":7124,"Ġsimilarity":7125,"Ġconceit":7126,"Ġdominion":7127,"Ġirrational":7128,"Ġdetach":7129,"Ġcontributions":7130,"theoretically":7131,"attempts":7132,"Ġprofessed":7133,"Ġgladly":7134,"Ġgradual":7135,"ĠEpicurean":7136,"passing":7137,"Ġtransgress":7138,"requirements":7139,"conviction":7140,"Ġforbidden":7141,"Ġsacred":7142,"Ġprepared":7143,"Ġfruitless":7144,"Ġunceasingly":7145,"Ġnumerous":7146,"Ġrecommend":7147,"Ġhyperphysical":7148,"Ġcenturies":7149,"arbitrary":7150,"Ġteachers":7151,"methods":7152,"combination":7153,"combined":7154,"Ġunbounded":7155,"counter":7156,"Ġbeauty":7157,"ulgence":7158,"OREM":7159,"hausted":7160,"Ġbinding":7161,"Ġburden":7162,".âĢĶ":7163,"71":7164,"ACH":7165,"BS":7166,"Besides":7167,"Ca":7168,"ET":7169,"IV":7170,"NOM":7171,"OF":7172,"OBS":7173,"PRO":7174,"Small":7175,"SIC":7176,"Time":7177,"VATIONS":7178,"YTIC":7179,"YSIC":7180,"aught":7181,"aordin":7182,"bst":7183,"bation":7184,"cest":7185,"creat":7186,"cern":7187,"dut":7188,"ees":7189,"fold":7190,"fund":7191,"iatus":7192,"lain":7193,"lication":7194,"lines":7195,"nis":7196,"oe":7197,"oil":7198,"rain":7199,"rown":7200,"spr":7201,"sciousness":7202,"smell":7203,"slet":7204,"ux":7205,"wit":7206,"ware":7207,"yield":7208,"Ġaut":7209,"inently":7210,"ithetic":7211,"enjoy":7212,"Ġcens":7213,"Ġsmo":7214,"Ġinsp":7215,"Ġball":7216,"Ġbenevolence":7217,"Ġtol":7218,"Ġmal":7219,"Ġmoments":7220,"ctible":7221,"Ġfire":7222,"anill":7223,"anwhile":7224,"Ġep":7225,"Ġissu":7226,"Ġrevel":7227,"Ġreferences":7228,"Ġrelease":7229,"Ġredistrib":7230,"Ġdas":7231,"Ġduring":7232,"arm":7233,"asus":7234,"Ġanxi":7235,"Ġancest":7236,"Ġlays":7237,"Ġliability":7238,"Ġweapons":7239,"Ġgot":7240,"ĠIF":7241,"ĠIND":7242,"uris":7243,"ceptions":7244,"istered":7245,"changed":7246,"hens":7247,"pleteness":7248,"usality":7249,"actually":7250,"aments":7251,"Ġunpleasant":7252,"Ġunvarying":7253,"plain":7254,"dependence":7255,"Ġcompos":7256,"Ġcomponent":7257,"Ġrig":7258,"ĠBE":7259,"ĠBRE":7260,"suasion":7261,"Ġregistered":7262,"Ġcognitive":7263,"ĠFinally":7264,"Ġquid":7265,"Ġstake":7266,"acities":7267,"Ġsubjection":7268,"ĠPsychology":7269,"Ġparte":7270,"ĠThought":7271,"tellig":7272,"ĠSen":7273,"elve":7274,"agogic":7275,"matic":7276,"duc":7277,"reator":7278,"Ġmock":7279,"ĠCa":7280,"Ġcontrol":7281,"Ġowns":7282,"fects":7283,"medi":7284,"Ġfinding":7285,"ĠRoyal":7286,"ĠEND":7287,"sym":7288,"Ġexpense":7289,"Ġexpenses":7290,"Ġamphiboly":7291,"keep":7292,"earance":7293,"ilege":7294,"ĠDifference":7295,"ĠDonations":7296,"Ġsecuring":7297,"Ġviewing":7298,"Ġinfring":7299,"Ġapagogic":7300,"ĠMET":7301,"Ġcontradictorily":7302,"Ġtruths":7303,"contradistinction":7304,"ERVATIONS":7305,"mail":7306,"eneal":7307,"subordinated":7308,"Ġimages":7309,"TINOM":7310,"Ġpleases":7311,"Ġlegality":7312,"Ġfinality":7313,"Ġassertor":7314,"Ġassertorical":7315,"Ġpassages":7316,"Ġmaterialism":7317,"Ġmisconceptions":7318,"Ġoblige":7319,"ĠĠĠĠĠĠĠĠĠĠĠĠĠĠĠĠĠĠĠĠĠĠĠĠĠĠĠĠĠĠĠĠĠĠĠĠĠĠĠĠĠĠ":7320,"giver":7321,"RECT":7322,"substant":7323,"Ġantecede":7324,"whereas":7325,"Ġauthors":7326,"ĠUniversal":7327,"Ġprofit":7328,"Ġcategorically":7329,"Ġcomprehension":7330,"Ġsuppositions":7331,"appearances":7332,"Ġ35":7333,"Ġdesignation":7334,"attack":7335,"Ġpursuing":7336,"Ġdesert":7337,"THER":7338,"Ġ45":7339,"insically":7340,"ipse":7341,"sensations":7342,"conformably":7343,"interested":7344,"ĠANTINOM":7345,"Ġdownlo":7346,"ouncement":7347,"subsisting":7348,"Ġarrangements":7349,"provided":7350,"Ġaccession":7351,"Ġsucceeding":7352,"Ġinduction":7353,"continuous":7354,"Ġdiscussed":7355,"motives":7356,"Ġhumbles":7357,"Only":7358,"Practical":7359,"Ġelevation":7360,"Ġbenefic":7361,"Ġnecessitation":7362,"Ġearths":7363,"Ġsentence":7364,"Ġperforming":7365,"Ġcapacities":7366,"Ġschematism":7367,"ĠEmpty":7368,"Ġentering":7369,"Ġestimation":7370,"Ġcrime":7371,"Ġextraordin":7372,"Ġexcite":7373,"Ġtwelve":7374,"Ġomnis":7375,"legislative":7376,"Ġsubsistence":7377,"Ġ60":7378,"volition":7379,"Ġanticipation":7380,"Ġpromotive":7381,"Ġspecification":7382,"Ġspecifically":7383,"Ġcontemplated":7384,"TRIB":7385,"Ġconfirms":7386,"ĠCONFL":7387,"Ġprotected":7388,"ĠCompleteness":7389,"ĠMetaphysical":7390,"ĠIdealism":7391,"Ġnumerical":7392,"reciprocally":7393,"coexistence":7394,"ĠApplication":7395,"ĠAppearance":7396,"ĠProblem":7397,"ĠProblems":7398,"ĠStoic":7399,"words":7400,"Ġdamages":7401,"Ġguaranteed":7402,"syllogisms":7403,"Ġenumeration":7404,"Ġcredit":7405,"Ġwaver":7406,"Ġconjoining":7407,"ĠANALYTIC":7408,"ĠĠĠĠĠĠĠĠĠĠĠĠĠĠĠĠĠĠĠĠĠĠĠĠĠĠĠĠĠĠ":7409,"Ġprinted":7410,"Ġmachine":7411,"Ġomnipotent":7412,"ĠConclusions":7413,"Ġ199":7414,"donate":7415,"Ġsolicit":7416,"Ġfigurative":7417,"ĠIntroductory":7418,"States":7419,"Ġdenominate":7420,"Ġcatalogue":7421,"ĠIllusory":7422,"Ġchildren":7423,"APHYSIC":7424,"CEPTION":7425,"ĠMORALS":7426,"ĠIDEAS":7427,"Ġacquaintance":7428,"Principle":7429,"allel":7430,"ĠMonad":7431,"omorphic":7432,"OBSERVATIONS":7433,"duties":7434,"anilla":7435,"Ġancestors":7436,"Ġcompositum":7437,"ĠBREACH":7438,"telligence":7439,"ĠMETAPHYSIC":7440,"ĠANTINOMY":7441,"Ġextraordinary":7442,"ĠCONFLICT":7443,"42":7444,"Al":7445,"Critique":7446,"ITION":7447,"Necessity":7448,"PEND":7449,"UM":7450,"fill":7451,"function":7452,"fety":7453,"king":7454,"tou":7455,"ub":7456,"van":7457,"hetical":7458,"Ġpot":7459,"Ġpair":7460,"Ġportions":7461,"Ġpiece":7462,"Ġinhering":7463,"Ġbes":7464,"Ġbaseless":7465,"Ġmer":7466,"Ġreception":7467,"Ġrevol":7468,"Ġdi":7469,"Ġdrop":7470,"Ġbeg":7471,"otion":7472,"Ġhollow":7473,"llog":7474,"iver":7475,"Ġlar":7476,"ogmat":7477,"verted":7478,"Ġuninter":7479,"Ġunansw":7480,"Ġunanim":7481,"Ġunobserved":7482,"illusions":7483,"Ġ(_":7484,"Ġrising":7485,"Ġrisk":7486,"Ġundermin":7487,"Ġsoci":7488,"stands":7489,"Ġpersist":7490,"posited":7491,"indu":7492,"antom":7493,"artic":7494,"Ġstopp":7495,"ourth":7496,"Ġadhere":7497,"Ġsubmitted":7498,"pposites":7499,"possibly":7500,"Ġdiffers":7501,"Ġnothingness":7502,"Ġfirstly":7503,"Ġoutset":7504,"Ġattaching":7505,"ĠDO":7506,"ĠDogmat":7507,"Ġintelligibilis":7508,"Ġrefutation":7509,"represented":7510,"event":7511,"Ġcontented":7512,"Ġconceptus":7513,"Ġguiding":7514,"Ġnegativum":7515,"Ġinvestigated":7516,"subjected":7517,"ĠĠĠĠĠĠĠĠĠĠĠĠĠĠĠĠĠĠĠĠĠĠĠĠĠ":7518,"Ġasserting":7519,"Ġantiqu":7520,"partly":7521,"miss":7522,"Ġcoal":7523,"completion":7524,"Ġdeductions":7525,"ailing":7526,"Ġfalling":7527,"Ġvariance":7528,"Ġspecious":7529,"Ġmathematically":7530,"Ġadvantageous":7531,"Ġconvict":7532,"Ġcontinues":7533,"indefinitum":7534,"Ġcomparatively":7535,"whereby":7536,"Ġtransformed":7537,"community":7538,"containing":7539,"Ġtests":7540,"INTRODUCTION":7541,"faculties":7542,"thinks":7543,"confess":7544,"Ġdestroyed":7545,"Ġannihilates":7546,"characteristic":7547,"characteristics":7548,"Ġfanci":7549,"province":7550,"Ġsafety":7551,"particularly":7552,"afterwards":7553,"Ġnecessitate":7554,"Ġaggregation":7555,"proofs":7556,"Ġsubsisting":7557,"influenced":7558,"Ġillustration":7559,"pretation":7560,"Ġcomplaint":7561,"Ġundertaken":7562,"Ġordinary":7563,"Ġdry":7564,"Ġgranting":7565,"Ġclearer":7566,"Ġbooks":7567,"Ġparalogisms":7568,"comparison":7569,"Ġinherent":7570,"anticipation":7571,"Ġmutual":7572,"Ġinstitute":7573,"Ġhearing":7574,"Ġobstinately":7575,"Ġunbroken":7576,"ĠPossible":7577,"Ġguarantee":7578,"intuite":7579,"circle":7580,"ĠMathematical":7581,"Ġfairly":7582,"ĠGround":7583,"spontaneity":7584,"Ġvictory":7585,"declaring":7586,"Ideal":7587,"ĠRelation":7588,"Ġstructure":7589,"llogistic":7590,"ĠDogmatism":7591,"13":7592,"17":7593,"18":7594,"40":7595,"Again":7596,"Finally":7597,"IG":7598,"Mat":7599,"Sy":7600,"authoriz":7601,"bor":7602,"bet":7603,"bered":7604,"danger":7605,"ey":7606,"fal":7607,"fits":7608,"fixed":7609,"iant":7610,"lp":7611,"losing":7612,"mem":7613,"sation":7614,"ta":7615,"tow":7616,"vention":7617,"writ":7618,"help":7619,"Ġaught":7620,"once":7621,"inferences":7622,"rete":7623,"itim":7624,"isition":7625,"ateness":7626,"Ġcut":7627,"Ġcivil":7628,"Ġsine":7629,"Ġsedu":7630,"Ġsaved":7631,"Ġpages":7632,"Ġincap":7633,"Ġincontest":7634,"ica":7635,"Ġmil":7636,"analog":7637,"sett":7638,"Ġrever":7639,"Ġdwell":7640,"Ġdoubted":7641,"utiful":7642,"Ġlib":7643,"Ġloose":7644,"Ġforget":7645,"terior":7646,"terms":7647,"irae":7648,"ciences":7649,"quality":7650,"chief":7651,"Ġintend":7652,"Ġdeceive":7653,"ilty":7654,"usual":7655,"acted":7656,"Ġuniting":7657,"illiant":7658,"umbling":7659,"notwithstanding":7660,"Ġrises":7661,"Ġrob":7662,"ĠBOOK":7663,"allen":7664,"Ġimpract":7665,"adow":7666,"Ġregulate":7667,"indifferent":7668,"Ġshadow":7669,"Ġstability":7670,"united":7671,"Ġadvers":7672,"too":7673,"Ġdisregard":7674,"ĠPers":7675,"Ġpartiality":7676,"Ġleap":7677,"Ġartic":7678,"ĠSc":7679,"precede":7680,"Ġtranscendentally":7681,"izable":7682,"Ġplane":7683,"ĠCertain":7684,"ĠCritical":7685,"Ġowing":7686,"coming":7687,"Ġremed":7688,"Ġbelonged":7689,"overt":7690,"Ġpresum":7691,"Ġamid":7692,"Ġmatured":7693,"assume":7694,"Ġhereby":7695,"Ġconcrete":7696,"appoint":7697,"Ġassumptions":7698,"ĠLocke":7699,"Ġconsisting":7700,"Ġconfound":7701,"undity":7702,"relates":7703,"Ġmotions":7704,"lements":7705,"Ġstanding":7706,"Ġsatisfactorily":7707,"Ġneeded":7708,"ĠTHIRD":7709,"Ġattributing":7710,"Ġdistinctions":7711,"ĠSuppose":7712,"obsc":7713,"Ġmisled":7714,"Ġfals":7715,"Ġintellect":7716,"Ġadding":7717,"requis":7718,"Ġunden":7719,"Ġbrain":7720,"Ġbrilliant":7721,"ĠYet":7722,"Ġceases":7723,"Ġcontinuum":7724,"Ġcombine":7725,"Ġdogmatically":7726,"believe":7727,"Ġrestricts":7728,"ĠArgum":7729,"Ġraising":7730,"Ġappropriate":7731,"employing":7732,"Ġseparation":7733,"Ġcareful":7734,"possession":7735,"Ġacquisition":7736,"conflict":7737,"analyse":7738,"Ġconvert":7739,"ĠpropÃ¦deutic":7740,"conformable":7741,"Ġcollected":7742,"kinds":7743,"enetrable":7744,"xioms":7745,"Ġplainly":7746,"Ġopened":7747,"Ġabsurdity":7748,"Ġinduced":7749,"continue":7750,"Ġsubsume":7751,"Ġelevating":7752,"Ġremoves":7753,"express":7754,"Ġpopularity":7755,"Ġextravag":7756,"Ġsignal":7757,"Ġrenunciation":7758,"exerc":7759,"Ġillustrate":7760,"signific":7761,"ĠInterest":7762,"scepticism":7763,"concilable":7764,"ĠWhatever":7765,"Ġimitation":7766,"Ġpathologically":7767,"Ġperiods":7768,"Ġchimeras":7769,"Ġambiguous":7770,"Ġdictate":7771,"clearness":7772,"Ġhardly":7773,"Ġresolved":7774,"absence":7775,"ĠTransition":7776,"Ġdestructive":7777,"Ġembraces":7778,"Ġinstituted":7779,"Ġobstinate":7780,"Ġinfallible":7781,"Ġbeautiful":7782,"Ġelaboration":7783,"Ġcombatants":7784,"Ġlurks":7785,"Ġconvenience":7786,"Ġunfair":7787,"assumed":7788,"Ġcoincide":7789,"Ġharmless":7790,"Ġhesitate":7791,"annihilated":7792,"Ġimpediments":7793,"Ġridiculous":7794,"Ġindubitable":7795,"speaking":7796,"Ġmaster":7797,"Nothing":7798,"steps":7799,"accompanied":7800,"habit":7801,"reckoned":7802,"Ġrestrain":7803,"Ġvague":7804,"assigned":7805,"Ġsurprising":7806,"appeared":7807,"Mathemat":7808,"better":7809,"toward":7810,"):":7811,"Author":7812,"EG":7813,"HT":7814,"Hume":7815,"NITY":7816,"VI":7817,"bene":7818,"dict":7819,"divers":7820,"eal":7821,"eous":7822,"ethics":7823,"fl":7824,"fr":7825,"fut":7826,"fil":7827,"horizon":7828,"ips":7829,"lated":7830,"mutable":7831,"ngl":7832,"ock":7833,"pite":7834,"pun":7835,"pel":7836,"parent":7837,"pdated":7838,"rs":7839,"ration":7840,"run":7841,"sk":7842,"takes":7843,"taken":7844,"xious":7845,"Ġrom":7846,"Ġtone":7847,"Ġtemper":7848,"held":7849,"ining":7850,"inconsistent":7851,"incomprehensible":7852,"Ġomitted":7853,"rep":7854,"revol":7855,"itute":7856,"itted":7857,"ening":7858,"erably":7859,"Ġwings":7860,"Ġsoft":7861,"Ġpet":7862,"Ġpays":7863,"Ġinsufficiency":7864,"almost":7865,"oric":7866,"Ġmixture":7867,"cely":7868,"Ġflu":7869,"anks":7870,"anuary":7871,"Ġecon":7872,"Ġelucid":7873,"Ġresolution":7874,"Ġrestraint":7875,"Ġreverse":7876,"streng":7877,"entitled":7878,"arles":7879,"arcely":7880,"iven":7881,"Ġlive":7882,"ĠĠĠĠĠĠ":7883,"Ġwealth":7884,"ceptive":7885,"ibus":7886,"ĠIM":7887,"quire":7888,"ander":7889,"ecided":7890,"Ġdeed":7891,"ilt":7892,"Ġunites":7893,"Ġunconscious":7894,"Ġunmixed":7895,"abandon":7896,"ummum":7897,"Ġthereon":7898,"ested":7899,"Ġsensual":7900,"ĠBel":7901,"Ġship":7902,"acle":7903,"Ġappet":7904,"caution":7905,"fort":7906,"ĠPO":7907,"ĠPost":7908,"strum":7909,"strained":7910,"ĠOp":7911,"intention":7912,"preted":7913,"Ġdiffered":7914,"ĠInternal":7915,"Ġplausible":7916,"Ġgross":7917,"forming":7918,"Ġdescribed":7919,"proving":7920,"Ġago":7921,"Ġenabl":7922,"ĠEngl":7923,"having":7924,"Ġpossessions":7925,"Ġapplicability":7926,"ĠDate":7927,"ouncing":7928,"assumption":7929,"Ġimpelled":7930,"thereto":7931,"Ġinviol":7932,"Ġdivisions":7933,"Ġrefuted":7934,"Ġconcludes":7935,"Ġindul":7936,"Ġindivid":7937,"Ġindemonstrable":7938,"ĠUND":7939,"Ġconfounded":7940,"Ġaffair":7941,"Ġdiscovers":7942,"Ġattainable":7943,"Ġsupplying":7944,"Ġstandpoint":7945,"dispute":7946,"Ġneedless":7947,"Ġguess":7948,"Ġguides":7949,"Ġguided":7950,"particip":7951,"Ġaffection":7952,"Ġmiss":7953,"distinct":7954,"grat":7955,"Ġcircular":7956,"corrupt":7957,"ignorance":7958,"happen":7959,"Ġvolunt":7960,"prescribes":7961,"justify":7962,"rowd":7963,"Ġsurvey":7964,"Ġblamed":7965,"Ġevils":7966,"ĠJanuary":7967,"impul":7968,"THING":7969,"Ġhypothetically":7970,"Ġscarcely":7971,"Ġadopting":7972,"Ġhappening":7973,"Ġconversion":7974,"Ġindispensably":7975,"Ġlaying":7976,"Ġsubtlety":7977,"judge":7978,"Ġimplanted":7979,"ruption":7980,"Ġassigns":7981,"Ġborrowing":7982,"Ġangle":7983,"Ġcry":7984,"Ġfitted":7985,"Ġfitting":7986,"Ġreturns":7987,"ĠCharles":7988,"Ġbuilt":7989,"Ġpersuaded":7990,"Ġwondered":7991,"Ġappeared":7992,"Ġconfession":7993,"defined":7994,"Ġdoctrinal":7995,"Ġhonestly":7996,"ĠWho":7997,"deduce":7998,"Ġabandons":7999,"restriction":8000,"restricted":8001,"sufficiently":8002,"Ġchimerical":8003,"Ġstepping":8004,"Ġdictates":8005,"Ġresolve":8006,"Ġmonth":8007,"Ġrecommended":8008,"Ġreveal":8009,"smallest":8010,"Ġwarnings":8011,"various":8012,"Ġimperfection":8013,"SITION":8014,"Ġcredential":8015,"Ġanthropology":8016,"Ġcompensate":8017,"Ġmiddle":8018,"Ġgrowth":8019,"Ġsharp":8020,"circum":8021,"ĠMathematics":8022,"Ġvacant":8023,"Ġinvalidity":8024,"Ġcalculated":8025,"inevitable":8026,"Ġlaborious":8027,"Ġdeceitful":8028,"Ġarrogant":8029,"Produced":8030,"Ġbranches":8031,"Ġexaggerated":8032,"intrinsic":8033,"Ġappellation":8034,"ĠSTART":8035,"Ġsynonymous":8036,"Empirical":8037,"prudence":8038,"future":8039,"ĠBelief":8040,"Ġenabling":8041,"ĠUNDER":8042,"'t":8043,")(":8044,"--":8045,"Act":8046,"AVE":8047,"BL":8048,"Foundation":8049,"Happ":8050,"HAT":8051,"Is":8052,"NAL":8053,"Plain":8054,"VEN":8055,"agement":8056,"bour":8057,"bra":8058,"business":8059,"coin":8060,"culate":8061,"gue":8062,"holy":8063,"ipt":8064,"lest":8065,"lie":8066,"license":8067,"lier":8068,"mast":8069,"oke":8070,"pat":8071,"pone":8072,"sent":8073,"scribe":8074,"tempt":8075,"uating":8076,"Ġign":8077,"onical":8078,"inner":8079,"incapable":8080,"Ġost":8081,"referred":8082,"iss":8083,"isy":8084,"Ġcard":8085,"Ġcustom":8086,"eral":8087,"Ġwoe":8088,"Ġsor":8089,"Ġsan":8090,"Ġpage":8091,"Ġthrown":8092,"Ġmoun":8093,"Ġfed":8094,"Ġflat":8095,"anqu":8096,"edistrib":8097,"Ġell":8098,"Ġrevere":8099,"Ġdread":8100,"arum":8101,"arched":8102,"Ġhit":8103,"imb":8104,"Ġnote":8105,"Ġlof":8106,"Ġlives":8107,"Ġlively":8108,"Ġlimb":8109,"Ġwithdrawn":8110,"uristic":8111,"perity":8112,"ulating":8113,"ĠTerms":8114,"Ġalge":8115,"Ġalike":8116,"Ġhabits":8117,"Ġunlaw":8118,"Ġspare":8119,"Ġspoil":8120,"Ġlawgiver":8121,"often":8122,"Ġtrad":8123,"Ġtroub":8124,"ĠBUT":8125,"orial":8126,"priv":8127,"Ġheuristic":8128,"Ġexperienced":8129,"ĠFUL":8130,"ĠFUND":8131,"Ġquit":8132,"ordination":8133,"Ġconsent":8134,"ĠAct":8135,"ponder":8136,"force":8137,"ĠPG":8138,"Ġcharact":8139,"Ġye":8140,"teaching":8141,"Ġargu":8142,"ĠSee":8143,"ĠĠĠĠĠĠĠĠĠĠĠĠĠĠĠĠĠĠĠĠĠĠĠĠĠĠĠĠĠĠĠĠĠĠĠĠĠĠĠ":8144,"Ġsubrept":8145,"Ġserious":8146,"Ġserving":8147,"opyright":8148,"orts":8149,"Ġgrate":8150,"ĠGos":8151,"Ġemployees":8152,"Ġdesirable":8153,"Ġpoison":8154,"ĠHAVE":8155,"Ġacted":8156,"Ġagreed":8157,"ĠRespect":8158,"ĠRedistrib":8159,"ĠEVEN":8160,"ĠDuty":8161,"angles":8162,"Ġlikely":8163,"Ġhands":8164,"Ġresting":8165,"Ġproofread":8166,"Ġcompel":8167,"ĠLIC":8168,"rade":8169,"Ġ100":8170,"Ġconfirmed":8171,"Intelligence":8172,"knowled":8173,"ENSE":8174,"disposed":8175,"Ġlegally":8176,"Ġinvestigating":8177,"Ġasserts":8178,"ĠTHAT":8179,"doctr":8180,"Ġprevents":8181,"oval":8182,"Ġhero":8183,"TERNAL":8184,"morally":8185,"ails":8186,"Ġlooks":8187,"ĠTHEOREM":8188,"ontological":8189,"Ġesse":8190,"everyone":8191,"discern":8192,"morals":8193,"ANT":8194,"Ġparallel":8195,"ĠExcept":8196,"ĠUnless":8197,"Ġprofits":8198,"Ġexclusion":8199,"Ġtransfer":8200,"Ġinscr":8201,"Ġdesigns":8202,"Ġbliss":8203,"ificent":8204,"commanded":8205,"ighbour":8206,"ĠVanilla":8207,"Ġ568":8208,"IND":8209,"Ġearlier":8210,"Ġ40":8211,"Ġputs":8212,"Ġreaching":8213,"contentment":8214,"Ġmajesty":8215,"demonstrative":8216,"Ġdefault":8217,"lightened":8218,"critic":8219,"Ġadmire":8220,"Ġplanets":8221,"Ġreceipt":8222,"Supposing":8223,"Ġapparently":8224,"Ġmistake":8225,"Ġdiscernment":8226,"Ġrepay":8227,"Ġperformed":8228,"Ġreflecting":8229,"Ġproportioned":8230,"Ġanimals":8231,"Ġexcused":8232,"Ġprosperity":8233,"Ġsuggested":8234,"Ġpersuade":8235,"Ġcalm":8236,"Ġcalculate":8237,"ĠMorals":8238,"Ġculture":8239,"Ġhonesty":8240,"Ġsecretly":8241,"Ġcommunicated":8242,"commonest":8243,"Ġprotect":8244,"Ġperiodic":8245,"Ġpattern":8246,"Ġsuffic":8247,"Ġordains":8248,"maintained":8249,"AMENTAL":8250,"Ġfulfilment":8251,"Ġarchitectonical":8252,"anthropology":8253,"Ġhypertext":8254,"Ġformats":8255,"Ġdisclaimer":8256,"Ġdisclaimers":8257,"Ġproprietary":8258,"Ġmagnanim":8259,"Ġmagnificent":8260,"Ġpraised":8261,"Ġfooting":8262,"Ġsusceptibility":8263,"Ġhypostatizing":8264,"copyright":8265,"Ġvisit":8266,"Ġroyalty":8267,"Ġroyalties":8268,"CLUD":8269,"Ġselfishness":8270,"Ġomnipotence":8271,"Ġcourage":8272,"Ġsuitably":8273,"cultiv":8274,"Ġparticipation":8275,"ĠDISTRIB":8276,"Ġdeliberate":8277,"heteronomy":8278,"Archive":8279,"accurate":8280,"ocrisy":8281,"efforts":8282,"Ġastonishment":8283,"Ġboni":8284,"Ġfiles":8285,"Ġpragmatical":8286,"ĠAGREE":8287,"specification":8288,"Philos":8289,"Ġprohibition":8290,"spring":8291,"sletter":8292,"Ġissue":8293,"Ġanxiety":8294,"ducive":8295,"ĠRoyalty":8296,"Ġomniscient":8297,"Happiness":8298,"coinc":8299,"Ġostensive":8300,"Ġfederal":8301,"Ġreverence":8302,"Ġalgebra":8303,"Ġunlawful":8304,"ĠFULL":8305,"ĠFUNDAMENTAL":8306,"Ġcharacters":8307,"ĠLICENSE":8308,"Ġinscrutable":8309,"Ġmagnanimous":8310,"CLUDING":8311,"ĠDISTRIBUT":8312,"20":8313,"Ch":8314,"CTR":8315,"FIRST":8316,"Remark":8317,"cartes":8318,"dash":8319,"iological":8320,"mdash":8321,"nic":8322,"vity":8323,"yle":8324,"Ġ+":8325,"Ġtant":8326,"reproductive":8327,"Ġcush":8328,"Ġsit":8329,"Ġsem":8330,"Ġsmell":8331,"alter":8332,"along":8333,"essel":8334,"estr":8335,"Ġthread":8336,"Ġfing":8337,"Ġfresh":8338,"Ġnaught":8339,"Ġeleg":8340,"sthetical":8341,"aralogism":8342,"utious":8343,"Ġhiatus":8344,"Ġland":8345,"irte":8346,"Ġgeneal":8347,"quid":8348,"empor":8349,"embarrass":8350,"usio":8351,"âĢĶ(":8352,"amount":8353,"iest":8354,"Ġpossibilities":8355,"Ġrap":8356,"ĠBetween":8357,"Ġvessel":8358,"Ġpertaining":8359,"Ġnobody":8360,"Ġimmedi":8361,"antity":8362,"presenting":8363,"Ġstyle":8364,"phaenomenon":8365,"Ġjuris":8366,"ĠForm":8367,"Ġdispar":8368,"ĠPref":8369,"ĠParalogism":8370,"Ġprem":8371,"ĠThrough":8372,"Ġchapt":8373,"Ġsomeone":8374,"ĠĠĠĠĠĠĠĠĠĠĠĠĠĠĠĠĠĠĠĠĠĠĠĠĠĠĠĠĠĠĠĠĠĠĠ":8375,"Ġphantom":8376,"ĠNecessity":8377,"intensive":8378,"intuit":8379,"ĠInasmuch":8380,"ĠCoper":8381,"ĠCreator":8382,"Ġgravity":8383,"Ġextinct":8384,"Ġhappily":8385,"Ġsensibilis":8386,"Ġfacts":8387,"Ġexplore":8388,"Ġapper":8389,"ĠReality":8390,"ĠRepresentation":8391,"Ġcharacterizes":8392,"ĠMotion":8393,"Ġindestr":8394,"Ġdecre":8395,"Ġmetal":8396,"representing":8397,"Ġ16":8398,"Ġ17":8399,"ĠUpon":8400,"Ġillum":8401,"ĠConsciousness":8402,"ERAL":8403,"Ġarranging":8404,"Ġupwards":8405,"ENERAL":8406,"cribing":8407,"Ġconsequentia":8408,"monition":8409,"Ġprogressing":8410,"Ġinstant":8411,"ĠBefore":8412,"Ġ22":8413,"Ġobliges":8414,"blance":8415,"Ġharmonizes":8416,"Ġintrinsically":8417,"Ġintuites":8418,"Ġdynamically":8419,"intelligibility":8420,"ĠUniverse":8421,"Ġsurr":8422,"ocal":8423,"commercium":8424,"placed":8425,"INE":8426,"originates":8427,"Ġindiscern":8428,"conformability":8429,"ĠANTITHESIS":8430,"realitas":8431,"Ġreciprocity":8432,"Ġequals":8433,"mortal":8434,"antecede":8435,"Ġbackwards":8436,"Ġprivativum":8437,"Ġantecedentia":8438,"uitous":8439,"Ġpreserved":8440,"Ġstudies":8441,"ĠÃ¦sthetical":8442,"ĠDependence":8443,"junct":8444,"contingency":8445,"consequentia":8446,"negation":8447,"Ġglass":8448,"Concl":8449,"Ġoccurred":8450,"Ġoccurrence":8451,"concerning":8452,"ĠĠĠĠĠĠĠĠĠĠĠĠĠĠ":8453,"ĠChange":8454,"Ġprosyllogism":8455,"Ġillustrating":8456,"Ġsubstantia":8457,"Ġanticipations":8458,"ĠPhenomenal":8459,"equal":8460,"Ġmeasured":8461,"bodies":8462,"ĠCONCEPTION":8463,"Ġisolate":8464,"uctible":8465,"Ġapprehended":8466,"Ġdimension":8467,"progression":8468,"ĠNeg":8469,"Experience":8470,"colour":8471,"enlargement":8472,"ĠOrigin":8473,"Ġmundo":8474,"ĠIntuitions":8475,"ĠAntithetic":8476,"conducted":8477,"ĠANALOGY":8478,"intuited":8479,"continuation":8480,"idealism":8481,"ĠParticular":8482,"formulae":8483,"Space":8484,"Ġcomprises":8485,"Ġdissect":8486,"Ġdissection":8487,"Granted":8488,"ĠRemarks":8489,"seems":8490,"ĠDescartes":8491,"Ġperpetually":8492,"guarded":8493,"Ġpreparation":8494,"itizen":8495,"ancendent":8496,"piricist":8497,"smelling":8498,"hensions":8499,"ĠSensuous":8500,"Ġassertorically":8501,"substantia":8502,"ĠMonadists":8503,"Although":8504,"touch":8505,"Ġunanswerable":8506,"Ġunanimously":8507,"ĠDOCTR":8508,"Ġtantamount":8509,"Ġcushion":8510,"Ġsemblance":8511,"Ġfingers":8512,"Ġelegance":8513,"irteen":8514,"Ġgenealogical":8515,"Ġrapid":8516,"Ġimmediata":8517,"ĠPreface":8518,"Ġchapters":8519,"intuitus":8520,"ĠCopernic":8521,"Ġindestructible":8522,"ĠCONCEPTIONS":8523,"ĠDOCTRINE":8524,".;":8525,"10":8526,"11":8527,"39":8528,"45":8529,"55":8530,"57":8531,"After":8532,"Cont":8533,"Fourth":8534,"IX":8535,"Very":8536,"Wolf":8537,"az":8538,"aired":8539,"bre":8540,"cence":8541,"cending":8542,"dden":8543,"eas":8544,"fici":8545,"hn":8546,"hort":8547,"join":8548,"opposed":8549,"pso":8550,"pium":8551,"sid":8552,"tered":8553,"uated":8554,"uck":8555,"Ġted":8556,"het":8557,"Ġach":8558,"onom":8559,"iny":8560,"information":8561,"instruct":8562,"Ġopposites":8563,"rendered":8564,"reverse":8565,"itatis":8566,"enes":8567,"atically":8568,"Ġcold":8569,"Ġcurs":8570,"erion":8571,"erke":8572,"Ġbar":8573,"Ġbro":8574,"Ġthrow":8575,"Ġming":8576,"cease":8577,"Ġfam":8578,"Ġfreed":8579,"Ġfavoured":8580,"edient":8581,"Ġepo":8582,"Ġremind":8583,"ley":8584,"leading":8585,"Ġdouble":8586,"otes":8587,"ascertain":8588,"utum":8589,"theory":8590,"imid":8591,"Ġlangu":8592,"ider":8593,"idently":8594,"Ġsuits":8595,"Ġsudden":8596,"ĠIX":8597,"ivered":8598,"hensibility":8599,"Ġdear":8600,"ilia":8601,"Ġaltered":8602,"actly":8603,"Ġunquestion":8604,"Ġunconnected":8605,"Ġunsatisfactory":8606,"illusory":8607,"aware":8608,"depr":8609,"Ġthereupon":8610,"ĠĠĠĠĠĠĠĠĠĠ":8611,"Ġspheres":8612,"Ġcoming":8613,"trace":8614,"estic":8615,"ideality":8616,"ĠTheology":8617,"ĠTheoretical":8618,"odality":8619,"Ġabut":8620,"Ġsyllogistic":8621,"Ġheads":8622,"Ġcognizes":8623,"ĠFac":8624,"Ġquick":8625,"Ġstream":8626,"why":8627,"nowhere":8628,"Ġappend":8629,"forces":8630,"Ġdiss":8631,"Ġpartially":8632,"Ġchallen":8633,"Ġlear":8634,"ĠSoul":8635,"ĠSecondly":8636,"imitation":8637,"intended":8638,"Ġnearest":8639,"ĠInte":8640,"ĠInfinite":8641,"ĠCl":8642,"Ġobl":8643,"comes":8644,"prohib":8645,"Ġdiscret":8646,"ĠHypothe":8647,"Ġsystematically":8648,"stitution":8649,"Ġeffective":8650,"Ġenig":8651,"ĠEv":8652,"ĠEthics":8653,"Ġtert":8654,"Ġfacto":8655,"angled":8656,"Ġshallow":8657,"Ġimpenetrability":8658,"Ġcorrection":8659,"principium":8660,"Thirdly":8661,"Ġanalyst":8662,"Ġcharacterized":8663,"Ġwherefore":8664,"Ġrested":8665,"ĠLat":8666,"represents":8667,"Ġresides":8668,"Ġ18":8669,"Ġsuccessfully":8670,"Ġaimed":8671,"substratum":8672,"naturally":8673,"Ġworthlessness":8674,"Ġobserves":8675,"Ġplea":8676,"Ġneedful":8677,"Ġlegitim":8678,"Ġguilty":8679,"transcendentally":8680,"synthetic":8681,"Ġcoer":8682,"Ġcoherence":8683,"Ġdemonstrates":8684,"Ġanswering":8685,"Ġcopula":8686,"arry":8687,"Ġcontinual":8688,"Ġexcepted":8689,"Ġappreciation":8690,"Ġposterity":8691,"ĠBeyond":8692,"Ġprovides":8693,"Ġmiserable":8694,"Ġvariable":8695,"grant":8696,"extended":8697,"Ġipso":8698,"hapsod":8699,"Ġoperate":8700,"Ġdistinctive":8701,"Ġvolume":8702,"Ġpretence":8703,"indefinite":8704,"Ġleaden":8705,"Ġsupports":8706,"descending":8707,"Ġoccupying":8708,"Ġabstracting":8709,"removed":8710,"Ġsurpass":8711,"Ġsurveyed":8712,"Ġsurrept":8713,"Ġdesignated":8714,"Ġreferring":8715,"quantitas":8716,"Ġsignifications":8717,"distinguishing":8718,"considering":8719,"Ġseparately":8720,"Ġspeaks":8721,"ĠKey":8722,"Ġearlies":8723,"Ġcarries":8724,"Ġcarried":8725,"Ġcarrying":8726,"Ġacceptation":8727,"Ġpositions":8728,"Ġgains":8729,"Ġgaining":8730,"ĠState":8731,"created":8732,"originally":8733,"Ġindisp":8734,"Ġinterfere":8735,"Ġintermediate":8736,"Ġintervention":8737,"judged":8738,"Ġtranscending":8739,"Ġcomprehending":8740,"Ġborne":8741,"explained":8742,"criterion":8743,"concealed":8744,"continually":8745,"Ġcontributing":8746,"Ġhumble":8747,"nexus":8748,"Ġmistrust":8749,"attempted":8750,"gling":8751,"Ġpunished":8752,"Ġpunishments":8753,"indicating":8754,"Ġprofession":8755,"Ġprofesses":8756,"Ġshortest":8757,"Ġcrown":8758,"Ġguarding":8759,"superfluous":8760,"passages":8761,"ĠWhy":8762,"ĠDisc":8763,"Ġcontemplates":8764,"Ġtreasure":8765,"Ġmeasurement":8766,"Ġdescent":8767,"Ġdescend":8768,"Ġdescription":8769,"Ġcommenced":8770,"versa":8771,"Ġevidences":8772,"Ġpremiss":8773,"moving":8774,"ĠMetaphysics":8775,"conclusion":8776,"conclusions":8777,"ĠINTRODUCTION":8778,"Ġapproximation":8779,"affirmative":8780,"correctly":8781,"sources":8782,"Ġenclose":8783,"anticipate":8784,"seek":8785,"Ġuniformity":8786,"Ġincite":8787,"Ġsuperiority":8788,"Ġirreconcilable":8789,"Ġmidst":8790,"Ġcharm":8791,"furnish":8792,"Ġentertained":8793,"dogmatism":8794,"bounds":8795,"boundaries":8796,"Ġlurking":8797,"practised":8798,"Ġprejudices":8799,"Ġvacuum":8800,"Ġsilence":8801,"deviate":8802,"involved":8803,"Ġoffering":8804,"ĠGerman":8805,"geometry":8806,"geometrical":8807,"Ġdeficient":8808,"introduced":8809,"Ġperceiving":8810,"Ġ1787":8811,"endeavours":8812,"Ġidle":8813,"Ġfriends":8814,"Ġastronom":8815,"ĠSatirae":8816,"schol":8817,"Ġtheorem":8818,"confirms":8819,"Ġspeculations":8820,"observations":8821,"PENDIX":8822,"Ġbeside":8823,"Ġmerits":8824,"Ġuninterrupted":8825,"Ġsociety":8826,"Ġstopped":8827,"Ġantiquity":8828,"Ġcoalition":8829,"Ġfancied":8830,"Ġcomplaints":8831,"Against":8832,"false":8833,"members":8834,"Ġincontestably":8835,"Ġextravagant":8836,"Fourthly":8837,"Ġtedious":8838,"Ġachieve":8839,"Ġcursory":8840,"Ġepoch":8841,"Ġlegitimacy":8842,"Ġsurreptitious":8843,"Ġearliest":8844,"Among":8845,"EBook":8846,"Epic":8847,"First":8848,"Further":8849,"LE":8850,"Language":8851,"Rational":8852,"Title":8853,"apart":8854,"bly":8855,"cur":8856,"cosmical":8857,"dent":8858,"ease":8859,"fict":8860,"failed":8861,"fault":8862,"hum":8863,"high":8864,"hip":8865,"ios":8866,"iour":8867,"land":8868,"lab":8869,"mother":8870,"oof":8871,"pire":8872,"ried":8873,"tes":8874,"taking":8875,"uation":8876,"ucid":8877,"vive":8878,"vain":8879,"viour":8880,"wishes":8881,"Ġ#":8882,"heit":8883,"Ġadequ":8884,"inference":8885,"instruction":8886,"ineness":8887,"Ġopposing":8888,"Ġtheolog":8889,"itably":8890,"enumer":8891,"atch":8892,"atible":8893,"Ġcame":8894,"Ġcosmology":8895,"Ġwont":8896,"Ġwarrant":8897,"Ġwander":8898,"Ġsag":8899,"Ġincontr":8900,"Ġinno":8901,"Ġincompre":8902,"Ġinjustice":8903,"Ġinsecure":8904,"Ġinstrum":8905,"alogy":8906,"orn":8907,"cting":8908,"animal":8909,"analogy":8910,"edifice":8911,"Ġnom":8912,"Ġnought":8913,"Ġearn":8914,"Ġrecognition":8915,"Ġreaches":8916,"Ġresemble":8917,"lead":8918,"leave":8919,"Ġbeha":8920,"stition":8921,"entions":8922,"asm":8923,"Ġhint":8924,"Ġprince":8925,"theologia":8926,"imm":8927,"impl":8928,"image":8929,"imony":8930,"Ġexhausted":8931,"Ġlat":8932,"Ġliqu":8933,"Ġlament":8934,"ĠĠĠĠĠ":8935,"Ġwear":8936,"Ġfors":8937,"idge":8938,"Ġsuppos":8939,"urbed":8940,"vert":8941,"verty":8942,"resistance":8943,"isturbed":8944,"Ġproc":8945,"embered":8946,"Ġobjected":8947,"conject":8948,"conven":8949,"chimer":8950,"choice":8951,"Ġintentions":8952,"Ġdeposit":8953,"iliar":8954,"iliating":8955,"aming":8956,"Ġunimportant":8957,"plan":8958,"abilis":8959,"Ġspok":8960,"track":8961,"tricable":8962,"Ġlawless":8963,"ousand":8964,"Ġembe":8965,"Ġsoar":8966,"Ġtrave":8967,"Ġtrium":8968,"ĠBec":8969,"ĠBonum":8970,"Ġvulg":8971,"Ġvicious":8972,"Ġvocation":8973,"Ġnovel":8974,"ounds":8975,"allowed":8976,"Ġimposing":8977,"pirit":8978,"prim":8979,"pros":8980,"adem":8981,"supposes":8982,"ĠFOU":8983,"ometer":8984,"Ġstumbling":8985,"phold":8986,"ĠAxioms":8987,"Ġaccus":8988,"acquire":8989,"cast":8990,"union":8991,"ungl":8992,"Ġdisposed":8993,"Ġdisappoint":8994,"ĠPART":8995,"etc":8996,"etition":8997,"ĠThose":8998,"mental":8999,"ĠSh":9000,"ĠSummum":9001,"solve":9002,"solved":9003,"fines":9004,"Ġthank":9005,"aging":9006,"opinions":9007,"Ġcontest":9008,"Ġcontents":9009,"ĠWis":9010,"ĠWhence":9011,"orted":9012,"ĠCause":9013,"Ġended":9014,"service":9015,"meant":9016,"propri":9017,"projected":9018,"Ġpoverty":9019,"ĠHist":9020,"weight":9021,"Ġactuality":9022,"Ġagents":9023,"Ġenjoined":9024,"ĠEBook":9025,"ĠElements":9026,"Ġoutline":9027,"ears":9028,"physiology":9029,"uteness":9030,"Ġimpot":9031,"Ġimputation":9032,"Ġcorruption":9033,"Ġinclined":9034,"experienced":9035,"Ġpowerless":9036,"ĠMany":9037,"Ġrefuses":9038,"Ġconclusive":9039,"Ġindulgence":9040,"Ġadvice":9041,"Ġcompounded":9042,"Ġsummon":9043,"raise":9044,"learned":9045,"ĠUT":9046,"ĠUnder":9047,"Ġsincere":9048,"Ġsupplement":9049,"religion":9050,"ĠOne":9051,"Ġdegr":9052,"subtle":9053,"natura":9054,"Ġoccasions":9055,"Ġdefining":9056,"discipline":9057,"Ġmodus":9058,"Ġmodified":9059,"Ġmodesty":9060,"Ġacuteness":9061,"Ġnegations":9062,"subjects":9063,"Ġmaintenance":9064,"Ġnonsense":9065,"Ġmemory":9066,"ALITY":9067,"arrog":9068,"arrive":9069,"arrangement":9070,"Ġinquires":9071,"ailable":9072,"Ġdenote":9073,"Ġaffecting":9074,"Ġaffections":9075,"obedience":9076,"Ġexpects":9077,"Ġhoped":9078,"Ġaffirms":9079,"Ġdraws":9080,"connects":9081,"ĠAny":9082,"Ġsuperstition":9083,"Ġundisturbed":9084,"Ġbrief":9085,"Ġyourselves":9086,"Ġfutility":9087,"Ġceaseless":9088,"ĠExt":9089,"intelligent":9090,"presence":9091,"Ġexhibition":9092,"Ġcombines":9093,"justification":9094,"Ġsurrender":9095,"Ġsurvive":9096,"ĠJuly":9097,"impression":9098,"Ġascribing":9099,"Ġtestimony":9100,"people":9101,"divisions":9102,"compare":9103,"Ġaccepts":9104,"iberum":9105,"Ġdisputing":9106,"confusion":9107,"architect":9108,"Ġcreate":9109,"Ġcreations":9110,"Ġconversation":9111,"Ġinterpreted":9112,"Ġcollective":9113,"Ġheterogeneity":9114,"Ġarts":9115,"discovering":9116,"Ġsophistries":9117,"Release":9118,"manifest":9119,"Ġfailing":9120,"denial":9121,"Ġpracticability":9122,"Ġventured":9123,"looked":9124,"Ġhumiliating":9125,"Ġdestined":9126,"Ġnecessitates":9127,"expresses":9128,"porated":9129,"Ġblindly":9130,"Ġexcites":9131,"Ġboldly":9132,"Ġdevote":9133,"Ġgenuineness":9134,"concerns":9135,"Ġstronger":9136,"Ġconfessed":9137,"ĠEverything":9138,"Ġlisten":9139,"equality":9140,"intermediate":9141,"falls":9142,"Ġroots":9143,"single":9144,"Ġcommunication":9145,"restricting":9146,"Ġattract":9147,"Ġrejected":9148,"decided":9149,"Ġadmirable":9150,"Ġordered":9151,"transg":9152,"Ġdriven":9153,"occupy":9154,"Ġclearest":9155,"clearly":9156,"modes":9157,"approach":9158,"Ġcentre":9159,"arbitrarily":9160,"arbitrium":9161,"Ġrepeat":9162,"Ġinstructed":9163,"gradually":9164,"problematically":9165,"Ġerecting":9166,"Ġsubmits":9167,"Ġenumerate":9168,"ĠPhysico":9169,"ABLE":9170,"Ġviolence":9171,"Ġconcealed":9172,"endeavoured":9173,"Ġcompensation":9174,"Ġflattering":9175,"furnishes":9176,"Ġzeal":9177,"Ġwitnesses":9178,"Ġconvenient":9179,"Ġaccompanying":9180,"accidental":9181,"accidentally":9182,"Ġcoincides":9183,"mistake":9184,"Ġtouchstone":9185,"Ġdetriment":9186,"Ġdetrimental":9187,"ĠSometimes":9188,"deserving":9189,"previously":9190,"annihilation":9191,"excluding":9192,"Ġinextricable":9193,"ĠAbb":9194,"inevitably":9195,"Ġawakened":9196,"defective":9197,"Ġsteadily":9198,"peculiarity":9199,"Ġdarkness":9200,"Ġperceives":9201,"supported":9202,"Ġincorporated":9203,"transcend":9204,"probability":9205,"Ġescaping":9206,"Ġescaped":9207,"increasing":9208,"Ġdisguise":9209,"Ġtautology":9210,"professing":9211,"estimation":9212,"Ġrarely":9213,"Ġappropriated":9214,"magnitude":9215,"Ġwarns":9216,"Ġlowest":9217,"Ġreluctant":9218,"demands":9219,"Ġchemical":9220,"Ġfacilitate":9221,"Ġrecommendation":9222,"Synthetical":9223,"dangerous":9224,"written":9225,"Ġimpracticable":9226,"ĠPerson":9227,"Ġremedy":9228,"Ġamidst":9229,"Ġundeniable":9230,"ĠArguments":9231,"significance":9232,"Mathematics":9233,"towards":9234,"Ġromance":9235,"Ġtemperament":9236,"Ġeconom":9237,"ĠOpinion":9238,"ĠEnglish":9239,"Ġinviolable":9240,"Ġindulge":9241,"Ġaffairs":9242,"Ġvoluntary":9243,"circumst":9244,"iosity":9245,"Ġincontrovert":9246,"Ġinnocent":9247,"Ġearnest":9248,"Ġbehaviour":9249,"Ġspoken":9250,"Ġembell":9251,"Ġtravel":9252,"Ġtriumph":9253,"Ġvulgar":9254,"\".":9255,"!)":9256,"*]":9257,".:":9258,"568":9259,"622":9260,"75":9261,"79":9262,"AIM":9263,"BILITY":9264,"DENTAL":9265,"DED":9266,"FORE":9267,"GENCE":9268,"HAPTER":9269,"IED":9270,"IVE":9271,"IRECT":9272,"Literary":9273,"License":9274,"LIMITED":9275,"Mor":9276,"Most":9277,"Moreover":9278,"NES":9279,"NITI":9280,"Right":9281,"RPO":9282,"SS":9283,"Sto":9284,"SSI":9285,"WARRAN":9286,"aple":9287,"acies":9288,"banks":9289,"cal":9290,"custom":9291,"dest":9292,"dignity":9293,"eg":9294,"efficient":9295,"elev":9296,"fa":9297,"fam":9298,"fast":9299,"firm":9300,"gen":9301,"gust":9302,"gles":9303,"kal":9304,"mas":9305,"mber":9306,"nify":9307,"pus":9308,"pared":9309,"penetr":9310,"ror":9311,"rought":9312,"sure":9313,"sipp":9314,"tx":9315,"uc":9316,"uously":9317,"verest":9318,"wis":9319,"wart":9320,"warrant":9321,"zip":9322,"Ġ$":9323,"Ġ'":9324,"Ġ80":9325,"Ġtempt":9326,"Ġaux":9327,"ino":9328,"inent":9329,"infer":9330,"rew":9331,"reconci":9332,"recognized":9333,"iteness":9334,"Ġoffered":9335,"aton":9336,"Ġcand":9337,"ervice":9338,"Ġsending":9339,"Ġpresses":9340,"Ġinaccurate":9341,"icant":9342,"icial":9343,"icited":9344,"Ġbow":9345,"Ġbinary":9346,"esthe":9347,"Ġthwart":9348,"orous":9349,"Ġmillion":9350,"cember":9351,"Ġfant":9352,"Ġfund":9353,"Ġfaint":9354,"ann":9355,"editions":9356,"Ġnames":9357,"Ġecl":9358,"section":9359,"outh":9360,"Ġresearch":9361,"Ġrefined":9362,"leology":9363,"omaton":9364,"Ġwhit":9365,"otyp":9366,"utor":9367,"Ġhour":9368,"llous":9369,"thew":9370,"ivae":9371,"imilar":9372,"Ġlack":9373,"Ġlikes":9374,"Ġliking":9375,"essor":9376,"irus":9377,"thy":9378,"threat":9379,"urance":9380,"sibilities":9381,"Ġproject":9382,"emnify":9383,"ĠTRAN":9384,"Ġreasoners":9385,"vellous":9386,"constant":9387,"connexion":9388,"hentic":9389,"endi":9390,"Ġdep":9391,"Ġdeist":9392,"Ġdeceptive":9393,"therwise":9394,"iled":9395,"pleases":9396,"Ġalkal":9397,"acts":9398,"Ġhast":9399,"olunteers":9400,"igious":9401,"ighed":9402,"Ġspent":9403,"Ġsprun":9404,"Ġcomfort":9405,"tries":9406,"ofessor":9407,"Ġtraining":9408,"Ġvirus":9409,"odes":9410,"Ġwilled":9411,"Ġimmutable":9412,"Ġabode":9413,"prot":9414,"Ġhearer":9415,"adapt":9416,"suggest":9417,"Ġregulating":9418,"Ġusage":9419,"ĠFRO":9420,"ĠFIT":9421,"Ġshalt":9422,"Ġreligious":9423,"Ġsearched":9424,"Ġstay":9425,"Ġstaff":9426,"Ġconscience":9427,"whom":9428,"ĠAd":9429,"ĠAutonomy":9430,"ĠAug":9431,"ĠAesthe":9432,"acent":9433,"unattainable":9434,"Ġdisk":9435,"Ġdiscl":9436,"Ġdispleasure":9437,"Ġdisinterested":9438,"Ġdisgust":9439,"eties":9440,"etext":9441,"teleological":9442,"ternational":9443,"sissipp":9444,"Ġargue":9445,"specul":9446,"spread":9447,"ĠSTR":9448,"ĠSpecial":9449,"ĠService":9450,"ĠSouth":9451,"Ġmoralists":9452,"Ġsubmission":9453,"Ġsubspecies":9454,"Ġsubordination":9455,"Ġwhoever":9456,"ensed":9457,"ĠNEG":9458,"ĠOTHER":9459,"eless":9460,"Ġneighbour":9461,"Ġplans":9462,"Ġcausa":9463,"ĠWest":9464,"ĠWHAT":9465,"reating":9466,"Ġmove":9467,"ĠCopyright":9468,"ĠCHAPTER":9469,"Ġgrown":9470,"They":9471,"ĠGre":9472,"ĠGIVE":9473,"Ġfounds":9474,"Ġpositing":9475,"Ġcommerci":9476,"Ġcommitted":9477,"Ġremoval":9478,"weapons":9479,"lessed":9480,"Ġeffecting":9481,"Ġenv":9482,"Ġenounced":9483,"Ġthinkable":9484,"ĠEIN":9485,"Ġoutlines":9486,"early":9487,"reasoning":9488,"Ġassures":9489,"Ġassuring":9490,"Ġassurance":9491,"sensual":9492,"ĠDr":9493,"Ġgreatness":9494,"Ġfacta":9495,"Ġoriginator":9496,"Ġbasing":9497,"Ġenters":9498,"Ġentium":9499,"Ġentrust":9500,"Ġcorrupt":9501,"Ġinvention":9502,"Thou":9503,"Those":9504,"ribe":9505,"Ġinflex":9506,"ĠReplace":9507,"ĠRefund":9508,"Ġintelligibility":9509,"Ġinterested":9510,"ĠMay":9511,"ĠMER":9512,"Ġindemnify":9513,"raid":9514,"raising":9515,"Ġconsistently":9516,"structive":9517,"Ġresist":9518,"undoubted":9519,"Information":9520,"Instead":9521,"International":9522,"Ġ[*]":9523,"related":9524,"ENTI":9525,"ignificant":9526,"TICE":9527,"Ġobserver":9528,"Ġobservers":9529,"redit":9530,"Ġpleasing":9531,"Ġelimin":9532,"Ġresulted":9533,"Ġbodily":9534,"contempt":9535,"Ġremarkably":9536,"Ġnewsletter":9537,"Ġeasier":9538,"Ġreading":9539,"Ġmethodology":9540,"Ġdogmas":9541,"Ġcopied":9542,"Ġovercome":9543,"CHANT":9544,"Ġpostpone":9545,"ovember":9546,"Ġidentify":9547,"obvious":9548,"Ġprovision":9549,"Ġprovisions":9550,"Ġhoping":9551,"Ġhopeless":9552,"Ġgenerality":9553,"Ġgenerations":9554,"Ġaids":9555,"differences":9556,"sometimes":9557,"Ġaddress":9558,"simony":9559,"Ġjudicial":9560,"ĠYes":9561,"limitations":9562,"Ġabsor":9563,"Ġlieu":9564,"Ġcorrective":9565,"Ġcontinuance":9566,"ordinate":9567,"Ġasks":9568,"Ġsupporting":9569,"Ġtransfers":9570,"aska":9571,"Ġrecognises":9572,"Ġrecognised":9573,"legal":9574,"Ġinsignificant":9575,"attered":9576,"Ġorganism":9577,"Ġdelight":9578,"Ġkept":9579,"Ġapprove":9580,"product":9581,"Ġcircumference":9582,"Ġdonation":9583,"Ġdonors":9584,"considerable":9585,"Ġfurnishing":9586,"Ġtested":9587,"invent":9588,"Ġagreeable":9589,"Ġagreeableness":9590,"ĠKIND":9591,"ĠREAD":9592,"myst":9593,"poise":9594,"Ġdisputation":9595,"worthiness":9596,"Ġscattered":9597,"confirmed":9598,"ĠStaple":9599,"Ġsimilarly":9600,"cret":9601,"Ġsecures":9602,"Ġwisely":9603,"Ġconceives":9604,"Ġtranscription":9605,"Ġtranscribe":9606,"Ġmarket":9607,"demonstrate":9608,"Ġanalogon":9609,"greatness":9610,"providing":9611,"Ġprivilege":9612,"Ġprocessing":9613,"Ġweighty":9614,"ĠImper":9615,"Ġ95":9616,"Ġ99":9617,"Ġinduces":9618,"Ġdetect":9619,"Ġventures":9620,"airbanks":9621,"Ġturns":9622,"Ġhumility":9623,"veloped":9624,"Ġelevates":9625,"posted":9626,"postulate":9627,"Ġdiscerning":9628,"Ġdestitute":9629,"ĠDefect":9630,"ĠDecember":9631,"Ġqualification":9632,"accordant":9633,"Ġ2000":9634,"Ġ2004":9635,"Ġintentionally":9636,"Ġcapability":9637,"expressions":9638,"expressed":9639,"Ġglance":9640,"Ġglorious":9641,"ĠPUNITI":9642,"ĠPURPO":9643,"EDIES":9644,"START":9645,"operations":9646,"Ġextricate":9647,"Ġguards":9648,"Ġproportionate":9649,"Ġincreasing":9650,"bidden":9651,"Ġdevi":9652,"ĠDoes":9653,"legislating":9654,"signifies":9655,"Ġ64":9656,"Ġprimacy":9657,"additional":9658,"fortunate":9659,"SEQU":9660,"PLEAS":9661,"PLIED":9662,"finds":9663,"Ġtaxes":9664,"TRAC":9665,"deductible":9666,"Ġattacking":9667,"EMNITY":9668,"ĠNOTICE":9669,"fallacies":9670,"ĠCONSEQU":9671,"ĠCONTRAC":9672,"Ġ1500":9673,"Ġprototyp":9674,"importance":9675,"Ġrejecting":9676,"doubtful":9677,"attributes":9678,"attributed":9679,"PRESS":9680,"directly":9681,"ĠREMEDIES":9682,"Ġhypocrisy":9683,"Ġcurved":9684,"imperatives":9685,"ĠINCLUDING":9686,"ĠMatthew":9687,"Ġcounterpoise":9688,"Ġlocations":9689,"pleasantness":9690,"Ġcultivate":9691,"Ġtypes":9692,"enlarged":9693,"approbation":9694,"Ġhonourable":9695,"anthropomor":9696,"ĠEBOOKS":9697,"iliary":9698,"Ġannouncement":9699,"prominently":9700,"Ġindefinitely":9701,"Ġdamage":9702,"Ġdamaged":9703,"resulting":9704,"ĠHimself":9705,"ĠANYTHING":9706,"Ġerected":9707,"variety":9708,"searchable":9709,"agreeableness":9710,"ĠPhysical":9711,"Ġanthropomorphic":9712,"Ġviolates":9713,"Ġafraid":9714,"Ġcharges":9715,"ĠEXPRESS":9716,"value":9717,"Ġsharing":9718,"Ġdespise":9719,"CLAIM":9720,"ĠWARRANTIES":9721,"Ġcomputers":9722,"assuming":9723,"Ġtouching":9724,"LIGENCE":9725,"wanting":9726,"Ġlicensed":9727,"Ġsubstituted":9728,"ĠNorth":9729,"Ġpaperwork":9730,"Speculative":9731,"classification":9732,"communicated":9733,"involves":9734,"qualities":9735,"Ġdissimilarity":9736,"Ġawakening":9737,"Ġindubitably":9738,"Ġperplexity":9739,"Ġsteadfast":9740,"Ġphilosophize":9741,"Ġembraced":9742,"culture":9743,"Ġparticipating":9744,"ĠDISCLAIM":9745,"Ġdeliberation":9746,"ĠDespite":9747,"Ġruin":9748,"exhibited":9749,"Ġnearly":9750,"Ġfriend":9751,"meritorious":9752,"thoroughly":9753,"Ġcasts":9754,"Ġvital":9755,"Ġdisguised":9756,"proportioned":9757,"Defects":9758,"eBooks":9759,"ipped":9760,"sighted":9761,"ĠMississipp":9762,"Ġcounsels":9763,"Ġriches":9764,"ĠSUCH":9765,"PROJECT":9766,"yielding":9767,"Ġauthentic":9768,"Ġcensure":9769,"Ġinspire":9770,"Ġrevelation":9771,"ĠINDIRECT":9772,"Ġrigorous":9773,"Ġinfringement":9774,"Ġdownloading":9775,"Ġbeneficent":9776,"VIDED":9777,"ipses":9778,"Ġpetty":9779,"ĠIMPLIED":9780,"Ġsorrow":9781,"Ġellipse":9782,"Ġlofty":9783,"Ġtrades":9784,"Ġtroubling":9785,"Ġgratefully":9786,"ĠGospel":9787,"62215":9788,"NESS":9789,"SSIBILITY":9790,"WARRANTIES":9791,"txt":9792,"Ġauxiliary":9793,"imilarly":9794,"ĠTRANSITION":9795,"Ġsprung":9796,"ĠFROM":9797,"ĠFITNESS":9798,"ĠAugust":9799,"ĠAesthetic":9800,"ĠSTRICT":9801,"ĠNEGLIGENCE":9802,"Ġcommercial":9803,"ĠReplacement":9804,"ĠMERCHANT":9805,"ENTIAL":9806,"ĠStapleton":9807,"ĠPUNITIVE":9808,"ĠPURPOSE":9809,"ĠCONSEQUENTIAL":9810,"ĠCONTRACT":9811,"Ġprototype":9812,"anthropomorphism":9813,"ĠDISCLAIMER":9814,"ĠMississippi":9815,"ĠMERCHANTABILITY":9816,")?":9817,"12":9818,"14":9819,"19":9820,"178":9821,"21":9822,"23":9823,"24":9824,"25":9825,"26":9826,"27":9827,"28":9828,"29":9829,"30":9830,"31":9831,"32":9832,"33":9833,"34":9834,"35":9835,"36":9836,"37":9837,"38":9838,"43":9839,"44":9840,"46":9841,"47":9842,"48":9843,"49":9844,"51":9845,"52":9846,"53":9847,"54":9848,"56":9849,"58":9850,"59":9851,"60":9852,"61":9853,"62":9854,"63":9855,"Arist":9856,"Apperception":9857,"Between":9858,"Categor":9859,"Cosmological":9860,"Different":9861,"DITION":9862,"GEMENT":9863,"GENERAL":9864,"Human":9865,"Locke":9866,"MP":9867,"Me":9868,"Possib":9869,"Plato":9870,"RTH":9871,"STHE":9872,"Thing":9873,"YST":9874,"_[":9875,"bus":9876,"ball":9877,"bser":9878,"cion":9879,"covered":9880,"cosmology":9881,"casus":9882,"drop":9883,"eometr":9884,"flection":9885,"figur":9886,"hop":9887,"iary":9888,"lose":9889,"llect":9890,"lix":9891,"lurality":9892,"met":9893,"munity":9894,"moments":9895,"null":9896,"nicious":9897,"rd":9898,"rum":9899,"sies":9900,"sided":9901,"wond":9902,"ypon":9903,"Ġq":9904,"Ġvel":9905,"inated":9906,"inability":9907,"internally":9908,"inheres":9909,"rehension":9910,"recomm":9911,"itial":9912,"itudes":9913,"isol":9914,"isyllogism":9915,"iscovered":9916,"Ġcath":9917,"Ġcasus":9918,"Ġcub":9919,"Ġcitizen":9920,"Ġsadly":9921,"Ġpomp":9922,"Ġinconceivable":9923,"alleg":9924,"Ġban":9925,"esult":9926,"Ġthirteen":9927,"orter":9928,"orph":9929,"origination":9930,"Ġmus":9931,"celebrated":9932,"Ġfame":9933,"Ġfatum":9934,"Ġfrees":9935,"Ġnes":9936,"Ġrely":9937,"Ġreign":9938,"Ġreap":9939,"Ġrecap":9940,"Ġreproduction":9941,"Ġretrace":9942,"Ġrerum":9943,"Ġconveyed":9944,"Ġdull":9945,"Ġdiction":9946,"Ġbeque":9947,"stac":9948,"stability":9949,"entities":9950,"otot":9951,"asc":9952,"utmost":9953,"Ġhole":9954,"Ġaspir":9955,"ivisible":9956,"ossess":9957,"Ġexceed":9958,"Ġexchange":9959,"Ġexempl":9960,"Ġanterior":9961,"Ġlend":9962,"jective":9963,"idity":9964,"ceptical":9965,"ceptible":9966,"ibles":9967,"aindrop":9968,"andal":9969,"ifling":9970,"ecum":9971,"perplex":9972,"Ġprolix":9973,"veil":9974,"conveyed":9975,"converted":9976,"conjunct":9977,"Ġintact":9978,"Ġintimid":9979,"endations":9980,"Ġhaph":9981,"ditions":9982,"ampl":9983,"amorph":9984,"Ġunexception":9985,"Ġunchanged":9986,"Ġuninfluenced":9987,"Ġunalter":9988,"Ġunguarded":9989,"illustr":9990,"abile":9991,"abiding":9992,"Ġcael":9993,"Ġcautious":9994,"olens":9995,"minor":9996,"trod":9997,"traction":9998,"Ġempiricist":9999,"Ġrose":10000,"Ġriver":10001,"Ġraindrop":10002,"Ġtra":10003,"Ġtrial":10004,"Ġtriang":10005,"Ġtrifling":10006,"ĠBerke":10007,"Ġperish":10008,"Ġpertains":10009,"Ġpernicious":10010,"Ġimmortal":10011,"Ġabst":10012,"pron":10013,"positio":10014,"succeed":10015,"Ġregulated":10016,"Ġknew":10017,"Ġcogniz":10018,"ĠFunction":10019,"ĠFAC":10020,"Ġshame":10021,"Ġshield":10022,"Ġshorter":10023,"exec":10024,"externally":10025,"exactly":10026,"Ġquib":10027,"Ġstat":10028,"Ġstory":10029,"Ġstars":10030,"ĠAre":10031,"ultaneity":10032,"sequence":10033,"units":10034,"uncertain":10035,"unlimited":10036,"uniting":10037,"uniform":10038,"unciated":10039,"Ġadjective":10040,"Ġdismis":10041,"Ġdiscontinu":10042,"ĠPlurality":10043,"Ġrepresentative":10044,"Ġpreference":10045,"Ġpreposited":10046,"Ġpremonition":10047,"striking":10048,"spaces":10049,"ĠSing":10050,"ĠSense":10051,"ĠSecond":10052,"ĠSenses":10053,"ĠSciences":10054,"ĠSceptical":10055,"Ġsubsid":10056,"ĠName":10057,"ĠNoumen":10058,"possibilities":10059,"prehensible":10060,"Ġplays":10061,"Ġmover":10062,"ĠCosmical":10063,"ĠCosmology":10064,"Ġcontrari":10065,"Ġending":10066,"astically":10067,"meet":10068,"Ġcommences":10069,"Ġcommercium":10070,"âĢĿ.":10071,"âĢĿ),":10072,"Ġdesist":10073,"icium":10074,"Ġrationalist":10075,"ĠHitherto":10076,"ĠHarmony":10077,"Ġagency":10078,"mediable":10079,"paralogism":10080,"paradox":10081,"existed":10082,"ĠEdition":10083,"ĠElucid":10084,"ĠEDITION":10085,"Ġreale":10086,"Ġrealitates":10087,"Ġterminis":10088,"Ġamply":10089,"ogito":10090,"physiological":10091,"hematism":10092,"ounted":10093,"Ġfacti":10094,"cognizing":10095,"determinable":10096,"Ġimpure":10097,"Ġconstituent":10098,"Thought":10099,"necessitate":10100,"Ġexplication":10101,"Ġhandles":10102,"Ġdemerit":10103,"ĠMatter":10104,"Ġrestless":10105,"Ġstruck":10106,"Ġrefrain":10107,"regulate":10108,"Ġindivisible":10109,"Ġcompound":10110,"mediately":10111,"ĠLogicians":10112,"Ġpredicables":10113,"Ġpredicaments":10114,"Ġ11":10115,"Ġ14":10116,"Ġconfusions":10117,"Ġconfusing":10118,"ĠConjunction":10119,"ĠContent":10120,"ĠConditions":10121,"Introdu":10122,"Introd":10123,"Ġregression":10124,"Ġregressively":10125,"substitution":10126,"disjunctive":10127,"disappears":10128,"monads":10129,"contempor":10130,"Ġpermanently":10131,"Ġelemental":10132,"contradictorily":10133,"parted":10134,"Ġnonentity":10135,"Ġcoat":10136,"Ġcoins":10137,"Ġlesser":10138,"Ġlessened":10139,"Ġidealizing":10140,"bitably":10141,"Ġapprehensions":10142,"ĠSub":10143,"ĠSubst":10144,"Ġdenying":10145,"Ġdenotes":10146,"obstac":10147,"Ġpeculiarities":10148,"Ġmisuse":10149,"Ġ21":10150,"Ġ23":10151,"Ġgenerates":10152,"Ġaffirming":10153,"ĠAnalog":10154,"ontal":10155,"somewhat":10156,"aveolens":10157,"simplicity":10158,"simultaneous":10159,"blunder":10160,"Ġundiscovered":10161,"Ġintellectualized":10162,"correction":10163,"Ġthreefold":10164,"Ġendeavouring":10165,"Ġceased":10166,"Ġpretext":10167,"Ġdynamics":10168,"Ġsuccessively":10169,"ĠExtent":10170,"ĠUnphilosophical":10171,"Ġprofundity":10172,"Ġexclusive":10173,"remove":10174,"remote":10175,"caused":10176,"respecting":10177,"respective":10178,"ificate":10179,"Ġreferable":10180,"Ġorganic":10181,"Ġdeline":10182,"Ġsignificancy":10183,"ĠVery":10184,"ĠJUD":10185,"orizontal":10186,"icipations":10187,"Ġseparating":10188,"constituted":10189,"constituent":10190,"Ġcarelessness":10191,"divisible":10192,"changeably":10193,"compound":10194,"possessions":10195,"Ġoffence":10196,"cogitable":10197,"Ġscandal":10198,"CEDU":10199,"Ġgeometricians":10200,"Ġoccasioning":10201,"sensatio":10202,"predicaments":10203,"Ġedifices":10204,"Ġpropounded":10205,"Ġinterpretation":10206,"Ġexperimental":10207,"Ġcollect":10208,"judges":10209,"judging":10210,"judicium":10211,"Ġcountenance":10212,"iminished":10213,"Ġclassed":10214,"guides":10215,"explanations":10216,"Ġartifice":10217,"firstly":10218,"Ġconfining":10219,"Ġascends":10220,"Ġrecent":10221,"Ġirrespective":10222,"Ġventuring":10223,"adequately":10224,"Subst":10225,"saying":10226,"Protot":10227,"regressive":10228,"regressus":10229,"drawing":10230,"ertificate":10231,"ĠHerein":10232,"apprehend":10233,"Ġauthorizing":10234,"Ġbestowed":10235,"Ġestimates":10236,"ĠLeibnitzian":10237,"remained":10238,"STAN":10239,"ĠPROCEDU":10240,"Conceptions":10241,"operative":10242,"operating":10243,"Ġincreases":10244,"Ġtwist":10245,"Ġsuggests":10246,"Ġsuggestions":10247,"Ġsubstantive":10248,"degrees":10249,"Ġvanish":10250,"Ġvanishes":10251,"ĠWhole":10252,"analytically":10253,"Ġscholastically":10254,"aenomena":10255,"potism":10256,"versed":10257,"moon":10258,"ĠComposition":10259,"abstracted":10260,"attributing":10261,"Ġimpartiality":10262,"Ġspectata":10263,"Ġundertakes":10264,"ĠCategory":10265,"conclusio":10266,"progressus":10267,"affirming":10268,"occupies":10269,"reciprocity":10270,"Ġlocale":10271,"ĠPerception":10272,"ĠPerhaps":10273,"Ġhardness":10274,"Ġteachings":10275,"Ġaugmentative":10276,"Ġmonads":10277,"Ġmonogram":10278,"comparatively":10279,"Ġdecidedly":10280,"Ġerroneously":10281,"ĠProblematical":10282,"ĠÃĨSTHE":10283,"Ġinherence":10284,"ĠTrancendent":10285,"smaller":10286,"ĠMeanwhile":10287,"graduated":10288,"Ġconjectures":10289,"ĠSystematic":10290,"materialiter":10291,"Ġmovable":10292,"ĠExistences":10293,"remarks":10294,"remarking":10295,"apodeictical":10296,"Ġirremediable":10297,"ĠDIALECTICAL":10298,"ULTY":10299,"Ġannexes":10300,"Ġsovereignty":10301,"Ġflowing":10302,"inseparable":10303,"Ġelaborating":10304,"Ġsolidity":10305,"Ġalternation":10306,"Ġsilver":10307,"ĠConclusion":10308,"Ġspiritualism":10309,"Permanence":10310,"SECTION":10311,"SECOND":10312,"communio":10313,"comprehending":10314,"Ġcomprised":10315,"ĠIntroduction":10316,"Grant":10317,"momenta":10318,"ĠQuantity":10319,"organon":10320,"ĠGrant":10321,"ĠGermany":10322,"speak":10323,"Ġdeficiency":10324,"Ġsustain":10325,"contemplated":10326,"Produce":10327,"tonian":10328,"heterogeneous":10329,"Ġruined":10330,"exhibit":10331,"forthcoming":10332,"Ġencourages":10333,"designate":10334,"Ġperpetual":10335,"detailed":10336,"ĠSaturn":10337,"ĠCognition":10338,"ĠCognitions":10339,"Ġsimplest":10340,"Ġprolonging":10341,"ĠSeat":10342,"agonal":10343,"ĠDetermine":10344,"major":10345,"Ġtautological":10346,"Ġarchetypes":10347,"professes":10348,"Ġimaginarium":10349,"Caius":10350,"Causality":10351,"Ġsmoke":10352,"Ġsmooth":10353,"Ġepisyllogism":10354,"plainly":10355,"ĠCauses":10356,"ĠCausality":10357,"functions":10358,"Ġdiagonal":10359,"Ġlarger":10360,"indubitably":10361,"Ġconvictions":10362,"Idealism":10363,"Ġmilitates":10364,"Ġlibitum":10365,"ĠSchematism":10366,"obscurity":10367,"embarrassment":10368,"ĠParalogisms":10369,"Ġpremise":10370,"Ġphantoms":10371,"Ġappertaining":10372,"Ġdecrease":10373,"Ġilluminated":10374,"Ġsurrounded":10375,"Ġindiscernibles":10376,"consequentiae":10377,"Concluding":10378,"Ġprosyllogisms":10379,"ĠNegation":10380,"ĠOriginally":10381,"Ġimmediatae":10382,"ĠCopernicus":10383,"Wolfian":10384,"azard":10385,"easily":10386,"ficiency":10387,"Ġbarbar":10388,"Ġbroke":10389,"Ġlanguages":10390,"Ġunquestionably":10391,"ĠFaculty":10392,"ĠIntellect":10393,"ĠClue":10394,"Ġdiscretum":10395,"ĠEvents":10396,"Ġtertium":10397,"Ġshallowness":10398,"ĠLatin":10399,"Ġcoercion":10400,"ĠDiscovery":10401,"Ġsilenced":10402,"Aristotle":10403,"Categories":10404,"Meanwhile":10405,"Possibility":10406,"Things":10407,"YSTEM":10408,"busy":10409,"bservation":10410,"eometry":10411,"hopes":10412,"recommendations":10413,"Ġcathartic":10414,"Ġcubic":10415,"alleged":10416,"Ġrecapit":10417,"Ġdictionis":10418,"Ġbequeath":10419,"Ġaspirations":10420,"ossession":10421,"perplexity":10422,"Ġprolixity":10423,"conjunctio":10424,"Ġintimidation":10425,"Ġhaphazard":10426,"Ġunexceptionable":10427,"Ġunalterable":10428,"Ġcaelo":10429,"Ġraindrops":10430,"Ġtriangles":10431,"ĠBerkeley":10432,"Ġcognizant":10433,"ĠFACULTY":10434,"Ġsubsidiary":10435,"ĠNoumena":10436,"Ġcontrariwise":10437,"paradoxical":10438,"ĠElucidation":10439,"ĠSubstance":10440,"obstacles":10441,"ĠAnalogies":10442,"ĠJUDGEMENT":10443,"Substances":10444,"Prototypon":10445,"ĠPROCEDURE":10446,"ĠÃĨSTHETIC":10447,"ĠTrancendentale":10448,".),":10449,"64":10450,";[":10451,"Che":10452,"Com":10453,"Certain":10454,"Crit":10455,"Critical":10456,"Dialectic":10457,"EI":10458,"GHT":10459,"Have":10460,"Im":10461,"Logical":10462,"Last":10463,"Logic":10464,"LEMENT":10465,"Non":10466,"Or":10467,"Part":10468,"Two":10469,"US":10470,"Upon":10471,"VII":10472,"].":10473,"adequ":10474,"bi":10475,"bat":10476,"back":10477,"cher":10478,"cible":10479,"cob":10480,"dur":10481,"dile":10482,"data":10483,"dimin":10484,"ditio":10485,"ew":10486,"ein":10487,"eper":10488,"faces":10489,"filled":10490,"fancy":10491,"fanci":10492,"gy":10493,"gover":10494,"hic":10495,"hor":10496,"hist":10497,"hold":10498,"hitherto":10499,"harmon":10500,"homogeneity":10501,"iog":10502,"iently":10503,"lcome":10504,"mics":10505,"mark":10506,"mund":10507,"mov":10508,"metic":10509,"nate":10510,"oqu":10511,"oca":10512,"past":10513,"putes":10514,"psych":10515,"piece":10516,"ral":10517,"ront":10518,"rash":10519,"rhapsod":10520,"spl":10521,"tw":10522,"table":10523,"tology":10524,"task":10525,"temper":10526,"uphold":10527,"vict":10528,"voc":10529,"vocation":10530,"Ġ&":10531,"Ġer":10532,"Ġil":10533,"Ġtib":10534,"Ġtends":10535,"Ġapt":10536,"Ġaequiv":10537,"inj":10538,"inward":10539,"inning":10540,"incomp":10541,"Ġopt":10542,"Ġomission":10543,"reject":10544,"reve":10545,"redu":10546,"recisely":10547,"resem":10548,"ital":10549,"ititious":10550,"ister":10551,"aten":10552,"Ġcou":10553,"Ġcrowd":10554,"Ġwarr":10555,"Ġwatch":10556,"Ġsi":10557,"Ġpal":10558,"Ġpause":10559,"Ġpush":10560,"Ġinan":10561,"Ġinform":10562,"Ġincorrect":10563,"Ġinestim":10564,"Ġinhabit":10565,"Ġinequality":10566,"Ġinnate":10567,"ales":10568,"altern":10569,"ican":10570,"Ġbare":10571,"Ġthousand":10572,"Ġtou":10573,"Ġtold":10574,"ctyp":10575,"ctification":10576,"Ġfight":10577,"Ġflight":10578,"Ġectyp":10579,"secting":10580,"oure":10581,"Ġret":10582,"Ġrecall":10583,"Ġrenew":10584,"left":10585,"Ġconced":10586,"Ġconvey":10587,"Ġconditio":10588,"Ġdumb":10589,"Ġbefits":10590,"start":10591,"states":10592,"starry":10593,"Ġwhol":10594,"arond":10595,"asp":10596,"asy":10597,"ascribed":10598,"Ġhost":10599,"Ġprize":10600,"Ġprogram":10601,"Ġproud":10602,"thening":10603,"Ġum":10604,"ivial":10605,"iveness":10606,"imposes":10607,"Ġexhort":10608,"Ġliable":10609,"Ġlucid":10610,"Ġliberum":10611,"Ġweari":10612,"Ġwelcome":10613,"Ġfort":10614,"Ġforcing":10615,"ithmetic":10616,"idens":10617,"idger":10618,"ceptation":10619,"Ġsuspect":10620,"Ġsuited":10621,"ldarond":10622,"urp":10623,"urred":10624,"qui":10625,"querable":10626,"versely":10627,"erer":10628,"ando":10629,"andom":10630,"perceived":10631,"persist":10632,"perpet":10633,"pertains":10634,"Ġreasonably":10635,"conquerable":10636,"conversely":10637,"chasm":10638,"endour":10639,"endels":10640,"Ġdeeper":10641,"usable":10642,"usiveness":10643,"activity":10644,"Ġunre":10645,"Ġunsh":10646,"Ġunjust":10647,"Ġunreal":10648,"Ġunnecessarily":10649,"Ġunbelief":10650,"Ġunqual":10651,"Ġunsett":10652,"Ġunusual":10653,"Ġunrestricted":10654,"Ġunconquerable":10655,"planation":10656,"placing":10657,"deceived":10658,"depart":10659,"olence":10660,"ollection":10661,"igour":10662,"umn":10663,"Ġsport":10664,"tried":10665,"off":10666,"Ġempire":10667,"Ġrot":10668,"Ġrhet":10669,"Ġexistent":10670,"herself":10671,"Ġtrivial":10672,"foreign":10673,"usement":10674,"useful":10675,"Ġva":10676,"Ġvast":10677,"Ġvigour":10678,"Ġwillingly":10679,"Ġimproved":10680,"Ġnatura":10681,"ameter":10682,"supposed":10683,"supposing":10684,"Ġusurp":10685,"indifference":10686,"antagon":10687,"Ġshake":10688,"outset":10689,"Ġsea":10690,"Ġseyn":10691,"phil":10692,"Ġevade":10693,"wholly":10694,"Ġjug":10695,"ĠAS":10696,"ĠAff":10697,"ĠAldarond":10698,"Ġaccum":10699,"Ġaccused":10700,"acceptation":10701,"ultimate":10702,"Ġunderstandings":10703,"care":10704,"unite":10705,"unted":10706,"unchangeable":10707,"forward":10708,"Ġadjust":10709,"ĠPER":10710,"ĠPole":10711,"ĠPrecisely":10712,"),[":10713,"sohn":10714,"Ġprecl":10715,"etus":10716,"etting":10717,"ĠThough":10718,"ĠThirdly":10719,"Ġchamp":10720,"Ġsyntheses":10721,"strong":10722,"strings":10723,"Ġsomewhere":10724,"Ġardent":10725,"ĠSpirit":10726,"Ġsubdu":10727,"Ġsubdivided":10728,"Ġsubdivisions":10729,"ensity":10730,"nesses":10731,"oyed":10732,"prepar":10733,"prefer":10734,"predetermined":10735,"preciated":10736,"Ġcompleting":10737,"Ġcertainties":10738,"Ġcontending":10739,"ĠWidger":10740,"Ġmoves":10741,"ployment":10742,"ĠCOM":10743,"ĠCartes":10744,"Ġgrasp":10745,"Theological":10746,"Ġfollowers":10747,"Ġobno":10748,"Ġdistrust":10749,"Ġcommencing":10750,"arius":10751,"Ġdescribes":10752,"compl":10753,"commen":10754,"proves":10755,"Ġremembered":10756,"withdrawn":10757,"Ġdiscord":10758,"Ġrespective":10759,"Ġpurified":10760,"Ġpoly":10761,"ĠHas":10762,"ĠHad":10763,"web":10764,"Ġgrounding":10765,"Ġages":10766,"overstep":10767,"Ġenunciation":10768,"ĠReci":10769,"Ġpresume":10770,"existences":10771,"ĠEqu":10772,"ĠELEMENT":10773,"Ġexpedient":10774,"available":10775,"Ġattends":10776,"physician":10777,"identity":10778,"ĠDE":10779,"ĠDest":10780,"Ġentities":10781,"assable":10782,"Ġimpelling":10783,"Ġimpenetrable":10784,"Ġimpaired":10785,"Ġimpassable":10786,"Ġpurposely":10787,"Ġanalyses":10788,"Ġinteresting":10789,"Ġconcess":10790,"ĠModality":10791,"ĠMendels":10792,"inguish":10793,"Ġstray":10794,"Ġstriving":10795,"Ġrefute":10796,"Ġrefusing":10797,"empty":10798,"Ġindolence":10799,"Ġadvised":10800,"Ġcompany":10801,"Ġcompulsion":10802,"Ġassumes":10803,"Ġsumm":10804,"Ġsums":10805,"contrib":10806,"Ġdecay":10807,"ĠLest":10808,"Ġmetals":10809,"events":10810,"Ġpredicating":10811,"lude":10812,"raft":10813,"Ġexpressing":10814,"Ġresiding":10815,"ĠUpdated":10816,"Ġmighty":10817,"Ġconfer":10818,"Ġconfident":10819,"Ġconfidently":10820,"undant":10821,"Inasmuch":10822,"ĠOntological":10823,"accustomed":10824,"Ġclearing":10825,"subsum":10826,"Ġarranges":10827,"dissimilar":10828,"disputes":10829,"Ġeloqu":10830,"Ġneeding":10831,"Ġaccordant":10832,"Ġfinishing":10833,"errors":10834,"contact":10835,"Ġrelationship":10836,"parte":10837,"Ġcoin":10838,"Ġmethodical":10839,"Ġsolving":10840,"arri":10841,"Ġidealistic":10842,"APPENDIX":10843,"bitious":10844,"Ġappreciated":10845,"Ġboundless":10846,"overer":10847,"Ġinfluenced":10848,"ĠSupposing":10849,"Ġpassion":10850,"Ġpassions":10851,"Ġconducting":10852,"cks":10853,"Ġexpecting":10854,"Ġmisapplied":10855,"Ġmisinter":10856,"Ġmissed":10857,"Ġmisleads":10858,"Ġmisleading":10859,"Ġconsciously":10860,"Ġgeneratio":10861,"Ġopens":10862,"Ġunderstands":10863,"extends":10864,"Ġawakes":10865,"connecting":10866,"Ġsuperficial":10867,"differ":10868,"blind":10869,"blances":10870,"Ġiii":10871,"requiring":10872,"Ġundecided":10873,"iae":10874,"Ġbrutum":10875,"sensuously":10876,"Ġoperative":10877,"Ġoperates":10878,"righteous":10879,"happily":10880,"Ġanalogical":10881,"apse":10882,"brain":10883,"Ġmeditation":10884,"Ġasking":10885,"ĠExternal":10886,"ĠExamples":10887,"prescribed":10888,"Ġmeanings":10889,"desired":10890,"describe":10891,"descent":10892,"belie":10893,"Ġthirdly":10894,"Ġfrustr":10895,"applies":10896,"Ġsurm":10897,"ĠSphere":10898,"Ġdesignates":10899,"Ġdesignating":10900,"Ġblow":10901,"respects":10902,"quanta":10903,"Ġdelusions":10904,"Ġdelivered":10905,"ĠArchitect":10906,"Ġraises":10907,"inclined":10908,"includes":10909,"impenetrable":10910,"Ġarbitrium":10911,"Ġcircums":10912,"Ġroads":10913,"consisting":10914,"Ġseparates":10915,"mathematician":10916,"universally":10917,"Ġagreeably":10918,"metaphysicians":10919,"Ġacceptance":10920,"iterated":10921,"cogitating":10922,"Ġsceptic":10923,"ursively":10924,"thinker":10925,"thinkers":10926,"Ġgenius":10927,"confutation":10928,"Ġdogmatists":10929,"Ġcreative":10930,"Ġoccasionally":10931,"ipate":10932,"analysed":10933,"Ġconverted":10934,"Ġconverting":10935,"predicated":10936,"originated":10937,"originator":10938,"satisfy":10939,"Ġinterference":10940,"Ġinterior":10941,"Ġexperiments":10942,"specific":10943,"Ġhighway":10944,"realized":10945,"ICAL":10946,"Ġmechanically":10947,"Ġloses":10948,"Ġcomprehended":10949,"discovers":10950,"Ġrecord":10951,"Ġrecollection":10952,"Ġsucceeds":10953,"ĠImmortality":10954,"observe":10955,"Ġpractised":10956,"Ġpracticable":10957,"Ġobscured":10958,"Ġdetection":10959,"continual":10960,"Ġfirmness":10961,"Ġpreservation":10962,"influences":10963,"Ġmistaking":10964,"Ġstudent":10965,"Ġbenefits":10966,"Ġdestiny":10967,"Ġengraft":10968,"attempting":10969,"Ġrepul":10970,"Ġreputation":10971,"glorious":10972,"Ġ2003":10973,"negations":10974,"Ġauthorizes":10975,"Ġcapital":10976,"Ġstrengthening":10977,"Ġreflected":10978,"Ġspirituality":10979,"ĠEmpiricism":10980,"ĠEmployment":10981,"Ġhabitation":10982,"operate":10983,"Ġextract":10984,"Ġblindness":10985,"humanity":10986,"imagin":10987,"imagine":10988,"Ġexcuse":10989,"Ġexcusable":10990,"depending":10991,"Ġbehalf":10992,"Ġillustrations":10993,"Ġpermits":10994,"pretext":10995,"additions":10996,"Ġappeals":10997,"altered":10998,"equally":10999,"Ġcontemplate":11000,"Ġattacked":11001,"Ġconfusedly":11002,"Ġtransgresses":11003,"showing":11004,"Ġsecrets":11005,"requirement":11006,"conceptus":11007,"Ġimitate":11008,"Ġimitating":11009,"Ġabandoned":11010,"Ġchaos":11011,"Ġhinders":11012,"singular":11013,"Ġinjuring":11014,"Ġinjury":11015,"Ġevidencing":11016,"Ġstarted":11017,"Ġrejection":11018,"Ġaltering":11019,"ĠComp":11020,"Ġblameless":11021,"Ġimparted":11022,"antecedently":11023,"Ġsuffers":11024,"Ġspectacle":11025,"ĠCategorical":11026,"Ġlegitimately":11027,"Ġsymbol":11028,"Ġmeantime":11029,"Ġambigu":11030,"affirmations":11031,"maintains":11032,"Ġdrives":11033,"correctness":11034,"Examples":11035,"personal":11036,"Ġpreferable":11037,"Ġpreferred":11038,"Ġresolves":11039,"Ġcolouring":11040,"Ġfulfils":11041,"Ġdeprives":11042,"Ġjoining":11043,"collect":11044,"modi":11045,"enlarges":11046,"enlarging":11047,"Ġalleging":11048,"ĠTranscendent":11049,"Quod":11050,"Ġcentury":11051,"security":11052,"generations":11053,"Ġannounces":11054,"Ġverbal":11055,"Ġinstructs":11056,"constructed":11057,"ĠProofs":11058,"Ġincit":11059,"Ġincumb":11060,"country":11061,"Ġwider":11062,"Ġfootsteps":11063,"Ġerects":11064,"sophistries":11065,"Ġreconcile":11066,"Ġamounts":11067,"Ġstruggling":11068,"Ġflatters":11069,"Ġantinomial":11070,"Ġdenomination":11071,"experiment":11072,"Ġmoderns":11073,"Ġelaborate":11074,"Ġruns":11075,"throwing":11076,"Ġcourtes":11077,"Ġexemption":11078,"deserve":11079,"stones":11080,"Ġlicence":11081,"expositions":11082,"Ġsubstituting":11083,"Ġprimeval":11084,"Ġhesitation":11085,"classes":11086,"pursuit":11087,"comprehended":11088,"instances":11089,"Ġinexhaust":11090,"Ġtrustworthy":11091,"Ġheights":11092,"Ġvehic":11093,"Ġdenominated":11094,"declarations":11095,"introduction":11096,"Ġsustained":11097,"Ġembarrassments":11098,"Ġinsisted":11099,"Ġincorporeal":11100,"transcends":11101,"excite":11102,"Ġbranch":11103,"detect":11104,"ĠAgainst":11105,"school":11106,"Ġtheorems":11107,"delusion":11108,"ĠDetermining":11109,"confirmation":11110,"Ġratiocinant":11111,"Ġarchetypal":11112,"Ġpolice":11113,"Ġpublish":11114,"Ġpublished":11115,"Ġmasses":11116,"ĠCanon":11117,"Ġvalues":11118,"Ġvalued":11119,"preventing":11120,"bringing":11121,"Ġeducation":11122,"recognizes":11123,"Ġricher":11124,"Ġvisionary":11125,"ĠSUB":11126,"precepts":11127,"Ġresponsibility":11128,"4280":11129,"Ġpotential":11130,"Ġdiameter":11131,"Ġdrops":11132,"iverance":11133,"Ġlargest":11134,"authorized":11135,"Ġincapac":11136,"Ġincapacity":11137,"settlement":11138,"Ġreverses":11139,"Ġforgetting":11140,"Ġadversary":11141,"Ġarticulation":11142,"Ġpresumed":11143,"Ġpresumpt":11144,"Ġconfounding":11145,"Ġfalsity":11146,"requisite":11147,"Ġsignalize":11148,"exercising":11149,"diversity":11150,"sketch":11151,"strength":11152,"abandoning":11153,"Ġappetite":11154,"ĠPostulates":11155,"impulses":11156,"Ġsharpen":11157,"instructed":11158,"enesis":11159,"Ġmingles":11160,"Ġsuddenly":11161,"Ġdissipate":11162,"Ġobliterated":11163,"ĠHypothesis":11164,"Ġenigma":11165,"granting":11166,"Ġindisputable":11167,"Ġtreasures":11168,"Ġastronomers":11169,"scholastic":11170,"Ġsurreptitiously":11171,"Epicurean":11172,"fictitious":11173,"Ġtheologians":11174,"Ġwandering":11175,"Ġsagacity":11176,"Ġincomprehensibility":11177,"Ġinstrument":11178,"Ġlatent":11179,"Ġweariness":11180,"Ġsupposititious":11181,"convenience":11182,"ĠBecause":11183,"Ġaccusation":11184,"ĠHistory":11185,"arrogant":11186,"architectonic":11187,"circumstances":11188,"Ġembellishments":11189,"Criticism":11190,"Particular":11191,"cobweb":11192,"govern":11193,"harmonize":11194,"mundus":11195,"movable":11196,"psychologia":11197,"splendour":11198,"twofold":11199,"victory":11200,"Ġillegitimate":11201,"Ġtibi":11202,"Ġaequivoca":11203,"Ġoptical":11204,"resemblances":11205,"Ġcrowded":11206,"Ġinanimate":11207,"Ġinestimable":11208,"Ġinhabitants":11209,"Ġectypal":11210,"Ġwholes":11211,"Ġhostile":11212,"Ġwearied":11213,"persisted":11214,"perpetually":11215,"Ġunshaken":11216,"Ġunqualified":11217,"Ġunsettled":11218,"ĠAldarondo":11219,"ĠPolemics":11220,"Ġsubdued":11221,"ĠCartesian":11222,"Ġobnoxious":11223,"commencing":11224,"ĠReciproc":11225,"ĠELEMENTS":11226,"ĠMendelssohn":11227,"Ġeloquent":11228,"Ġmisinterpretation":11229,"ĠArchitectonic":11230,"Ġincumbent":11231,"Ġcourtesy":11232,"Ġinexhaustible":11233,"\"),":11234,"($":11235,")-":11236,"*(":11237,".]":11238,"02":11239,"04":11240,"280":11241,"65":11242,"66":11243,"67":11244,"69":11245,"70":11246,"72":11247,"73":11248,"74":11249,"76":11250,"77":11251,"81":11252,"87":11253,"96":11254,"AF":11255,"AY":11256,"AIN":11257,"BC":11258,"Creating":11259,"DIC":11260,"DAMAG":11261,"End":11262,"FUND":11263,"His":11264,"HIL":11265,"ITH":11266,"Ju":11267,"LL":11268,"Love":11269,"LAF":11270,"MAL":11271,"MENT":11272,"Michael":11273,"NO":11274,"NER":11275,"OS":11276,"ORO":11277,"OSE":11278,"Ple":11279,"RS":11280,"Reven":11281,"RAPH":11282,"UAL":11283,"Unt":11284,"USI":11285,"Updated":11286,"Volunteers":11287,"WNER":11288,"Yes":11289,"aut":11290,"aud":11291,"astr":11292,"augment":11293,"bes":11294,"book":11295,"besides":11296,"bnew":11297,"bungl":11298,"cs":11299,"cover":11300,"civil":11301,"crowd":11302,"dam":11303,"doll":11304,"egr":11305,"ebr":11306,"eveloped":11307,"fan":11308,"fence":11309,"full":11310,"fix":11311,"fru":11312,"gn":11313,"gone":11314,"gained":11315,"ggle":11316,"hi":11317,"hind":11318,"hart":11319,"hyp":11320,"holiness":11321,"hoof":11322,"jacent":11323,"kingdom":11324,"link":11325,"laid":11326,"lio":11327,"loc":11328,"liability":11329,"mn":11330,"mer":11331,"mal":11332,"mill":11333,"mour":11334,"macy":11335,"night":11336,"oh":11337,"ober":11338,"port":11339,"pob":11340,"ros":11341,"rary":11342,"rible":11343,"rances":11344,"rium":11345,"sin":11346,"sound":11347,"sought":11348,"sake":11349,"sciences":11350,"tre":11351,"tact":11352,"tlest":11353,"useless":11354,"upright":11355,"vous":11356,"vered":11357,"wished":11358,"welf":11359,"water":11360,"wrong":11361,"wants":11362,"yers":11363,"zer":11364,"zism":11365,"ĠQU":11366,"Ġ*****":11367,"Ġtor":11368,"Ġtur":11369,"Ġtrem":11370,"Ġtears":11371,"Ġtutor":11372,"heart":11373,"Ġathe":11374,"Ġaver":11375,"Ġawe":11376,"Ġaversion":11377,"ones":11378,"onent":11379,"ina":11380,"inery":11381,"inconceivable":11382,"Ġthee":11383,"Ġtheist":11384,"reach":11385,"relu":11386,"received":11387,"reption":11388,"refer":11389,"repe":11390,"recognize":11391,"repute":11392,"itating":11393,"isi":11394,"isse":11395,"enn":11396,"encour":11397,"enforce":11398,"ats":11399,"atical":11400,"ature":11401,"Ġcun":11402,"Ġcosm":11403,"Ġcount":11404,"Ġcodes":11405,"erm":11406,"erv":11407,"eron":11408,"erce":11409,"eration":11410,"erate":11411,"erring":11412,"erving":11413,"Ġwal":11414,"Ġwent":11415,"Ġwound":11416,"Ġwret":11417,"Ġwild":11418,"Ġwrest":11419,"Ġwrought":11420,"Ġsend":11421,"Ġsink":11422,"Ġsap":11423,"Ġsites":11424,"Ġpu":11425,"Ġpus":11426,"Ġpill":11427,"Ġinsen":11428,"Ġinane":11429,"Ġinexpl":11430,"Ġincompar":11431,"Ġinstructive":11432,"alar":11433,"Ġblessed":11434,"esca":11435,"Ġthine":11436,"Ġthresh":11437,"orably":11438,"orned":11439,"Ġmir":11440,"Ġmill":11441,"ctantly":11442,"ctober":11443,"Ġfain":11444,"Ġfif":11445,"Ġfra":11446,"Ġfier":11447,"analytic":11448,"Ġnations":11449,"Ġnet":11450,"Ġnisi":11451,"Ġeul":11452,"Ġeff":11453,"Ġelect":11454,"sever":11455,"severest":11456,"secret":11457,"oup":11458,"Ġrefin":11459,"Ġreward":11460,"lege":11461,"Ġcone":11462,"Ġconqu":11463,"Ġcondem":11464,"Ġconducive":11465,"Ġdil":11466,"Ġdress":11467,"Ġdie":11468,"Ġdates":11469,"Ġdial":11470,"Ġduc":11471,"Ġdrew":11472,"Ġbead":11473,"status":11474,"omas":11475,"omain":11476,"ompl":11477,"omaly":11478,"omni":11479,"omnit":11480,"aring":11481,"arol":11482,"arities":11483,"asur":11484,"asibility":11485,"uters":11486,"utche":11487,"ections":11488,"ectyp":11489,"Ġhide":11490,"Ġhover":11491,"Ġprae":11492,"lling":11493,"lled":11494,"theore":11495,"ival":11496,"impose":11497,"improv":11498,"immortality":11499,"immaterial":11500,"osoph":11501,"Ġexcess":11502,"Ġanxious":11503,"Ġanomaly":11504,"Ġnotic":11505,"Ġnotifies":11506,"Ġlust":11507,"Ġloth":11508,"Ġlau":11509,"Ġlux":11510,"Ġweighed":11511,"Ġforbe":11512,"Ġforfe":11513,"ithful":11514,"idnight":11515,"Ġsupre":11516,"Ġsunt":11517,"ibib":11518,"ibrium":11519,"teronomy":11520,"irre":11521,"iration":11522,"irgin":11523,"ureans":11524,"Ġgout":11525,"Ġgold":11526,"Ġgaps":11527,"Ġgbnew":11528,"Ġgerm":11529,"Ġwithstand":11530,"ĠIRS":11531,"ciate":11532,"ogue":11533,"resides":11534,"istence":11535,"Ġorator":11536,"Ġorbits":11537,"Ġcanst":11538,"andi":11539,"ecutive":11540,"ecundity":11541,"sels":11542,"perform":11543,"permit":11544,"permission":11545,"persuasion":11546,"performing":11547,"sibly":11548,"Ġallot":11549,"Ġallure":11550,"Ġallied":11551,"romise":11552,"emy":11553,"emin":11554,"ulzer":11555,"ateful":11556,"consol":11557,"condem":11558,"conducive":11559,"confines":11560,"chie":11561,"charge":11562,"charities":11563,"Ġintimate":11564,"Ġintegr":11565,"ored":11566,"Ġdeter":11567,"Ġdefe":11568,"Ġdearest":11569,"Ġdelet":11570,"ilation":11571,"ilanthrop":11572,"ilibrium":11573,"Ġalarm":11574,"Ġallege":11575,"ditional":11576,"amination":11577,"amps":11578,"Ġunw":11579,"Ġuntr":11580,"Ġunsol":11581,"Ġunsatisfied":11582,"Ġunbidden":11583,"Ġunfortunate":11584,"Ġunyielding":11585,"Ġunlink":11586,"Ġunerring":11587,"illain":11588,"plies":11589,"plays":11590,"places":11591,"pliance":11592,"plausible":11593,"abol":11594,"abilities":11595,"abyss":11596,"selfish":11597,"detr":11598,"deistic":11599,"defence":11600,"ansas":11601,"Ġcaution":11602,"olved":11603,"Ġ(\"":11604,"Ġ(*":11605,"igence":11606,"iestle":11607,"Ġspur":11608,"Ġspher":11609,"Ġcomets":11610,"tranqu":11611,"offer":11612,"esting":11613,"Ġrich":11614,"Ġrude":11615,"Ġraces":11616,"Ġexistential":11617,"Ġmel":11618,"Ġmelt":11619,"Ġworse":11620,"Ġtries":11621,"Ġtraces":11622,"Ġtranqu":11623,"foreseen":11624,"ctions":11625,"orially":11626,"Ġpervert":11627,"aked":11628,"Ġformarum":11629,"Ġnobl":11630,"Ġimpre":11631,"Ġimmaterial":11632,"Ġabsol":11633,"prag":11634,"Ġnative":11635,"posits":11636,"suppos":11637,"suitable":11638,"Ġregions":11639,"Ġregret":11640,"indulgence":11641,"Ġkat":11642,"Ġcognise":11643,"Ġcognisable":11644,"Ġcognitio":11645,"ĠFull":11646,"ĠFairbanks":11647,"ĠFebr":11648,"Ġshine":11649,"Ġshaken":11650,"Ġshared":11651,"outside":11652,"exto":11653,"exert":11654,"excell":11655,"exhausted":11656,"exterior":11657,"Ġreliable":11658,"udo":11659,"Ġstone":11660,"Ġstored":11661,"phrase":11662,"Ġideally":11663,"anced":11664,"Ġjesting":11665,"ĠAK":11666,"ĠACT":11667,"Ġmanhood":11668,"Ġaccru":11669,"Ġaccredit":11670,"ource":11671,"acid":11672,"acknowled":11673,"positions":11674,"unnecessary":11675,"unities":11676,"uncertainty":11677,"until":11678,"unceasing":11679,"untrue":11680,"unsearchable":11681,"Ġadjacent":11682,"Ġdisadvantage":11683,"Ġdisposing":11684,"Ġdisappro":11685,"Ġdiscontinue":11686,"Ġdisappeared":11687,"Ġdispleases":11688,"Ġdisrepute":11689,"ĠPAR":11690,"ĠPublic":11691,"ĠPlease":11692,"ĠPHIL":11693,"Ġprefers":11694,"Ġprecaution":11695,"Ġpreponder":11696,"etched":11697,"Ġknowable":11698,"ĠThomas":11699,"eneration":11700,"enerally":11701,"Ġyaw":11702,"Ġyoke":11703,"Ġeveryday":11704,"Ġarouse":11705,"Ġarmour":11706,"ĠSEND":11707,"ĠSalt":11708,"ĠSimilarly":11709,"ĠSMAL":11710,"Ġphilanthrop":11711,"ensome":11712,"ĠNihil":11713,"ĠNearly":11714,"ĠNovember":11715,"ĠOtherwise":11716,"ĠOWNER":11717,"ĠOctober":11718,"oying":11719,"imitable":11720,"preponder":11721,"prepared":11722,"conditional":11723,"ĠIncl":11724,"Ġplun":11725,"behoof":11726,"ĠWould":11727,"ĠWell":11728,"ĠWOR":11729,"ĠWIL":11730,"ĠWITH":11731,"gory":11732,"orting":11733,"ortunities":11734,"Ġwhenever":11735,"ĠCity":11736,"ĠCAN":11737,"ĠCORO":11738,"ĠCarol":11739,"Ġgroup":11740,"Theoretical":11741,"Ġenduring":11742,"ĠGover":11743,"ĠGenerally":11744,"oldest":11745,"Ġconnections":11746,"Ġfounding":11747,"served":11748,"Ġobsole":11749,"Ġowe":11750,"Ġowed":11751,"measur":11752,"Ġcommend":11753,"Ġcommerce":11754,"Ġemployee":11755,"proposed":11756,"Ġwashed":11757,"Ġremember":11758,"Ġextol":11759,"Ġextingu":11760,"Ġrationalism":11761,"Ġpoor":11762,"weak":11763,"weaken":11764,"Ġactor":11765,"Ġactuating":11766,"undertaking":11767,"Ġvaluel":11768,"overlook":11769,"overthrow":11770,"medium":11771,"Ġenlightened":11772,"Ġenemy":11773,"ĠRIG":11774,"woven":11775,"Ġpresiding":11776,"ĠEs":11777,"ĠEmail":11778,"ĠEBC":11779,"Ġoutwe":11780,"Ġoutdated":11781,"Ġexpend":11782,"Ġexporting":11783,"Ġterrible":11784,"Ġperfections":11785,"mankind":11786,"ava":11787,"aven":11788,"identical":11789,"ĠDirect":11790,"ĠDON":11791,"ĠDOM":11792,"ĠDomain":11793,"Ġentrance":11794,"assion":11795,"assent":11796,"assistance":11797,"Ġimplying":11798,"Ġimpair":11799,"Ġcorpor":11800,"Ġworking":11801,"arks":11802,"fulfil":11803,"Ġherein":11804,"canon":11805,"Ġinfused":11806,"Ġinfancy":11807,"Ġkindness":11808,"Ġhandle":11809,"Ġappearing":11810,"Ġconcur":11811,"ĠMore":11812,"ĠMAY":11813,"Ġdivides":11814,"Ġstrive":11815,"Ġstrain":11816,"Ġrefused":11817,"Ġdeductible":11818,"ysms":11819,"Ġcontradicting":11820,"Ġtruthfulness":11821,"regulated":11822,"otheology":11823,"Ġcompelling":11824,"Ġcompetition":11825,"Ġcompromise":11826,"Ġcompilation":11827,"contrast":11828,"Ġdecried":11829,"ĠLI":11830,"raised":11831,"Ġexpressly":11832,"struggle":11833,"ĠUS":11834,"ĠConcept":11835,"ĠContrib":11836,"ĠContact":11837,"undecided":11838,"Ġdiscoveries":11839,"Ġsuppressed":11840,"Ġphysician":11841,"Ġphysica":11842,"accompl":11843,"Ġdegrade":11844,"Ġcloud":11845,"Ġclock":11846,"knowing":11847,"subscribe":11848,"subordinate":11849,"Ġdefiniteness":11850,"Ġrighteous":11851,"disk":11852,"display":11853,"disinterested":11854,"Ġsolemn":11855,"TIVE":11856,"redistrib":11857,"Ġexerted":11858,"Ġcontingencies":11859,"Ġimperilled":11860,"Ġacknowled":11861,"Ġwanted":11862,"Ġfinanci":11863,"contend":11864,"transcendentalism":11865,"Ġpersonified":11866,"Ġremarking":11867,"Ġassertorial":11868,"Ġassertorially":11869,"contradicts":11870,"Ġmeanest":11871,"ĠTHOSE":11872,"misconception":11873,"misapprehension":11874,"Ġnonpropri":11875,"Ġcoar":11876,"Ġcool":11877,"Ġdemonstrable":11878,"aimed":11879,"Ġdogma":11880,"goals":11881,"array":11882,"arried":11883,"arrived":11884,"Ġlesson":11885,"Ġequipped":11886,"Ġequilibrium":11887,"Ġovercoming":11888,"Ġcommanding":11889,"mense":11890,"ĠPrimal":11891,"ĠPriestle":11892,"Ġidentification":11893,"Ġharsh":11894,"Ġmisology":11895,"Ġmisrepresentation":11896,"Ġmisfortune":11897,"Ġmischief":11898,"Ġmiserably":11899,"Ġobligatory":11900,"Ġargumentative":11901,"grace":11902,"extreme":11903,"Ġawa":11904,"Ġmaintainer":11905,"Ġpromising":11906,"Ġprominent":11907,"Ġspeech":11908,"ĠBeings":11909,"Ġaddresses":11910,"Ġlegislator":11911,"Ġcircuit":11912,"request":11913,"nearer":11914,"Ġundone":11915,"Ġundeveloped":11916,"Ġbrutes":11917,"Ġbridge":11918,"categorically":11919,"ynics":11920,"corporeal":11921,"Ġclaiming":11922,"Ġdistinctly":11923,"Ġdistinctness":11924,"Ġfutile":11925,"happened":11926,"Ġcorrecting":11927,"noble":11928,"noisse":11929,"Ġteleology":11930,"Ġinvolunt":11931,"fering":11932,"procure":11933,"examine":11934,"examined":11935,"examining":11936,"Ġparsimony":11937,"Ġparabol":11938,"Ġdistributive":11939,"ĠExecutive":11940,"ĠExamination":11941,"short":11942,"ship":11943,"Ġmeaningless":11944,"justifies":11945,"Ġexcluding":11946,"Ġtranslated":11947,"ARY":11948,"asked":11949,"Ġvainly":11950,"legality":11951,"remo":11952,"Ġfrank":11953,"Ġframes":11954,"causal":11955,"fees":11956,"Ġpains":11957,"Ġpainful":11958,"ftp":11959,"thoughts":11960,"Ġdesigned":11961,"attached":11962,"ocate":11963,"Ġdelivers":11964,"Ġdelicate":11965,"Ġapproved":11966,"Ġapproval":11967,"Ġapprobation":11968,"Ġdeclined":11969,"Ġletters":11970,"Ġ55":11971,"Ġ596":11972,"INT":11973,"ĠKings":11974,"ĠKNO":11975,"Ġcheer":11976,"Ġchemist":11977,"thened":11978,"Ġ*(":11979,"compressed":11980,"Ġgeometer":11981,"ĠREPL":11982,"ĠREFUND":11983,"poseless":11984,"Ġfaulty":11985,"worthless":11986,"Ġ4000":11987,"Ġ4280":11988,"Ġscale":11989,"Ġsurely":11990,"confounded":11991,"Ġdogmata":11992,"insip":11993,"Ġwiser":11994,"Ġwisest":11995,"Ġfavourite":11996,"Ġgeometrician":11997,"venal":11998,"Ġoccasioned":11999,"Ġediting":12000,"Ġensure":12001,"Ġensures":12002,"Ġensuring":12003,"originarium":12004,"Ġpropension":12005,"Ġinterrog":12006,"Ġinterwoven":12007,"Ġinterfering":12008,"ĠAND":12009,"realissimum":12010,"matters":12011,"Ġcountries":12012,"demonstrations":12013,"demonstratively":12014,"Ġreducing":12015,"Ġcanons":12016,"Ġaccidentally":12017,"investigating":12018,"Ġdiversities":12019,"ruin":12020,"iana":12021,"Ġaccessed":12022,"Ġaccessible":12023,"advances":12024,"Ġprudential":12025,"Ġenlarges":12026,"Ġenlarging":12027,"Ġdefects":12028,"Ġ92":12029,"attaining":12030,"Ġsketched":12031,"Ġdetails":12032,"Ġwriter":12033,"Ġhumour":12034,"Ġpreserves":12035,"Professor":12036,"Ġbenef":12037,"Ġrepress":12038,"Ġreports":12039,"Ġreported":12040,"NDATION":12041,"Ġsentimental":12042,"Ġqualified":12043,"ĠPhalar":12044,"affinity":12045,"Ġlowering":12046,"neglect":12047,"Ġreckons":12048,"maximum":12049,"Ġprofessions":12050,"Ġglory":12051,"ĠPUBL":12052,"remaining":12053,"ĠPROBL":12054,"infinitely":12055,"Ġguarded":12056,"Ġguardian":12057,"JECTIVE":12058,"conditio":12059,"Ġoccurring":12060,"imagined":12061,"Ġexcited":12062,"superior":12063,"Ġsearching":12064,"Beyond":12065,"Ġdeviate":12066,"Ġ70":12067,"Ġ75":12068,"Ġrenamed":12069,"Ġrenounces":12070,"Ġrenounced":12071,"ĠChief":12072,"Ġstrongly":12073,"Ġstrongest":12074,"Ġbehold":12075,"Ġsuggestion":12076,"Ġ65":12077,"Ġderivable":12078,"difficult":12079,"Ġenjoying":12080,"ĠDIRECT":12081,"volunteers":12082,"secondly":12083,"ĠEpicureans":12084,"obligatory":12085,"define":12086,"ĠEveryone":12087,"inquire":12088,"unteer":12089,"TRAD":12090,"Ġadaptation":12091,"supplied":12092,"begins":12093,"EMARK":12094,"Ġscholar":12095,"Ġscholars":12096,"labours":12097,"Ġfortunate":12098,"Ġadducing":12099,"Ġgovernor":12100,"Ġrooted":12101,"Ġmoderately":12102,"potence":12103,"Ġprepares":12104,"Ġcommunic":12105,"mock":12106,"Ġattractions":12107,"Ġobeys":12108,"Ġrejects":12109,"ĠCompliance":12110,"advantageous":12111,"ACEMENT":12112,"ĠPRINT":12113,"Ġaccomplishes":12114,"directs":12115,"directing":12116,"directed":12117,"Ġsettlement":12118,"Ġsympath":12119,"Ġsympat":12120,"Ġheader":12121,"Ġomnipresent":12122,"Ġomnipresence":12123,"oxysms":12124,"Ġcuriosity":12125,"ĠINTERNAL":12126,"Ġdeepest":12127,"ĠMaterial":12128,"culation":12129,"Ġdictation":12130,"Ġdictated":12131,"Existence":12132,"Ġcleared":12133,"Ġstops":12134,"ĠPerfect":12135,"ĠPermitted":12136,"authors":12137,"persons":12138,"personality":12139,"Ġtells":12140,"Ġtypic":12141,"Ġresolutions":12142,"constructions":12143,"collection":12144,"collected":12145,"Ġlinked":12146,"801":12147,"Ġtender":12148,"Ġtendencies":12149,"anthropomorphic":12150,"Ġenouncement":12151,"Ġhyperbol":12152,"Ġreplaced":12153,"iliates":12154,"Ġpleasantness":12155,"incerity":12156,"Ġrevealed":12157,"Ġannoying":12158,"promise":12159,"promote":12160,"Ġversion":12161,"Ġverify":12162,"Ġnullity":12163,"constructs":12164,"needing":12165,"Ġobstinacy":12166,"AGRAPH":12167,"results":12168,"Ġratione":12169,"ĠAlaska":12170,"distribute":12171,"distribution":12172,"affecting":12173,"Ġthreatened":12174,"Ġfootpath":12175,"Ġhundreds":12176,"individuals":12177,"agreeable":12178,"ĠPhilosophical":12179,"ĠPhysics":12180,"Ġwax":12181,"Ġwait":12182,"Ġprincipally":12183,"Ġviolate":12184,"indispensably":12185,"Ġyouthful":12186,"Ġconcealment":12187,"Ġhypostatize":12188,"Ġhypostatized":12189,"Ġbreaks":12190,"copy":12191,"copying":12192,"Ġthyself":12193,"Ġurges":12194,"Ġpropensions":12195,"Ġ501":12196,"INCIDENTAL":12197,"pathologically":12198,"Ġprospects":12199,"ULAR":12200,"opportunity":12201,"opponent":12202,"profitable":12203,"Ġstruggles":12204,"Ġcharitable":12205,"ĠEXCEP":12206,"ĠEXTERNAL":12207,"Ġdespising":12208,"ĠNewby":12209,"CLUSI":12210,"Ġ85":12211,"Ġ841":12212,"Ġascertaining":12213,"Ġalternate":12214,"Ġalternatively":12215,"Ġmachines":12216,"Ġmachinery":12217,"Ġincompatible":12218,"Ġexcellence":12219,"Ġdetract":12220,"LIABILITY":12221,"LIABLE":12222,"loving":12223,"Ġlicet":12224,"Ġsubstitute":12225,"Ġ1971":12226,"dispositions":12227,"Ġcalculation":12228,"Persuasion":12229,"donation":12230,"Ġsolicitation":12231,"Ġinstincts":12232,"commands":12233,"Ġsalts":12234,"devised":12235,"pursued":12236,"convincing":12237,"Ġridicule":12238,"Ġbetrayed":12239,"treatment":12240,"instance":12241,"Ġinexorably":12242,"ĠAbout":12243,"Ġmysticism":12244,"Ġvex":12245,"Ġveiled":12246,"Ġbinds":12247,"cility":12248,"Ġdeceit":12249,"Ġperplexing":12250,"Ġcompassion":12251,"Ġsuffering":12252,"definitely":12253,"Ġtalked":12254,"reckoning":12255,"Ġrestrained":12256,"excited":12257,"Ġgratification":12258,"probable":12259,"Ġencourage":12260,"Ġsurprise":12261,"ĠMethodology":12262,"Ġthreatening":12263,"increase":12264,"ancients":12265,"admixture":12266,"admiration":12267,"Ġchiefly":12268,"Ġcriticize":12269,"Ġfatalist":12270,"Deity":12271,"honoured":12272,"honesty":12273,"Ġastonishing":12274,"Ġbonus":12275,"Ġpragmatic":12276,"Ġhealthy":12277,"ĠAGREEMENT":12278,"ĠMission":12279,"specifically":12280,"Ġpunctual":12281,"Ġpunctually":12282,"Ġstrengthens":12283,"itizens":12284,"Ġprolonged":12285,"piricists":12286,"majesty":12287,"ĠSubjective":12288,"501":12289,"testing":12290,"Ġslip":12291,"Ġpoles":12292,"Ġparents":12293,"Ġmarvellous":12294,"equivalent":12295,"OPH":12296,"Ġeducational":12297,"recognise":12298,"Ġswamp":12299,"Ġpressure":12300,"Ġconsulting":12301,"ĠWolfian":12302,"Ġresponsible":12303,"Ġparadoxical":12304,"Ġchemists":12305,"Ġfacility":12306,"Ġtransgressing":12307,"PROVIDED":12308,"creature":12309,"creatures":12310,"Ġautomaton":12311,"enjoyment":12312,"Ġinspires":12313,"Ġtolerable":12314,"Ġtolerate":12315,"Ġmali":12316,"Ġmalum":12317,"Ġredistribute":12318,"Ġredistributing":12319,"ĠINDEMNITY":12320,"ĠBEFORE":12321,"sympathy":12322,"symbol":12323,"attacks":12324,"Ġdownload":12325,"Ġbeneficence":12326,"Ġwavering":12327,"1887":12328,"Ġseduced":12329,"Ġlibrary":12330,"Ġshadows":12331,"ĠCertainly":12332,"obscure":12333,"beneficial":12334,"diversities":12335,"flown":12336,"framed":12337,"parents":12338,"ratione":12339,"skill":12340,"reputation":12341,"Ġsoftware":12342,"Ġfluid":12343,"Ġelucidate":12344,"strengthened":12345,"Ġunconsciously":12346,"abandoned":12347,"ĠPOSSIBILITY":12348,"ĠPostulate":12349,"Ġindividuum":12350,"impulse":12351,"ĠWhoever":12352,"master":12353,"mastery":12354,"sentiments":12355,"temptation":12356,"temptations":12357,"Ġignore":12358,"Ġcardinal":12359,"Ġsanctions":12360,"Ġmountain":12361,"Ġmountains":12362,"Ġflatten":12363,"Ġlimbs":12364,"private":12365,"privilege":12366,"ĠPGLAF":12367,"Ġyea":12368,"Ġarguing":12369,"Ġsubreptions":12370,"Ġsubreptio":12371,"Ġpoisons":12372,"ĠRedistribution":12373,"ĠRedistributing":12374,"doctrines":12375,"doctrinal":12376,"Ġheroes":12377,"Ġ5682":12378,"Ġ5683":12379,"Ġadmirers":12380,"Ġsuffices":12381,"cultivated":12382,"Philosophical":12383,"ĠDISTRIBUTE":12384,"ĠDISTRIBUTOR":12385,"humiliates":12386,"laborious":12387,"motherly":12388,"Ġadequacy":12389,"enumerate":12390,"animals":12391,"Ġnominally":12392,"Ġliquet":12393,"Ġforsakes":12394,"conjectured":12395,"Ġnovelty":12396,"primary":12397,"ademical":12398,"ĠFOUNDATION":12399,"Ġdisappointment":12400,"serviceable":12401,"Ġimpotence":12402,"Ġdegraded":12403,"transgression":12404,"Ġzealous":12405,"ĠAbbott":12406,"Ġeconomical":12407,"Ġincontrovertibly":12408,"5683":12409,"Morality":12410,"Stoics":12411,"calculation":12412,"destination":12413,"elevated":12414,"facility":12415,"familiar":12416,"penetrating":12417,"wisdom":12418,"warranties":12419,"inozism":12420,"reconciled":12421,"Ġcandour":12422,"Ġthwarting":12423,"Ġfantastic":12424,"Ġeclipses":12425,"threatens":12426,"constantly":12427,"Ġdepict":12428,"Ġalkali":12429,"Ġhastily":12430,"adapted":12431,"ĠAdditional":12432,"speculations":12433,"ĠGregory":12434,"Ġenvy":12435,"sensualizing":12436,"Ġentrusted":12437,"Ġinflexible":12438,"undoubtedly":12439,"mysticism":12440,"ĠImperatives":12441,"Ġdeviations":12442,"PLEASE":12443,"Ġsteadfastness":12444,"Ġauthenticated":12445,"Ġtradesman":12446,"6221541":12447,"DAMAGE":12448,"Juvenal":12449,"LLARY":12450,"OSOPH":12451,"Pleasure":12452,"Revenue":12453,"Until":12454,"coverably":12455,"civilized":12456,"dollars":12457,"fanaticism":12458,"fruitful":12459,"hindrances":12460,"pobox":12461,"soundness":12462,"welfare":12463,"Ġtorment":12464,"Ġatheistic":12465,"Ġaverage":12466,"reluctantly":12467,"repeated":12468,"encouragement":12469,"enforceability":12470,"Ġcunning":12471,"Ġwalks":12472,"Ġwretched":12473,"Ġpushed":12474,"Ġinsensibly":12475,"Ġinexplicable":12476,"escape":12477,"Ġthreshold":12478,"Ġnetwork":12479,"Ġeulog":12480,"Ġrefinement":12481,"Ġdiligence":12482,"Ġdialetic":12483,"Ġducat":12484,"omnipotence":12485,"omnitudo":12486,"utcheson":12487,"ectypa":12488,"theorem":12489,"improvement":12490,"Ġlaugh":12491,"Ġluxury":12492,"Ġforbear":12493,"Ġsupremacy":12494,"ibiblio":12495,"irginia":12496,"Ġgbnewby":12497,"condemn":12498,"chievous":12499,"Ġintegrity":12500,"Ġdeletions":12501,"Ġunsolicited":12502,"detrimental":12503,"Ġmelts":12504,"Ġnoblest":12505,"Ġimpregn":12506,"pragmatic":12507,"suppositio":12508,"ĠFebruary":12509,"excellent":12510,"ĠACTUAL":12511,"ĠPARAGRAPH":12512,"ĠPHILOSOPH":12513,"Ġarmoury":12514,"ĠSMALL":12515,"Ġphilanthropist":12516,"ĠWORK":12517,"ĠWILL":12518,"ĠCOROLLARY":12519,"ĠCarolina":12520,"ĠGovernor":12521,"Ġobsolete":12522,"Ġvalueless":12523,"ĠRIGHT":12524,"ĠEBCDIC":12525,"ĠDirector":12526,"ĠDOMAIN":12527,"Ġcorporation":12528,"ĠContributions":12529,"Ġfinancial":12530,"Ġnonproprietary":12531,"ĠPriestley":12532,"noisseurs":12533,"Ġinvoluntarily":12534,"Ġparabola":12535,"Ġfrankness":12536,"ĠKingsmill":12537,"ĠKNOW":12538,"ĠREPLACEMENT":12539,"insipid":12540,"ĠPhalaris":12541,"ĠPUBLIC":12542,"ĠPROBLEM":12543,"TRADEMARK":12544,"Ġhyperbolic":12545,"ĠEXCEPT":12546,"CLUSION":12547,"Ġ84116":12548,"(Â§":12549,")[":12550,")âĢĿ;":12551,".).":12552,".)âĢĶ":12553,"83":12554,"84":12555,":_":12556,";âĢĿ":12557,"?_":12558,"AH":12559,"Ab":12560,"Are":12561,"App":12562,"Apr":12563,"Astr":12564,"Apart":12565,"Ant":12566,"Axioms":12567,"Bod":12568,"Can":12569,"Cogn":12570,"Creator":12571,"Cogito":12572,"Des":12573,"Deduction":12574,"DING":12575,"Either":12576,"EAL":12577,"Elements":12578,"FUT":12579,"FOU":12580,"Failing":12581,"Gign":12582,"Geometry":12583,"HIB":12584,"IP":12585,"Ill":12586,"ICE":12587,"IOM":12588,"Indeed":12589,"IENCE":12590,"Judgement":12591,"KÃ":12592,"Law":12593,"LLI":12594,"My":12595,"Mod":12596,"Much":12597,"MOR":12598,"MARK":12599,"Modality":12600,"Nun":12601,"NIC":12602,"Numer":12603,"NUM":12604,"NIG":12605,"New":12606,"Ov":12607,"Other":12608,"Observation":12609,"Phenomen":12610,"Pers":12611,"PER":12612,"Prop":12613,"Plat":12614,"PACE":12615,"PPENDIX":12616,"Possession":12617,"Result":12618,"RICE":12619,"Sach":12620,"Solution":12621,"SBERG":12622,"Second":12623,"Socr":12624,"Short":12625,"SYSTEM":12626,"TU":12627,"Te":12628,"Tot":12629,"Then":12630,"TENCE":12631,"TALITY":12632,"Tecum":12633,"Where":12634,"XIOM":12635,"Yet":12636,"Zen":12637,"_)":12638,"_),":12639,"ai":12640,"aum":12641,"aest":12642,"afe":12643,"aert":12644,"bu":12645,"bow":12646,"btr":12647,"bations":12648,"bial":12649,"bted":12650,"bvious":12651,"bank":12652,"boast":12653,"birth":12654,"cit":12655,"cle":12656,"cation":12657,"cod":12658,"cart":12659,"cro":12660,"cosm":12661,"cula":12662,"cury":12663,"citizen":12664,"carry":12665,"certificate":12666,"dich":12667,"decess":12668,"ders":12669,"dism":12670,"down":12671,"datum":12672,"diction":12673,"dentity":12674,"dabilis":12675,"dabile":12676,"een":12677,"eter":12678,"eternity":12679,"fate":12680,"fant":12681,"fusion":12682,"fail":12683,"flatter":12684,"fume":12685,"fals":12686,"futation":12687,"fling":12688,"foot":12689,"fourth":12690,"failing":12691,"gans":12692,"gart":12693,"gated":12694,"gree":12695,"gner":12696,"gave":12697,"greement":12698,"geneal":12699,"hs":12700,"hur":12701,"house":12702,"hole":12703,"hiatus":12704,"horizontal":12705,"iation":12706,"iec":12707,"iogn":12708,"iad":12709,"iates":12710,"iothe":12711,"iably":12712,"iery":12713,"jo":12714,"juris":12715,"lib":12716,"lant":12717,"lost":12718,"liber":12719,"laps":12720,"logicians":12721,"length":12722,"lorn":12723,"mr":12724,"mil":12725,"mans":12726,"mest":12727,"mmed":12728,"mma":12729,"march":12730,"mists":12731,"mphiboly":12732,"mometer":12733,"ns":12734,"ny":12735,"nil":12736,"narrow":12737,"oat":12738,"oak":12739,"oexistence":12740,"oins":12741,"oosing":12742,"opposites":12743,"ping":12744,"psis":12745,"pires":12746,"pode":12747,"pair":12748,"ron":12749,"ris":12750,"rut":12751,"ract":12752,"rose":12753,"rived":12754,"range":12755,"rane":12756,"rained":12757,"ranks":12758,"ridge":12759,"random":12760,"rmometer":12761,"sign":12762,"sine":12763,"sedu":12764,"size":12765,"sides":12766,"safe":12767,"ti":12768,"tus":12769,"tol":12770,"tuition":12771,"titles":12772,"uo":12773,"vo":12774,"vil":12775,"vest":12776,"viate":12777,"vestig":12778,"visible":12779,"vient":12780,"wide":12781,"whence":12782,"warn":12783,"wider":12784,"years":12785,"zes":12786,"zing":12787,"´ris":12788,"Ã©":12789,"ÃĢ":12790,"Ã´ris":12791,"ĠX":12792,"ĠĊ":12793,"Ġiv":12794,"ĠâĢĶ":12795,"Ġxi":12796,"Ġversa":12797,"ĸNIG":12798,"ĺ_":12799,"Ġtab":12800,"Ġtuition":12801,"Ġtree":12802,"Ġtied":12803,"Ġtween":12804,"Ġtempor":12805,"heat":12806,"heard":12807,"heism":12808,"heav":12809,"Ġaiothe":12810,"onos":12811,"onism":12812,"onset":12813,"iner":12814,"intern":12815,"inform":12816,"instit":12817,"inadmissible":12818,"inhering":12819,"inherence":12820,"inferred":12821,"inexperienced":12822,"initial":12823,"indeterminable":12824,"incogitable":12825,"insecurity":12826,"inconvenience":12827,"Ġoce":12828,"Ġthew":12829,"Ġthermometer":12830,"retr":12831,"reaction":12832,"rearr":12833,"revel":12834,"reached":12835,"restraint":12836,"repet":12837,"revolution":12838,"reinst":12839,"remiss":12840,"reprehensible":12841,"itiv":12842,"itical":12843,"itus":12844,"itiful":12845,"ithet":12846,"itiation":12847,"isos":12848,"isans":12849,"isio":12850,"issed":12851,"isque":12852,"encl":12853,"enounce":12854,"enables":12855,"enunciated":12856,"encro":12857,"ati":12858,"atism":12859,"atived":12860,"atient":12861,"atii":12862,"attraction":12863,"atheism":12864,"Ġcum":12865,"Ġcel":12866,"Ġcoll":12867,"Ġclement":12868,"Ġcru":12869,"Ġcovert":12870,"Ġcertificate":12871,"eries":12872,"erially":12873,"eriality":12874,"Ġwon":12875,"Ġward":12876,"Ġwast":12877,"Ġwood":12878,"Ġwars":12879,"Ġson":12880,"Ġsou":12881,"Ġsqu":12882,"Ġswor":12883,"Ġscor":12884,"Ġsix":12885,"Ġswell":12886,"Ġsieve":12887,"Ġpict":12888,"Ġpsych":12889,"Ġpick":12890,"Ġpicked":12891,"Ġpiec":12892,"Ġpitiful":12893,"Ġinim":12894,"Ġincon":12895,"Ġinch":12896,"Ġinad":12897,"Ġinca":12898,"Ġinop":12899,"Ġincogn":12900,"Ġinaction":12901,"Ġinconsequently":12902,"Ġincess":12903,"Ġinert":12904,"Ġinsuper":12905,"Ġinserted":12906,"Ġincompleteness":12907,"Ġinformed":12908,"Ġinheres":12909,"Ġinorgan":12910,"Ġinnumer":12911,"Ġinitial":12912,"Ġincogitable":12913,"Ġinitiation":12914,"aling":12915,"alved":12916,"alities":12917,"ices":12918,"ications":12919,"icative":12920,"Ġbos":12921,"Ġbide":12922,"Ġburn":12923,"Ġbungl":12924,"Ġbarri":12925,"esis":12926,"esce":12927,"escence":12928,"Ġthin":12929,"oring":12930,"orum":12931,"ormy":12932,"oricians":12933,"orters":12934,"Ġtop":12935,"Ġtour":12936,"Ġtoto":12937,"Ġmad":12938,"Ġmour":12939,"Ġmother":12940,"Ġmount":12941,"Ġmutation":12942,"Ġmecum":12943,"celes":12944,"Ġfog":12945,"Ġfet":12946,"Ġfought":12947,"Ġfoun":12948,"Ġfather":12949,"Ġfiery":12950,"ingence":12951,"anas":12952,"anum":12953,"anarch":12954,"edo":12955,"Ġnation":12956,"Ġnight":12957,"Ġnigh":12958,"Ġnug":12959,"Ġnaming":12960,"ĠnÃ´ris":12961,"Ġeis":12962,"Ġemin":12963,"Ġeuth":12964,"Ġerection":12965,"Ġeadem":12966,"sea":12967,"seven":12968,"Ġism":12969,"Ġrenow":12970,"Ġreform":12971,"Ġreposed":12972,"Ġrecede":12973,"Ġreminis":12974,"Ġreprim":12975,"Ġreconverted":12976,"Ġreprehensible":12977,"Ġreversed":12978,"Ġrectification":12979,"Ġrecommencing":12980,"lea":12981,"leaving":12982,"lecula":12983,"lejo":12984,"Ġconst":12985,"Ġconger":12986,"Ġdar":12987,"Ġdaw":12988,"Ġdare":12989,"stall":12990,"stret":12991,"stumbling":12992,"stormy":12993,"omit":12994,"omus":12995,"omuch":12996,"omistic":12997,"omists":12998,"omitted":12999,"entive":13000,"entures":13001,"otomy":13002,"arther":13003,"arie":13004,"arcation":13005,"asive":13006,"asserted":13007,"ascribe":13008,"ashed":13009,"ascent":13010,"ashes":13011,"utans":13012,"utations":13013,"utably":13014,"utants":13015,"Ġhate":13016,"Ġhorizontal":13017,"Ġhunted":13018,"Ġhalved":13019,"Ġassemble":13020,"Ġprimit":13021,"Ġprating":13022,"Ġprized":13023,"Ġprius":13024,"Ġprhole":13025,"lless":13026,"llating":13027,"thest":13028,"thesis":13029,"theme":13030,"Ġubi":13031,"ivion":13032,"ivol":13033,"ivocal":13034,"itioners":13035,"imality":13036,"imperfectly":13037,"imparted":13038,"ationis":13039,"ationary":13040,"osa":13041,"ospect":13042,"Ġexul":13043,"Ġexponent":13044,"Ġonwards":13045,"Ġontology":13046,"Ġnotes":13047,"Ġnotio":13048,"Ġlame":13049,"Ġliterary":13050,"Ġloud":13051,"Ġlapse":13052,"pted":13053,"ptians":13054,"pths":13055,"Ġweigh":13056,"Ġforlorn":13057,"ithme":13058,"idical":13059,"idable":13060,"ceptio":13061,"ceptibility":13062,"encement":13063,"Ġsupe":13064,"Ġsupel":13065,"Ġsuaveolens":13066,"ibil":13067,"ibule":13068,"ibilia":13069,"terable":13070,"irous":13071,"irmat":13072,"Ġgame":13073,"Ġgerms":13074,"Ġgonos":13075,"thread":13076,"thirteen":13077,"ĠIdentity":13078,"urate":13079,"urities":13080,"urope":13081,"uridical":13082,"cio":13083,"cillating":13084,"ogony":13085,"quacious":13086,"quando":13087,"quaest":13088,"veritable":13089,"verbial":13090,"resset":13091,"istinct":13092,"istration":13093,"istinguish":13094,"Ġoration":13095,"Ġorgans":13096,"âĢĺ_":13097,"ifold":13098,"ifici":13099,"ecub":13100,"perate":13101,"pertain":13102,"perative":13103,"perman":13104,"permiss":13105,"perceptive":13106,"perceptible":13107,"perdur":13108,"perceptio":13109,"Ġallo":13110,"Ġallures":13111,"Ġproxim":13112,"Ġproposing":13113,"Ġproverbial":13114,"empiricist":13115,"ulas":13116,"ulary":13117,"ulare":13118,"Ġobjector":13119,"ĠTod":13120,"ĠTwo":13121,"ĠTerr":13122,"ĠTOR":13123,"ĠTIM":13124,"ĠTABLE":13125,"Ġreasoned":13126,"conca":13127,"confined":13128,"conjoin":13129,"chican":13130,"choosing":13131,"Ġintol":13132,"Ġintemper":13133,"endure":13134,"endum":13135,"endix":13136,"endium":13137,"orest":13138,"Ġdeem":13139,"Ġdefer":13140,"Ġdeals":13141,"Ġdeparts":13142,"Ġdealt":13143,"Ġdetaining":13144,"Ġdebar":13145,"Ġdeceptions":13146,"Ġdepreciated":13147,"Ġdepths":13148,"ilful":13149,"ilater":13150,"pleading":13151,"Ġalive":13152,"usal":13153,"actio":13154,"Ġhair":13155,"Ġhaste":13156,"âĢĶ_":13157,"âĢĶâĢĺ_":13158,"amber":13159,"amund":13160,"ambitious":13161,"Ġunso":13162,"Ġuncom":13163,"Ġunreason":13164,"Ġunlu":13165,"Ġunwill":13166,"Ġunlike":13167,"Ġunadv":13168,"Ġuncommon":13169,"Ġunsus":13170,"Ġunconcerned":13171,"Ġunmist":13172,"Ġunseen":13173,"Ġunbecom":13174,"Ġunattained":13175,"Ġunpopular":13176,"Ġunaccompanied":13177,"Ġunascertain":13178,"Ġunaware":13179,"Ġunveil":13180,"Ġuncaused":13181,"Ġunchangeably":13182,"Ġunperceived":13183,"Ġunrighteous":13184,"Ġunhappily":13185,"Ġunauthorized":13186,"Ġunilater":13187,"illimit":13188,"pled":13189,"plurality":13190,"plau":13191,"abasis":13192,"abilia":13193,"abundant":13194,"abulary":13195,"awaken":13196,"detain":13197,"deep":13198,"deficiency":13199,"dealing":13200,"ansion":13201,"anslated":13202,"Ġatomus":13203,"olish":13204,"Ġ()":13205,"Ġ(=":13206,"igations":13207,"iguity":13208,"igenesis":13209,"umble":13210,"umping":13211,"umatism":13212,"mination":13213,"ministration":13214,"Ġspelling":13215,"Ġspinning":13216,"Ġspatii":13217,"traces":13218,"trouble":13219,"trains":13220,"travag":13221,"Ġlawsu":13222,"Ġlawlessness":13223,"oused":13224,"estial":13225,"estine":13226,"Ġraw":13227,"Ġrays":13228,"Ġrouse":13229,"Ġrhapsod":13230,"Ġroused":13231,"Ġundergo":13232,"Ġotherwhere":13233,"Ġtrick":13234,"Ġtrampl":13235,"Ġtriad":13236,"Ġdoor":13237,"Ġdove":13238,"foregoing":13239,"ĠBON":13240,"ĠBru":13241,"ĠBAC":13242,"ĠBaum":13243,"Ġvon":13244,"Ġvind":13245,"Ġvult":13246,"Ġvoy":13247,"Ġvindic":13248,"Ġvisions":13249,"Ġvider":13250,"Ġvarie":13251,"Ġnecessities":13252,"orian":13253,"odox":13254,"getic":13255,"Ġpertain":13256,"Ġperpend":13257,"Ġperspic":13258,"Ġperversion":13259,"Ġperfume":13260,"Ġtheme":13261,"akable":13262,"Ġformative":13263,"Ġformidable":13264,"Ġformulas":13265,"Ġnoet":13266,"Ġnovo":13267,"Ġnoogony":13268,"ounding":13269,"allation":13270,"alloyed":13271,"Ġimproperly":13272,"Ġabuse":13273,"Ġabort":13274,"Ġabides":13275,"Ġabiding":13276,"Ġabridge":13277,"Ġabolish":13278,"prit":13279,"prising":13280,"Ġnatisque":13281,"Ġheard":13282,"Ġheap":13283,"Ġhears":13284,"Ġhemmed":13285,"adic":13286,"adays":13287,"adology":13288,"posses":13289,"sun":13290,"suit":13291,"suited":13292,"suaveolens":13293,"Ġregulates":13294,"individ":13295,"indemonstr":13296,"indemonstrable":13297,"indistinguish":13298,"antities":13299,"antithetic":13300,"Ġknot":13301,"Ġkai":13302,"Ġcognate":13303,"Ġcognitable":13304,"Ġphenomenized":13305,"Ġphenomenization":13306,"ĠFRE":13307,"ĠFailing":13308,"ĠFarther":13309,"artifices":13310,"presently":13311,
[...]
